#version: 0.2
a s
a t
r e
Ġ w
Ġw as
Ġ p
i n
at i
i c
o n
Ġ a
o l
Ġ 1
Ġ s
l o
t h
re s
n t
u re
o d
e d
th e
Ġ 2
ati on
Ġ b
0 0
Ġ d
e r
e nt
s t
i t
Ġb lo
res s
Ġblo od
ol ic
Ġp ress
Ġpress ure
r ation
Ġ2 1
Ġd i
Ġ c
Ġ at
a l
ati ent
Ġ t
o r
Ġp atient
Ġ re
n o
Ġ 9
u l
Ġ o
p i
a in
e m
Ġre c
Ġ m
s e
p er
in g
Ġ the
Ġ no
Ġ f
as t
Ġno t
Ġp ain
Ġ -
at u
Ġs y
Ġ res
e s
Ġres pi
Ġp ul
Ġsy st
m in
Ġt em
Ġrespi ration
at ure
Ġpul se
Ġdi ast
Ġdiast olic
Ġsyst olic
per ature
Ġtem perature
Ġs atu
Ġsatu ration
Ġrespiration s
i v
e re
a r
Ġa d
Ġ h
Ġ 0
a n
i d
or d
Ġrec ord
Ġrecord ed
Ġ in
lo w
a g
Ġf ol
low ing
Ġfol lowing
Ġ [
] ,
Ġ v
i s
Ġc od
o m
i st
e n
e t
1 0
Ġa nt
iv ed
Ġa n
Ġ 7
Ġ9 8
Ġa c
r o
Ġm ed
ation s
Ġmed ic
h i
i a
e p
Ġ 8
s p
Ġ1 6
i on
Ġ l
ere d
Ġad min
Ġ 6
Ġ1 8
Ġadmin ist
Ġw ere
Ġadminist ered
Ġcod e
Ġ ic
Ġic d
a min
Ġ (
c o
e c
Ġrec e
Ġmedic ations
in e
r a
' s
m it
r i
t ed
Ġad mit
Ġadmit ted
Ġ1 00
u s
u m
Ġrece ived
Ġ9 7
o s
a d
a c
at e
Ġ 5
1 2
Ġ1 0
p l
Ġa g
Ġ n
ag e
Ġant i
Ġc om
it al
Ġt a
Ġ1 2
it ion
Ġdi sp
Ġ is
Ġdisp os
Ġdispos ition
1 1
p h
or s
hi b
0 1
Ġin hib
Ġinhib it
Ġ g
Ġ1 3
0 8
t ic
Ġ1 4
0 7
0 3
e l
0 5
0 9
0 6
0 2
Ġinhibit ors
0 4
e f
l y
on e
a nt
m g
m l
i o
Ġ u
Ġ21 4
Ġ21 7
Ġp re
Ġ1 5
Ġ21 3
Ġ21 6
an c
Ġ21 8
) .
Ġ21 5
Ġ9 9
Ġ1 1
it y
Ġag ent
Ġac u
a m
st ic
al e
it amin
ag no
Ġdi agno
Ġdiagno stic
Ġa r
e ar
Ġcom pl
Ġ 3
k ing
Ġ y
Ġ ol
Ġt ri
y l
u r
Ġc hi
Ġ ed
Ġ as
io us
Ġpre v
ain t
Ġs co
Ġcompl aint
Ġv ia
Ġol d
Ġar r
Ġsco re
Ġchi ef
Ġv ital
Ġy ear
Ġta king
Ġvital s
Ġh ad
p atient
Ġtri age
Ġprev ious
Ġcod es
Ġacu ity
Ġarr ived
Ġprevious ly
Ġan d
c h
i um
ati v
z ep
Ġ2 0
Ġ1 7
Ġ21 2
t r
u c
Ġin s
Ġ 4
anc e
u p
iv e
om e
i f
Ġ2 2
l e
o p
Ġagent s
Ġh ome
Ġs t
Ġu n
p y
Ġa m
Ġd er
Ġh y
Ġ1 9
o id
Ġa l
o t
id e
h y
al g
Ġ en
it e
Ġ on
er s
i l
Ġm ar
es ic
alg esic
Ġan algesic
Ġ i
in es
pi r
a b
i al
Ġ9 6
2 5
1 8
Ġw al
1 9
Ġwal k
Ġc h
el ec
y c
Ġ lo
r ic
at in
1 5
Ġre d
g u
Ġw h
Ġred uc
Ġwh ite
Ġac id
1 7
e st
Ġdi s
g l
Ġp ro
al c
Ġder iv
1 6
1 4
1 3
Ġ21 9
sp ec
2 8
Ġderiv ativ
Ġf em
as e
on ist
Ġthe ra
Ġthera py
2 7
3 0
2 0
Ġfem ale
z ol
Ġderivativ es
the r
if i
atu s
Ġst atus
Ġo ther
Ġan y
Ġas pir
ar g
2 4
2 9
zep am
Ġ e
i m
Ġaspir in
2 6
a x
Ġm ale
Ġs al
ifi ed
2 3
itamin s
ph en
t ive
Ġl an
ul t
arg e
ch arge
Ġdis charge
gu age
Ġlan guage
ur ance
Ġins urance
2 2
ic yl
Ġmar ital
et amin
en z
c k
a lo
g ic
2 1
Ġta b
is h
Ġs ul
Ġblo ck
et a
Ġ2 3
Ġblock ers
Ġun spec
t a
l i
Ġsul f
Ġen gl
Ġengl ish
t ion
Ġcom b
Ġsal icyl
t or
l u
on in
Ġc alc
Ġunspec ified
onist s
ul in
in ations
Ġcomb inations
Ġb eta
Ġs elec
ia zep
Ġselec tive
o phen
zol e
etamin ophen
Ġ9 5
pi d
Ġins ulin
Ġb enz
a p
b ul
Ġhy d
er ol
or ph
Ġo f
Ġc o
pi oid
Ġs er
hy per
Ġam bul
Ġant ag
3 1
Ġant ic
em ic
ot onin
u t
iazep ines
Ġambul ance
ativ e
an se
tr on
d anse
Ġon danse
Ġondanse tron
o c
ac t
Ġc ar
i r
Ġcalc ium
Ġv itamins
alo g
od one
Ġm et
Ġv ial
ep tor
Ġ 00
od iazepines
Ġanti hyper
Ġn on
5 0
r om
Ġg ast
Ġbenz odiazepines
i p
or tic
Ġa b
Ġo x
Ġ r
Ġ th
ep ress
Ġant id
er al
th m
y p
Ġan alog
Ġser otonin
k e
Ġm ult
y ro
ra zepam
Ġlo razepam
Ġp l
Ġ0 1
Ġs up
o x
v itamin
ta ke
up take
t ing
li pid
epress ant
Ġantid epressant
Ġsup pl
at es
Ġas thm
Ġasthm a
7 8
e v
Ġantihyper lipid
Ġantihyperlipid emic
Ġac ting
Ġgast ric
Ġanalgesic s
re n
Ġac etaminophen
Ġs ec
a re
Ġanalog s
Ġ0 6
Ġmult iv
Ġ8 0
ac k
Ġs od
Ġ7 0
Ġsulf ate
Ġdi ed
re tion
Ġsec retion
co p
) ,
Ġhy per
i th
g re
ol y
Ġ0 2
t ase
Ġre l
ra zole
4 5
amin e
Ġsod ium
e th
Ġ or
Ġ7 2
Ġg ab
Ġ7 8
v ul
Ġs ing
er gic
Ġdi d
Ġrece ive
ia z
Ġ9 4
Ġl ax
Ġreduc tase
Ġ0 9
Ġlax ative
st atin
Ġsing le
c l
on vul
Ġreduc ing
onvul s
Ġ0 8
Ġre uptake
onvuls ant
Ġantic onvulsant
ar y
n e
a f
5 9
l et
Ġox yc
Ġpro t
Ġco a
v ast
vast atin
Ġh mg
statin s
Ġm in
en s
Ġ7 4
s y
Ġo pioid
Ġag gre
ate let
Ġoxyc odone
g ation
Ġpl atelet
Ġaggre gation
orph ine
Ġ7 6
ol ol
or t
Ġm orphine
Ġno s
co c
h al
Ġs u
Ġ6 8
pi s
Ġmin eral
id es
Ġ7 5
Ġrec eptor
r is
Ġmedic al
m at
Ġprot on
um p
ortic oid
n es
Ġhyd ro
4 9
5 8
Ġ0 3
Ġp ump
cop d
Ġg lu
n d
p pis
Ġ k
coc orticoid
ol o
ric an
Ġanti an
e x
Ġ8 8
Ġ6 6
Ġb l
ure tic
3 9
o tic
ul ant
Ġ8 2
Ġbl ack
hy d
b ut
Ġin hal
Ġantag onists
Ġsalicyl ate
Ġ7 7
Ġ7 3
Ġdi uretic
d ia
Ġ8 1
Ġn e
4 8
Ġw ith
Ġ7 1
Ġsalicyl ates
Ġ0 7
er ation
ic an
a zepam
th yro
ren ergic
Ġinhal ed
Ġ6 7
Ġmineral s
5 6
Ġ8 4
h ist
4 6
Ġ7 9
Ġanti hist
Ġ0 4
Ġ0 5
w n
3 8
Ġ6 5
Ġl ev
Ġg en
gic al
5 5
h e
no wn
Ġc l
Ġ6 0
4 7
Ġs h
o st
Ġun k
Ġunk nown
t ens
el l
Ġ6 4
Ġag onists
dia c
thyro x
thyrox ine
oly t
Ġin it
but erol
4 0
Ġ elec
tr olyt
Ġab d
ar in
Ġelec trolyt
3 6
3 5
Ġb ag
Ġ9 0
olo gical
Ġder mat
Ġdermat ological
amin es
z ine
Ġ6 9
m e
Ġelectrolyt es
af rican
Ġh cl
Ġmedic are
4 2
Ġ8 6
5 7
i et
3 2
i es
yp e
Ġam er
Ġamer ican
5 1
lo r
3 7
or m
ri ed
Ġmar ried
Ġh e
Ġanti p
ri l
op r
x iet
xiet y
Ġ8 5
Ġgen eration
Ġ6 2
d i
ic al
Ġal buterol
as s
Ġ8 7
Ġ9 3
ro f
r on
Ġ8 3
4 3
Ġcar diac
at ed
Ġ9 2
h t
id ine
ep razole
Ġsuppl ies
4 4
3 3
Ġsh ort
Ġl is
ost er
ly c
Ġantihist amines
Ġ ,
ra c
opr olol
Ġo m
Ġantian xiety
ph a
Ġmet oprolol
Ġom eprazole
Ġf lu
ep h
a u
Ġ6 3
3 4
Ġ8 9
ain e
ra m
5 4
5 2
al l
5 3
sy ch
q u
et ic
Ġs uc
4 1
x a
Ġ9 1
Ġ5 0
Ġsy n
Ġsy r
ul ar
u ro
on g
yc in
op ril
r ine
Ġrel ated
s s
in opril
Ġlis inopril
an n
Ġ6 1
ag nes
sych otic
Ġantip sychotic
Ġch est
th iaz
u n
Ġac e
Ġsuc c
as one
id ines
t ro
Ġmultiv itamins
Ġal pha
Ġmultiv itamin
Ġgab a
ad renergic
r at
the tic
Ġ5 8
Ġst im
d n
ss ris
Ġstim ulant
Ġ low
Ġf all
dn is
py r
Ġcl on
agnes ium
o pioid
a id
Ġ1 10
in al
p ro
orph one
Ġhyd rom
Ġhydrom orphone
Ġglu cocorticoid
Ġc ef
ann el
Ġch annel
il l
hyd ro
it r
ent in
Ġ5 9
o min
Ġp h
ap entin
Ġgab apentin
Ġhyper tens
re c
Ġ x
Ġ10 2
t e
g lyc
Ġl id
Ġch ol
Ġt est
ri m
oc aine
Ġt r
a zole
gl u
Ġl ong
Ġp i
1 00
is p
Ġlid ocaine
a zine
Ġm on
i g
ar b
ip ine
Ġpi per
re tic
Ġhypertens ion
Ġanti py
Ġantipy retic
ar t
o u
on ate
Ġ218 1
Ġ217 6
Ġ214 5
Ġc on
Ġlev o
Ġc y
Ġsu per
Ġcar b
if erol
alc iferol
yp ical
Ġanti b
em ide
em ia
Ġ10 1
Ġ214 4
Ġs p
Ġ214 6
Ġs k
Ġclon azepam
Ġ11 8
Ġ214 0
Ġ5 00
ol ac
Ġ5 6
em ent
Ġ216 3
in eph
Ġ218 0
Ġsuppl y
Ġch lor
Ġ217 7
Ġ5 7
Ġ213 0
Ġ215 2
b al
Ġ214 1
Ġ217 8
se t
Ġ216 0
d b
Ġv itamin
Ġf db
Ġsuper set
Ġ215 1
Ġ213 1
Ġ214 8
Ġn ec
Ġ217 4
Ġ214 9
Ġ216 1
Ġ216 4
Ġ213 2
Ġ216 5
Ġ218 9
Ġ214 3
Ġ217 5
Ġ213 8
Ġd me
Ġd op
Ġ215 6
Ġ217 9
Ġ214 7
f a
or vastatin
Ġat orvastatin
Ġ218 5
Ġ215 4
Ġ213 9
Ġ213 5
Ġh orm
Ġ216 9
Ġ1 12
h ol
Ġ216 7
ac etaminophen
Ġ213 3
Ġ217 0
ineph rine
Ġ216 2
Ġ212 9
Ġ217 1
Ġ10 8
Ġ218 6
Ġ217 2
Ġ213 4
in ate
oid s
Ġ213 6
Ġ217 3
Ġ218 8
Ġ214 2
us c
Ġs ur
d ipine
Ġ213 7
Ġ215 3
Ġm usc
Ġ215 9
i b
Ġ218 3
Ġsucc inate
Ġ218 7
Ġ216 6
Ġ12 0
omin al
on es
Ġabd ominal
Ġ218 4
Ġi b
Ġe x
Ġ12 5
Ġ218 2
a no
Ġ215 5
Ġ215 0
Ġ215 8
eth yl
Ġ216 8
Ġ212 8
Ġi i
Ġ ri
Ġ12 8
i x
u lo
Ġ12 2
Ġne b
Ġ215 7
Ġp ot
er t
Ġf ac
anc om
Ġv ancom
Ġsyn thetic
ass ium
a ir
Ġt ype
if ic
Ġ11 6
Ġ10 6
r al
Ġantag onist
Ġpot assium
Ġ10 3
Ġc ortic
Ġ10 4
oster oids
Ġcortic osteroids
Ġ5 5
Ġmusc le
t er
rof en
Ġh fa
Ġhe ad
re p
up rofen
Ġlo op
Ġchol ec
Ġdi hydro
pyr idines
Ġdihydro pyridines
u nt
Ġib uprofen
Ġ12 4
Ġ2 5
Ġhorm ones
8 8
Ġ10 9
lo dipine
Ġsur f
act ant
Ġsurf actant
Ġth yro
Ġf olic
unt er
co unter
Ġ212 6
Ġthyro id
Ġ12 6
Ġ11 5
o f
7 9
Ġ212 7
Ġlevo thyroxine
Ġ10 5
Ġam lodipine
o sp
Ġdop amine
Ġ11 7
no s
Ġd y
Ġcholec alciferol
Ġn s
tic asone
d id
Ġchlor ide
au did
Ġflu ticasone
Ġrel ax
Ġrelax ant
Ġ11 4
lo ro
ch loro
ro pi
Ġen counter
rep inephrine
at ors
co se
ab le
d il
Ġ5 4
Ġ10 7
it is
Ġin f
Ġ11 9
Ġ212 5
Ġ1 11
Ġ12 7
dil audid
ol one
Ġ13 0
Ġi m
Ġs im
ir al
Ġ2 4
t ox
Ġns aid
Ġinit ial
ri p
Ġ12 3
o ut
on ic
Ġ13 2
Ġ12 9
us s
osp h
ac ement
oc us
glu cocorticoid
ocus ate
Ġf uro
s emide
Ġfuro semide
Ġre pl
op razole
al m
as al
Ġc are
le ep
f or
Ġ12 1
Ġrepl acement
Ġ11 3
co bal
Ġcy ano
cobal amin
Ġcyano cobalamin
no repinephrine
Ġt et
Ġd ocusate
Ġ212 4
o w
thiaz ide
an ic
Ġ13 8
in t
x one
Ġk et
Ġpre dnis
Ġ13 6
ab et
Ġb i
en e
Ġ212 2
Ġn asal
se l
co x
Ġdi azepam
Ġm agnesium
Ġ13 3
Ġp ant
Ġh ep
Ġpant oprazole
r in
Ġ5 2
p on
em etic
Ġanti emetic
for min
ati c
ol ar
Ġ13 5
Ġ13 4
Ġmet formin
Ġprednis one
Ġ212 3
Ġtr an
es s
t ype
Ġwith out
Ġacu te
Ġhydro c
io tic
h anc
Ġen hanc
spec ific
Ġc ol
Ġb ip
a k
nes s
Ġbip olar
8 9
rec eptor
Ġh isp
atin o
Ġhisp anic
an yl
chloro thiazide
ag ulant
o agulant
Ġt o
Ġl e
p ram
an us
tr ia
i an
s f
Ġin j
ent anyl
Ġf entanyl
rac t
Ġ212 1
Ġpro st
Ġ5 3
Ġhe al
Ġt ra
c om
Ġheal th
Ġ3 0
Ġtet anus
Ġsim vastatin
Ġcef tria
Ġceftria xone
Ġn it
Ġ212 0
g ht
Ġglu cose
Ġ13 7
gu an
Ġbi guan
Ġ219 0
Ġres pon
Ġrespon se
Ġenhanc ers
Ġ13 1
di ph
m ed
Ġantib iotic
ad ine
Ġbiguan ides
Ġco um
Ġan g
Ġri ght
Ġ13 9
Ġ j
rom ide
Ġat ypical
on ary
Ġsp ec
Ġ14 0
Ġu rin
Ġ21 18
Ġpro pi
l atino
Ġcarb onate
Ġv as
oagulant s
Ġantic oagulants
ec t
ph th
g ar
Ġl ef
o th
Ġ21 19
or b
Ġhy p
Ġlef t
Ġvancom ycin
itr ate
Ġhydro x
med i
ac he
ropi um
rat ropium
Ġi p
Ġip ratropium
medi ate
Ġsu gar
Ġglucocorticoid s
Ġb romide
Ġo phth
com pl
Ġc lo
ac ell
diph tox
lo x
Ġ219 1
hyd r
Ġang io
Ġdy sp
Ġ z
tr ate
01 9
Ġhydro chlorothiazide
ill in
Ġangio tens
ne a
or olac
Ġket orolac
alm ic
Ġophth almic
Ġangiotens in
et ine
ar r
z ines
an d
Ġc ap
Ġ21 17
Ġ5 1
ac in
am eth
Ġanti f
Ġdysp nea
Ġh um
Ġ14 2
art an
Ġth iaz
Ġthiaz ides
Ġg l
Ġ219 2
od il
Ġvas odil
Ġvasodil ators
er g
Ġpropi onic
Ġ21 16
Ġad renergic
Ġdi se
g m
Ġs ol
Ġt ar
Ġin t
Ġcon t
et i
Ġc ent
Ġtar trate
Ġdi abet
Ġdiabet es
Ġc or
4 019
Ġs o
r ol
b enz
Ġsal ine
s n
min e
yc l
Ġhead ache
Ġd ex
Ġph osph
m otic
s er
Ġh ist
Ġne ed
lox acin
Ġb ack
Ġ ra
Ġw e
arb s
Ġdi v
im mediate
Ġdise ase
Ġ14 6
Ġcoum arin
Ġs pir
Ġs en
s artan
id azole
Ġ21 15
Ġ4 0
Ġi ron
n a
Ġm ethyl
oster one
e no
x xa
or y
Ġf ib
Ġp oly
Ġsulf at
Ġ14 8
zol am
Ġtran sf
sn ris
Ġ14 4
Ġ14 5
u g
act one
Ġtransf er
un g
Ġ qu
Ġcor onary
Ġlow er
re nt
Ġ15 0
Ġ14 3
yc lo
i z
Ġh em
Ġor al
Ġ219 3
Ġ14 1
ev er
Ġf o
it or
Ġ21 14
Ġal d
Ġw id
ow ed
Ġwid owed
Ġo s
p re
p ress
ung al
Ġhep arin
Ġ219 4
o se
Ġantibiotic s
er m
il ity
ph etamin
ter n
s ing
Ġ21 13
Ġ14 7
Ġantipsychotic s
au se
Ġa z
Ġcent ral
Ġos motic
Ġald osterone
c e
yl e
Ġfac ility
itr ates
Ġantif ungal
g inal
Ġantian ginal
ph y
est yle
re estyle
00 0
Ġurin ary
78 9
c ar
Ġnit ro
Ġf ever
Ġhist amine
Ġreduc ers
2 00
Ġp he
Ġphe no
Ġrelaxant s
y r
c ed
Ġun able
glyc emic
at h
on ol
Ġspir onol
Ġal co
78 6
Ġim m
phen hydr
08 3
Ġhyper tro
Ġsol n
Ġhypertro phy
Ġab n
Ġ ?
Ġ3 3
Ġspironol actone
ar f
Ġw arf
Ġwarf arin
Ġprost atic
n itrates
p en
ch lor
Ġ14 9
Ġinf ec
Ġ2 00
per id
Ġdi phenhydr
Ġhydroc odone
Ġinhibit or
Ġth ia
f l
ur y
Ġc ip
Ġinfec tion
z odone
Ġtra zodone
e an
Ġp ert
acell ular
Ġpert uss
Ġs leep
Ġle g
per azine
Ġpro chlor
Ġprochlor perazine
v ir
Ġ219 5
Ġalco hol
Ġimm u
hol in
holin ergic
Ġ? .
ent ial
Ġnitro glyc
Ġpheno thiaz
Ġphenothiaz ines
ill ed
Ġn ur
Ġnur sing
Ġsk illed
Ġp er
pre dnis
Ġthia mine
prednis olone
Ġmethyl prednisolone
Ġ4 8
Ġcip rof
ser otonin
Ġlo rat
Ġlorat adine
p ine
Ġas ian
Ġ ult
er in
Ġinj ury
rim ary
m agnesium
u min
ess ential
Ġ essential
v ent
umin um
Ġal uminum
Ġo b
is m
s ar
c al
Ġ4 9
m c
t in
Ġu se
p rimary
Ġm od
Ġ21 12
9 9
arr he
it alo
italo pram
Ġ100 0
8 1
Ġlo sartan
ou ch
ur in
alg ia
Ġ219 6
er ro
Ġr an
Ġantihyper glycemic
Ġph en
no tic
ent al
Ġe pi
est inal
ep t
Ġdi et
Ġdiet ary
Ġspec ified
Ġmale ate
Ġnitroglyc erin
re uptake
sar is
it idine
Ġu ta
ent ion
ic illin
erro us
Ġ2 6
c ur
Ġd ose
Ġra pid
act er
ec tive
in s
rec t
ou nd
Ġo th
Ġgast ro
nos up
phetamin e
Ġimmu nosup
Ġimmunosup press
Ġf l
Ġl act
al icyl
ar d
Ġm el
ap ine
anc et
Ġt op
m p
Ġ2 50
Ġran itidine
ant us
Ġ15 6
z apine
Ġsleep ing
Ġult ra
Ġf x
at ypical
o qu
Ġtest s
in d
acter ial
Ġdiphenhydr amine
Ġciprof loxacin
Ġ219 7
Ġwe ak
Ġcol l
Ġ15 2
Ġf errous
Ġ21 11
ancet s
am ot
ith rom
Ġweak ness
z zines
zzines s
m o
Ġt erm
Ġas c
cop e
Ġ15 4
on ide
olac e
f reestyle
ad ol
Ġal tern
Ġaltern ative
im etic
Ġt ram
Ġaz ithrom
Ġtram adol
Ġat en
Ġaten olol
s is
Ġl ancets
um b
en d
m s
ne b
07 9
Ġtop ical
Ġp r
e pi
g est
Ġal t
Ġ15 3
a il
Ġpro p
Ġ15 5
et ia
at onin
u b
Ġ4 7
Ġc itrate
le ase
Ġmel atonin
ad ult
Ġp ra
Ġw ound
ed ative
el et
Ġg lyc
Ġ219 8
Ġmedic aid
Ġac et
t rim
Ġdis ord
elet al
Ġ15 1
orb ic
Ġsk eletal
Ġ4 6
Ġasc orbic
Ġ2 8
Ġglyc ol
Ġphosph ate
om it
6 7
6 8
ure a
Ġantib acterial
Ġalt ered
p ra
Ġam p
Ġm ental
Ġl ite
Ġn ic
ause a
glucocorticoid s
al ine
or ced
Ġdiv orced
Ġ15 8
Ġad ult
a z
Ġv er
Ġv omit
Ġpiper idines
ri zine
Ġn ausea
nos ides
eti rizine
Ġst rip
Ġhum an
b eta
i eno
id ase
Ġ15 7
Ġp en
Ġ est
on ia
Ġsen nosides
Ġvomit ing
tr aline
Ġser traline
Ġsyn cope
Ġazithrom ycin
Ġre lease
Ġpoly ethyl
Ġpolyethyl ene
Ġc italopram
9 0
Ġ219 9
Ġmon o
cur rent
Ġ22 00
Ġex t
Ġmet ron
u k
Ġan es
Ġun compl
Ġdi l
c t
re no
Ġabn orm
u se
r an
Ġx an
s in
Ġlo cal
Ġsyr ing
etia pine
Ġqu etiapine
in olone
s alicyl
Ġo il
Ġsulf on
pro air
uc le
salicyl ate
reno c
l es
ic s
Ġs w
ad renoc
el ly
Ġj elly
Ġ4 5
adrenoc eptor
n at
as m
Ġ15 9
hy p
ameth asone
ra nt
Ġ6 00
Ġantic holinergic
iv es
ativ an
Ġ21 10
Ġphen yl
iazep ine
s u
Ġstrip s
Ġf ail
Ġd m
c up
Ġ et
Ġv is
ra oc
Ġpl us
raoc ular
ac id
ulo sin
Ġas leep
Ġta ms
Ġtams ulosin
Ġfail ure
ro id
Ġdi zziness
ron ic
ox etine
) ],
a i
Ġ33 50
v al
am mat
ammat ory
ug h
Ġab use
Ġantihist amine
Ġc etirizine
Ġb is
d cup
Ġu dcup
a v
ic it
g en
y algia
est erol
10 9
Ġs mo
mp ath
Ġch ronic
s im
se n
Ġpiper ac
yc i
Ġvancom yci
om imetic
mpath omimetic
Ġl ac
Ġun sp
us ion
Ġdm ard
Ġsyring e
Ġ22 01
Ġanes thetic
Ġh alo
Ġ em
Ġm ix
rip t
t ention
Ġa min
id ne
idne y
Ġpra vastatin
Ġk idney
Ġ22 02
perid ol
b ar
Ġd r
Ġc ell
yl urea
Ġsulfon ylurea
Ġhalo peridol
am ide
z o
Ġgastro int
act am
v iral
8 7
arg ine
Ġgl argine
it us
li p
re tro
Ġp u
retro viral
Ġanti retroviral
Ġco ugh
n on
Ġpre g
Ġ4 4
Ġneed les
Ġs edative
Ġf lo
o pl
Ġth ro
Ġt ract
l on
c y
Ġac c
Ġm al
Ġcompl ic
h um
x etine
Ġ rican
ert o
Ġpu erto
Ġd ulo
Ġdulo xetine
l and
Ġv al
ox yl
Ġm ell
Ġmell itus
d er
t ab
Ġ el
Ġm id
ac rol
Ġdil t
ur ce
c at
Ġ16 0
Ġimmunosuppress ive
ch ol
Ġx l
u res
hyp notic
Ġhydrox y
ep sy
ulo se
Ġfib rom
iaz em
Ġdilt iazem
Ġso urce
Ġfibrom yalgia
c tion
od ic
er ase
ig n
lo p
. -
Ġtr ia
Ġre ad
am ycin
Ġ22 03
or r
trim eth
bar ium
Ġread i
sim et
as c
Ġst ren
d eral
Ġfac tor
r it
Ġdisord er
Ġlact ulose
Ġsulf ameth
v er
6 9
Ġcont rac
Ġth ieno
pyr idine
Ġthieno pyridine
op in
Ġabnorm al
urin ol
lon opin
Ġal lop
Ġallop urinol
Ġ one
Ġsw ell
j et
Ġrecorded the
Ġdis k
Ġdisk us
Ġdi rect
Ġf ract
Ġmetron idazole
deral l
Ġc yclo
ne e
Ġnic ot
Ġmon itor
Ġb up
a y
t o
Ġthro at
asm odic
Ġxan th
isp asmodic
Ġant ispasmodic
Ġswell ing
Ġox idase
g an
Ġal l
Ġf or
ig r
Ġfo ot
ul itis
Ġneed le
Ġm igr
s c
ort is
Ġs tr
am phetamine
ur ic
ul ators
Ġhyper uric
Ġhyperuric emia
ep tive
Ġm v
iv ity
sel ective
Ġd e
Ġ +
ycl ine
oqu el
Ġt ors
of t
Ġxanth ine
Ġd ox
786 50
lo pram
oc lopram
Ġmet oclopram
Ġmetoclopram ide
i ph
Ġtors emide
Ġp yr
ne um
Ġag onist
Ġanti m
25 000
chol esterol
Ġam ides
Ġlev el
Ġp neum
mc g
Ġhyper cholesterol
Ġhypercholesterol emia
Ġk nee
Ġdex tro
Ġe val
25 0
Ġ zol
Ġm eth
v ed
u d
v air
Ġm y
Ġ4 3
di benz
Ġhem orr
Ġd ef
Ġmonitor ing
Ġcontrac eptive
c ap
b actam
11 9
sen na
co s
il ol
Ġcar ved
Ġcarved ilol
Ġn ucle
of ol
Ġprop ofol
yl en
Ġ ul
am e
ylen ol
lo se
Ġlac eration
pra zolam
Ġal prazolam
Ġn an
ome th
Ġen c
Ġcell ulitis
int raocular
iv iral
min i
arrhe a
Ġcomplic ations
Ġfract ure
Ġmet er
Ġnicot ine
Ġim idazole
l antus
Ġ4 2
Ġcef epi
Ġcefepi me
c ol
d io
ortis one
Ġgastroint estinal
gan ism
ass ified
Ġh er
ph osph
Ġt ouch
Ġdef icit
Ġhyp o
st r
Ġcalc it
nd ris
gre l
Ġd on
ast ic
nt r
Ġ *
Ġs ame
Ġenc ntr
b d
ap ro
a zol
od i
Ġdex amethasone
ropi on
Ġbup ropion
et am
Ġt re
Ġmod ulators
6 6
ar k
Ġ ro
o grel
pid ogrel
Ġclo pidogrel
Ġlev eti
Ġleveti rac
oth iazepine
dibenz othiazepine
Ġdi arrhea
ur ine
on azole
iph eral
Ġnec k
Ġ es
Ġflu oxetine
co us
Ġvis cous
tr ic
Ġgl uc
uro p
ag yl
Ġmigr aine
Ġant acid
opl astic
Ġ22 04
iv a
ri ol
Ġcalcit riol
Ġd et
ins on
ark inson
Ġpneum onia
od y
ap se
bal ta
m balta
Ġant ine
im b
c alc
Ġantine oplastic
Ġre g
f lo
c olace
Ġp art
os is
Ġ2 7
Ġr is
Ġl imb
Ġ od
iv er
Ġant iviral
u v
v asc
Ġmult i
z ide
Ġ16 8
sel ect
ycl ics
tric yclics
Ġ16 6
amot idine
g th
if en
Ġcoll apse
Ġl ip
o h
Ġv ag
Ġat tention
ox azole
os ide
fl agyl
ad h
al ol
Ġe urop
Ġeurop ean
hyper act
Ġf rom
adh d
li pi
t is
Ġp urine
Ġb y
Ġ16 9
Ġg lipi
Ġglipi zide
hyperact ivity
Ġ16 7
o us
od yl
on tin
Ġ er
Ġd ep
Ġ16 3
Ġod t
uro jet
Ġf amotidine
j ect
at hy
un spec
le v
ac odyl
Ġ16 2
os orb
a zolam
Ġet oh
p es
osorb ide
Ġis osorbide
ai ly
Ġher pes
compl ex
Ġ16 4
Ġp al
a zines
Ġpiper azines
Ġmid azolam
ou th
car diac
Ġh ear
Ġdi st
k le
Ġ16 5
Ġlevetirac etam
t l
o v
Ġhydroc ortisone
Ġ3 2
Ġh and
Ġstren gth
Ġex p
Ġhear t
Ġn a
Ġantip arkinson
5 09
Ġk lonopin
ing er
Ġ ep
al pha
calc ium
Ġs ite
Ġ16 1
Ġdr ug
r ing
re x
Ġcef azol
Ġcefazol in
Ġc eph
an zapine
Ġol anzapine
Ġf inger
Ġar m
Ġ4 1
f en
t op
erg y
ad in
ass a
Ġd epress
n assa
lo fen
as pir
i le
ag land
Ġprost agland
u tr
Ġle uk
Ġsen na
8 6
Ġ2 9
Ġ &
Ġt ear
arrhe al
Ġad derall
le x
Ġser oquel
yclo vir
Ġob ject
Ġprostagland in
Ġlis pro
r ain
or p
Ġ3 6
Ġre n
Ġantid i
Ġsk in
28 9
in hib
v ic
ef f
Ġcompl ex
od e
Ġm ir
sy ring
ta zapine
Ġmir tazapine
yl ine
ript yline
Ġ erg
al pro
iaz ine
Ġdiv alpro
Ġdivalpro ex
it in
Ġb one
Ġat ri
uc t
Ġu p
Ġpal p
orp tion
Ġtre at
Ġ3 8
ix ir
Ġtear s
ast er
Ġe y
Ġsh o
Ġh ip
Ġd s
Ġhemorr h
Ġfo re
iral ax
ific ial
Ġnit rof
Ġvag inal
Ġmon on
mc inolone
syring es
Ġint estinal
Ġl abet
Ġlabet alol
op a
Ġf orm
Ġest ro
ot ri
af f
Ġantidi arrheal
Ġin tox
Ġpiper azine
it ations
7 29
Ġar t
perid one
Ġpalp itations
Ġmonon itrate
Ġb ind
Ġbind ers
Ġcont usion
otri ene
hy thm
un ction
ph as
Ġ22 05
is ion
Ġsy mpathomimetic
Ġall ergy
flo vent
Ġpiperac illin
Ġ3 25
Ġb tl
ta zo
oc alciferol
Ġerg ocalciferol
et ouch
Ġg u
Ġan kle
Ġri f
c er
i ed
789 09
on etouch
tr iazine
Ġspec ied
Ġphenyl triazine
7 24
g ast
Ġris peridone
m ent
g a
Ġun cl
ri g
Ġup per
ep tic
Ġqu ad
Ġacet onide
et erol
c aff
Ġtria mcinolone
Ġuncl assified
Ġquad rant
Ġl amot
rig ine
Ġlamot rigine
s alm
l q
ant s
7 7
Ġdrug s
Ġdon nat
Ġp ar
gast ric
Ġdonnat ol
Ġd omin
Ġepi gastric
Ġatri al
Ġleuk otriene
ec tor
Ġdomin ican
al in
Ġs il
78 7
Ġb ody
Ġ3 4
Ġo pen
12 9
el ixir
er ic
fl ammatory
Ġant it
Ġg ly
pid em
Ġzol pidem
y n
est erase
Ġlevo f
Ġ3 7
ax is
Ġren al
Ġn ar
ometh azine
Ġpr omethazine
Ġphosph odi
Ġphosphodi esterase
ric a
% ,
Ġpyr rol
Ġ iv
salm eterol
Ġcl ass
et il
Ġob str
t al
uc k
Ġs e
Ġpyrrol idine
yc ycline
Ġdox ycycline
er b
phas ic
Ġ4 00
hal er
gu e
3 05
a ifen
ul der
o int
Ġanti per
es in
Ġcar dio
ril l
aifen esin
glu cose
18 30
pl e
Ġsho ulder
Ġclon idine
Ġdet er
rent s
Ġdeter rents
t ec
athy roid
ist al
Ġext ra
Ġx r
h ere
ic ation
Ġ3 9
Ġ3 5
hum alog
Ġb ul
ol ate
Ġper ipheral
Ġcardio vasc
Ġt ylenol
Ġb ow
Ġsmo king
Ġantiper istal
Ġantiperistal tic
ab s
Ġbow el
Ġd ic
in flammatory
rill ation
Ġfib rillation
yr tec
b et
Ġ3 1
Ġb ic
Ġbis acodyl
a zep
Ġb re
Ġacet ate
Ġ /
Ġbul k
Ġp at
Ġl antus
Ġmy co
Ġ eff
hythm ic
Ġanti arr
Ġantiarr hythmic
Ġmix t
Ġmixt ures
Ġsu b
an di
tazo bactam
col epsy
Ġnar colepsy
Ġc olace
g ra
ent s
ro sis
phen olate
Ġbenz oth
Ġmyco phenolate
Ġbenzoth iazepines
ap rine
benz aprine
Ġcyclo benzaprine
d ean
Ġver dean
cap e
r y
es onide
Ġhemorrh age
Ġcardiovasc ular
Ġdi g
Ġdi ab
Ġm acrol
gm p
Ġrespi rat
un it
Ġrespirat ory
Ġ17 9
39 0
Ġepi l
Ġj oint
Ġey e
Ġu a
o in
ac e
aster ide
ad vair
me ga
os in
Ġo mega
Ġart ificial
res tor
Ġfol ate
Ġl ub
sp or
Ġhy cl
Ġhycl ate
x xxa
am m
ine se
Ġcl ind
Ġpat ch
Ġch inese
Ġul cer
Ġintox ication
Ġclind amycin
Ġl umb
Ġf in
glyc emia
ine urin
if y
Ġcalc ineurin
ab alin
Ġpreg abalin
48 9
il ify
Ġflu or
Ġc ause
ol in
Ġantit uss
Ġ ativan
in f
7 6
Ġinf l
Ġfin asteride
9 59
17 9
06 00
of etil
su vastatin
Ġro suvastatin
Ġex ac
ati tis
Ġexac erb
Ġ17 8
Ġ17 6
Ġlevof loxacin
id al
Ġsp rain
Ġ( ,
Ġh andi
18 9
Ġhandi haler
im er
88 89
Ġtreat ment
ab in
Ġhum alog
Ġam phetamine
azep ine
id one
Ġpre nat
Ġexacerb ation
ac ch
59 90
ic e
Ġhyp notic
Ġhydroxy zine
ot ide
acch ar
p ar
Ġgluc onate
Ġ17 0
Ġprenat al
p ept
id d
Ġm is
Ġm outh
Ġ17 7
c on
c gmp
Ġm ofetil
le ed
Ġsu ic
lose c
ri losec
b ital
Ġstr uck
n s
Ġhypnotic s
al buterol
Ġs i
9 2
Ġpul m
f f
ar itin
Ġb leed
Ġan emia
Ġt um
Ġen d
27 20
Ġ22 06
Ġpr od
rect al
Ġf ish
g ens
Ġox y
Ġinfl ammatory
Ġinsulin s
Ġheparin s
Ġn y
Ġdepress ive
ifi ers
z he
Ġal zhe
Ġalzhe imer
an g
Ġobstr uc
9 289
6 1
an e
eth ic
4 27
sc ess
olo g
ethic one
Ġsmo oth
ral azine
Ġflo ra
Ġan xiety
Ġhyd ralazine
Ġre li
me q
pept id
Ġcarb oxyl
Ġcarboxyl ic
Ġmod ifiers
ot e
t y
v olog
Ġny statin
Ġnucle oside
t el
n g
8 2
Ġdy sf
ant ic
Ġbic arb
Ġn apro
Ġest ra
i od
on ates
re l
an k
Ġdysf unction
im us
4 18
Ġbis phosph
Ġres orption
ong est
Ġ17 2
Ġbisphosph onates
Ġ ide
Ġ ere
Ġor ganism
ct ile
Ġere ctile
Ġmon tel
Ġamp icillin
uk ast
Ġmontel ukast
ig ht
antic holinergic
Ġfl ank
Ġmv c
ne ed
need le
Ġpro gest
Ġ17 3
Ġderivativ e
ic ort
Ġpart ial
Ġst age
Ġfluor oqu
a ph
pi um
9 6
Ġacc id
5 31
78 40
Ġlip itor
on d
ric ant
di ol
ar i
Ġcoll ision
Ġmulti ple
Ġep inephrine
e k
Ġestro gens
Ġnec rosis
Ġb ud
Ġs l
Ġsuic idal
Ġo c
p o
x en
gen ase
c arb
ph age
c lo
en ce
t ch
Ġprod uct
ur b
Ġsim ethicone
ak ote
Ġnapro xen
Ġ17 4
Ġam ox
f ine
Ġdextro se
acchar ide
Ġmono phasic
79 4
Ġs el
al bital
Ġ17 5
ab ol
anc y
Ġamox icillin
7 19
ati gue
Ġp ers
Ġbicarb onate
op en
rom b
Ġ xa
Ġa mit
10 129
Ġfore ign
Ġf atigue
Ġimmunosuppress ives
Ġbud esonide
Ġlub ricant
Ġreg ular
per amide
l af
ax ine
Ġa no
laf axine
en lafaxine
Ġreli ef
r as
Ġac yclovir
Ġab scess
il li
s ed
Ġf um
os ure
Ġbenz is
uss ian
Ġexp osure
Ġr ussian
Ġpiperac illi
coc et
os accharide
Ġmon osaccharide
Ġpers on
th roid
Ġc ns
Ġpreg n
Ġs r
et abol
Ġantim etabol
Ġ .
Ġv enlafaxine
Ġd u
Ġn ative
op rim
9 7
305 00
48 6
av ix
ex a
Ġhyper par
Ġhyperpar athyroid
Ġdiab etic
8 5
am ic
Ġfluoroqu inolone
if ed
Ġdist urb
Ġ25 000
Ġhep ari
Ġth romb
acrol imus
Ġt acrolimus
cy mbalta
r um
Ġe th
Ġdextro amphetamine
Ġpro air
Ġii i
ar m
an ol
ere b
ifi er
b p
1 12
Ġestra diol
45 8
pi ram
piram ate
Ġag ain
Ġto piramate
Ġst ri
Ġagain st
trimeth oprim
Ġamit riptyline
ines s
09 7
z y
ro st
of en
ex ofen
exofen adine
Ġg i
al ar
ar ate
8 4
Ġfum arate
Ġantim alar
Ġantimalar ial
f o
Ġan aph
06 0
Ġanaph yl
sy mpathomimetic
Ġd aily
m b
Ġgen eral
Ġre act
f t
Ġint ract
as h
Ġintract able
Ġsulfameth oxazole
ar one
5 45
as ol
Ġacid ifier
Ġl abs
Ġ22 07
bet asol
Ġantimalarial s
Ġcol onic
% )
Ġm ec
s a
418 2
ens ion
i en
Ġb ac
Ġt ac
us h
tern al
Ġepil epsy
olo st
ay er
Ġb ut
d isp
Ġl ith
Ġtum or
Ġc er
p art
Ġlith ium
Ġam iod
Ġamiod arone
af il
ac c
b utr
s ur
ro c
h ab
Ġ18 6
Ġn ifed
butr in
ell butrin
Ġ/ ,
Ġm e
il i
pro st
er tion
car dia
Ġprot e
Ġin ter
x in
t i
Ġf reestyle
Ġac ne
Ġf exofenadine
ad one
Ġ17 1
Ġform ing
Ġtac hy
f ish
Ġval sartan
ly rica
Ġwe ight
Ġanaphyl axis
Ġg idd
Ġgidd iness
r yl
ure d
8 3
r ia
amm onia
Ġb ayer
d en
d ec
ir on
ad ryl
Ġmeth adone
mb icort
en adryl
Ġp ure
Ġl at
Ġclo betasol
Ġbre ath
Ġbleed ing
Ġs olost
Ġsolost ar
Ġcoum adin
on at
Ġl um
ran olol
u rant
Ġprop ranolol
no x
p p
Ġmacrol ides
Ġnitrof urant
Ġnitrofurant oin
Ġp ed
m iralax
Ġa ri
as ix
p razole
pi prazole
z il
Ġ- ,
Ġari piprazole
Ġnifed ipine
inf ective
Ġ )
but yn
Ġoxy butyn
Ġoxybutyn in
Ġnucle otide
Ġc ann
Ġtachy cardia
Ġ3 00
Ġre hab
Ġcode ine
Ġse iz
Ġhyp ot
Ġlo peramide
on ase
el exa
Ġacid s
co phage
Ġox ide
ro t
u q
Ġd ev
Ġ ili
Ġt io
tro pium
Ġtio tropium
in c
atu ria
hi l
Ġbenz onat
Ġbenzonat ate
Ġs ens
Ġm ol
n it
Ġer y
Ġc ereb
Ġhem aturia
Ġhypot ension
Ġinj ured
ec ular
Ġmol ecular
Ġe pis
Ġeth anol
ol li
Ġ18 9
f ate
Ġbac lofen
f olic
Ġpulm onary
Ġf at
ript an
iz an
Ġt izan
Ġtizan idine
ano prost
oc onazole
Ġlat anoprost
Ġket oconazole
ine al
im olol
ur an
8 12
Ġcy top
Ġcytop rot
im e
am ax
Ġfac ial
ver se
Ġin c
ron ate
em a
at ric
Ġshort ness
Ġethanol amines
or ganism
Ġr lq
Ġsuc ral
Ġsucral fate
Ġcon d
p ing
lip itor
Ġso re
iz ed
b ol
6 5
19 7
78 02
li zine
Ġamin open
Ġaminopen icillin
Ġfat ty
Ġsuppl ement
Ġcy mbalta
Ġp sych
Ġo v
m ax
Ġclo s
bol ism
at ul
Ġs ev
Ġmec lizine
Ġb us
id ate
Ġp eptic
Ġhorm one
) -
th al
78 097
ol e
ale xin
Ġceph alexin
Ġdu e
clo sed
Ġchol ine
st erase
Ġcholine sterase
Ġfl ush
Ġ18 7
Ġr ash
pir one
hydro chlorothiazide
end ed
Ġbus pirone
ap arin
ect ives
hyd ration
am il
tr ol
Ġf act
Ġfact ors
r ist
Ġde hydration
here nt
u ri
Ġad herent
Ġaccid ent
Ġlum en
Ġcytoprot ectives
thal idone
Ġen zy
s ul
Ġem olli
glu cophage
Ġab ras
Ġabras ion
min eral
Ġas part
c ent
u al
Ġi r
Ġbenzis oxazole
end ronate
Ġf lex
Ġal endronate
78 00
Ġas sa
Ġepis ode
Ġsil ver
c italopram
Ġes citalopram
Ġgu aifenesin
az osin
alo spor
qu ine
Ġceph alospor
Ġassa ult
l atul
ane ous
Ġl y
Ġmix ed
Ġri b
phetamin es
Ġcephalospor in
amycin s
Ġe nox
Ġenox aparin
chloro quine
Ġhydroxy chloroquine
ut e
Ġ4 50
s pir
k al
Ġ18 0
spir iva
Ġde hydro
aspir in
3 29
ent er
od erm
il k
Ġv iral
ap amil
Ġm a
Ġver apamil
re d
ig o
at riptan
Ġad vair
Ġv ert
Ġs lip
ot erol
Ġchlor thalidone
phosph ate
79 1
os ine
Ġmal ign
Ġ ear
Ġan hydr
Ġanhydr ase
Ġ18 8
l d
Ġz yrtec
f orm
amic tal
Ġdehydro genase
ul air
Ġf e
Ġin osine
Ġmono phosphate
v i
ot eric
ph oteric
Ġam photeric
Ġem bolism
Ġpoly ene
ag o
Ġlumb ago
78 060
Ġvert igo
Ġb r
v ol
mp t
r itis
i k
ult ram
kal emia
Ġex ternal
rex ate
ot rexate
g r
Ġtra f
form oterol
3 00
Ġn umb
Ġp rilosec
it es
gest rel
Ġantif latul
Ġantiflatul ents
sur ia
b lo
il b
Ġdy suria
disp os
Ġm an
dispos able
id opa
thyro id
e w
Ġcarb idopa
4 19
d aily
03 9
od iazepine
lofen ac
Ġnumb ness
ost ilb
min ostilb
Ġi minostilb
729 5
Ġdic lofenac
Ġp ost
am phetamines
mit otic
Ġiminostilb ene
Ġdisord ers
c ode
Ġ18 5
Ġmeth otrexate
724 2
3 11
Ġp ineal
od opa
Ġery th
lev odopa
code ine
Ġm agnes
Ġmagnes ia
Ġl asix
c restor
Ġis land
Ġper cocet
sul bactam
Ġrif amycins
Ġtet rac
t ra
c ell
58 67
Ġinf ar
Ġprote ase
f ib
i atric
trim azole
Ġ18 3
Ġab ilify
6 2
em ir
Ġ18 2
Ġc rit
ai se
Ġw rist
Ġmal aise
Ġm ov
Ġk w
bp r
ik pen
Ġkw ikpen
Ġext ended
Ġbr bpr
al ate
Ġpyr id
vent olin
Ġinfar ction
Ġpregn ancy
Ġ18 4
Ġseiz ure
Ġs oft
07 89
anc re
t rip
Ġo t
Ġp res
Ġcom p
ter m
k in
Ġr uq
Ġtra um
ox ine
Ġflo vent
Ġman if
co um
Ġanti se
coum adin
Ġantituss ive
6 28
Ġ19 9
Ġpar oxetine
t ylenol
Ġm o
v an
Ġ ec
Ġdi gest
79 01
Ġp o
c ept
v ers
45 9
Ġre tention
el am
Ġdep akote
qu id
w al
a qu
erg ot
Ġdig ox
yl amines
t on
6 3
no volog
Ġu r
Ġp ancre
Ġg out
Ġdigest ive
ad v
Ġdigox in
Ġox carb
Ġoxcarb azepine
7 1
Ġpl ace
Ġano rectal
Ġdiphenhydr amin
Ġcon st
Ġsupplement s
6 4
Ġcom a
ix ed
Ġl iver
Ġclo trimazole
Ġpl avix
Ġb et
Ġcrit ical
Ġ q
Ġm ic
p tic
ar th
phen idate
Ġox alate
cos ides
Ġcer vic
Ġsev elam
Ġsevelam er
Ġma j
7 2
i or
00 2
Ġinhibit ing
i ra
ig h
Ġmethyl phenidate
Ġpo is
Ġcereb ral
Ġcervic algia
sy mbicort
ar dipine
Ġnic ardipine
_ _
at em
787 01
* *
ak ylamines
Ġphenyl akylamines
6 0
peptid ic
ro x
b ean
Ġmaj or
Ġpro ced
s edative
n ucle
Ġf ixed
ac tion
ib bean
car ibbean
nucle oside
ur al
7 3
b u
Ġantise ptic
Ġw ellbutrin
sy n
Ġf re
Ġs um
Ġhyp ox
Ġsum atriptan
Ġre action
ector ant
06 5
ex p
Ġhyper glycemia
ar ing
Ġg ra
Ġmov ement
ary ng
exp ectorant
4 14
v it
per d
a vir
os alicyl
Ġamin osalicyl
Ġaminosalicyl ates
78 079
Ġhypo glycemia
in yl
ox y
ag ra
Ġn ad
ax an
ant i
Ġfib ric
mineral s
mpt om
7 5
427 31
Ġantimetabol ite
id az
78 04
le gra
di zziness
m on
Ġchi ld
Ġexp ector
Ġul tr
Ġexpector ants
d r
Ġcon trol
aryng itis
v el
Ġcl aritin
Ġu f
opr ol
7 0
r ate
if axan
ere x
Ġp tch
10 13
Ġblock er
9 3
kin etic
d ra
re m
om y
Ġpyrid oxine
Ġ19 6
Ġwith dra
th ieno
benz odiazepines
cos amine
thieno benzodiazepines
4 28
zolam ide
Ġide ations
Ġpro kinetic
es sel
Ġv essel
ox yc
Ġov erex
Ġoverex ertion
b ien
Ġm iralax
489 1
om a
c ry
z ac
tr in
Ġ22 08
Ġph aryngitis
Ġnitrof uran
im um
Ġwithdra wal
Ġb io
ad derall
03 11
Ġno repinephrine
fo vir
Ġcann abin
ip ation
cur ren
Ġdig ital
Ġoc curren
Ġoccurren ce
Ġpl ac
Ġz inc
Ġchild ren
Ġgly cosides
blo ck
Ġdigital is
Ġobstruc tion
Ġvis ual
Ġplac es
Ġf b
ab ine
Ġconst ipation
Ġflu oc
den afil
ax i
Ġint raocular
Ġsil denafil
Ġm ention
Ġcent rum
block ers
ron ch
Ġre verse
Ġg all
rip tase
Ġtran sc
Ġtransc riptase
perd al
ep pra
n r
Ġne o
Ġrif axi
Ġrifaxi min
e h
Ġp ept
458 51
arb oxyl
arboxyl ase
Ġc ongest
6 49
9 22
Ġcont act
Ġh iv
ro b
Ġn or
Ġd ron
Ġultr as
tr icit
Ġun it
27 6
z a
il iz
Ġmetron idaz
Ġall ergic
Ġv acc
ap ril
Ġel ev
Ġl lq
d a
d ex
ur ontin
Ġch ang
ic ine
ch icine
utr ition
ag on
Ġcol chicine
Ġm u
of ran
er one
dec arboxylase
dr iver
z yrtec
gu aifenesin
Ġ18 1
Ġn utrition
abin ol
ac ute
Ġdron abinol
Ġsy nd
u ous
su e
Ġh x
Ġar ter
Ġxan ax
cl aritin
ro to
Ġantip roto
zo al
Ġantiproto zoal
959 01
78 791
te no
Ġantituss ives
8 0
Ġn ort
Ġobstruc tive
Ġultras oft
Ġcalc ul
yclo mine
Ġdic yclomine
Ġdop amin
Ġnutrition al
p f
Ġs ide
Ġ19 7
k lonopin
Ġbio tin
Ġad v
benz odiazepine
Ġnort riptyline
Ġanti mitotic
oly sis
Ġdop a
Ġstren uous
Ġzol oft
Ġgra ft
Ġpept idase
Ġantimitotic s
d pp
l ong
ch ek
ab ilify
Ġb ra
Ġhypo thyroid
Ġhypothyroid ism
Ġn onin
02 9
Ġn ph
Ġcarb am
te in
Ġ19 8
00 1
Ġm es
per ipheral
Ġtetrac ycline
Ġp e
ex or
vel a
Ġc al
w here
10 2
ac yclovir
Ġval acyclovir
Ġdopamin erg
Ġrec tal
Ġbut albital
te b
Ġg er
Ġcalcul us
Ġr tis
se where
Ġcl assified
Ġel sewhere
Ġprogest in
arth rit
Ġanti arthrit
Ġenzy me
Ġantiarthrit ics
x ifaxan
o b
Ġsub st
Ġcarbam azepine
Ġl atino
Ġhydrox ide
ser oquel
Ġfo od
act rim
Ġhep atitis
Ġdr iver
Ġstri ke
Ġb ronch
but albital
Ġnad olol
cos amide
Ġp y
or c
li quid
Ġem tricit
10 11
Ġemtricit abine
Ġsp aring
Ġst air
at ro
on or
Ġv ir
ab an
Ġlev onor
eno x
Ġc restor
i qu
Ġb ite
c ular
Ġh osp
Ġvir us
g ly
9 27
the n
Ġger iatric
58 61
Ġc elexa
Ġ19 5
lu tein
Ġlevonor gestrel
10 31
Ġthromb osis
Ġp k
Ġide ation
alo xone
Ġt is
am iv
Ġint ra
b ur
ep e
bul iz
at an
Ġinter mediate
epe zil
Ġdon epezil
Ġne buliz
Ġb enadryl
cap s
Ġdi ff
g oagulant
Ġanti goagulant
eph ro
cal p
Ġvacc ine
Ġs calp
9 4
yl l
l id
Ġs ep
epi pen
Ġver teb
om b
Ġsep sis
Ġre vers
628 4
%) *
Ġdi peptid
teno fovir
Ġdipeptid yl
Ġgall st
Ġt imolol
pi onate
0 10
m ethyl
Ġsyn throid
li th
a vul
Ġc ad
Ġac t
Ġir rit
Ġgallst one
Ġand ro
Ġsec ond
Ġ19 3
l ing
le g
Ġreg ion
428 0
5 00
Ġal k
d ep
Ġsol ub
Ġamin o
iliz ing
lith olysis
Ġsolub ilizing
Ġinj uri
Ġinjuri es
Ġpancre atitis
Ġcongest ive
t um
09 8
odi ol
Ġto e
Ġemolli ents
i ary
Ġch r
Ġt ert
Ġamin es
Ġtert iary
Ġdep end
Ġl in
at hi
Ġs c
ox id
Ġur s
% ),
Ġdev ice
% /
b er
on idine
78 8
om eprazole
Ġin di
ent eric
Ġtis sue
Ġes omeprazole
Ġverteb ra
7 4
Ġpois on
Ġb d
re xa
yp rexa
Ġcyclo spor
Ġurs odiol
Ġed ema
Ġcyclospor ine
o ph
st e
Ġin d
Ġinhal er
Ġp s
rim onidine
25 5
Ġb rimonidine
Ġsubst ance
Ġpro zac
p ak
z osin
Ġspir iva
8 47
Ġc ycl
Ġcom press
79 9
Ġglu cosamine
ew able
Ġbet amethasone
Ġdox azosin
os motic
Ġre m
Ġaz el
414 00
syn throid
Ġno volog
ant ac
ad der
yl ate
Ġco ated
Ġmis adv
Ġmisadv nt
nr ti
b l
al s
Ġmanif est
Ġd or
b is
p tch
g er
Ġepi st
lo c
oly tic
Ġgluc agon
Ġd o
roc in
m en
pi rocin
Ġmu pirocin
lo xa
Ġciprof loxa
Ġchang es
Ġrec omb
Ġres p
Ġflex pen
Ġepist axis
9 179
v e
ro po
Ġcond ition
Ġly rica
ropo iet
Ġel b
Ġeryth ropoiet
Ġerythropoiet ins
Ġp hy
ad a
opr ine
Ġaz athi
Ġazathi oprine
786 09
Ġlumb ar
d h
uv ada
5 789
4 09
el e
Ġgly bur
Ġglybur ide
l ac
r ome
Ġl a
Ġch emic
oxyc ontin
Ġm ilk
Ġpropi onate
: :
Ġd ec
Ġsens ation
Ġindi an
Ġdor zolamide
Ġsur gical
as is
ne x
Ġre mo
Ġ19 4
Ġab s
p rilosec
ephro caps
Ġv it
Ġot c
ic am
56 9
dio van
Ġ19 2
Ġandro gen
Ġs outh
Ġ %,
Ġcon f
nt s
al april
lipid emia
Ġen alapril
Ġhyper lipidemia
Ġfl onase
Ġsynd rome
Ġgastroint est
Ġperson al
rost at
nit rostat
Ġchol esterol
Ġstri king
ib le
276 51
te gr
Ġdepend ence
orc ine
eth inyl
Ġp el
Ġam mon
Ġammon ium
ast ine
Ġchemic als
Ġlo ss
35 2
Ġl amictal
Ġproton ix
fl onase
y st
Ġdiff ic
58 49
top amax
i ren
Ġhist ory
c ut
th ol
ul at
r h
724 5
Ġazel astine
m ult
ac rob
umb ling
Ġslip ping
acrob id
Ġconf usion
ard ial
812 0
tro pine
5 38
Ġdex tr
Ġbenz tropine
Ġel iqu
Ġeliqu is
Ġback ache
yll ium
Ġc r
um atic
3 03
ro p
Ġobject s
8 02
23 1
nd ri
Ġer up
Ġs it
ad s
Ġcon j
ren e
Ġn ail
Ġmis cell
y to
yto in
Ġdepress ion
op hil
Ġphen ytoin
Ġt e
Ġa p
Ġa v
uv ia
an uvia
25 9
ren vela
Ġne opl
hum ulin
Ġmono hy
Ġflo max
Ġra b
b as
id in
rac e
Ġnonin f
eno fib
b enadryl
Ġf enofib
Ġgastro enter
Ġambul ate
Ġl ex
Ġk it
789 06
oxid ant
Ġanti oxidant
79 6
vi agra
res t
Ġeff usion
Ġdisturb ance
od in
Ġlact ate
Ġhyper kalemia
Ġfenofib rate
28 59
08 0
Ġu rine
bis acodyl
Ġcondition s
ic ated
al an
5 42
06 9
58 9
68 26
Ġmiscell aneous
86 0
s oprazole
Ġm ax
2 28
8 38
ir th
Ġabs orption
it rac
Ġ22 09
ial is
hydro chloro
Ġtran sp
hydrochloro thiaz
w ith
Ġfem ur
Ġpen icillin
Ġelb ow
Ġcarb onic
in onide
Ġgu atem
Ġguatem alan
Ġd t
Ġantimetabol ites
Ġsyst em
m es
10 32
gly d
Ġps yllium
Ġu jet
Ġlex apro
56 2
Ġcannabin oid
Ġne urontin
Ġantifungal s
Ġstr ain
a w
y me
Ġhosp ice
Ġ19 0
6 00
Ġn ex
3 19
Ġv ent
dep akote
re on
os us
Ġmacrol ide
Ġdiffic ult
Ġdi ov
os m
Ġdiov an
9 24
Ġfluoc inonide
Ġpra zosin
Ġuncompl icated
atu ral
enz yme
88 59
re mit
pi x
Ġext remit
4 20
the s
ion e
Ġa pix
Ġapix aban
p orcine
Ġdifficult y
Ġchildren s
Ġin vol
Ġestro gen
Ġbronch itis
b irth
m t
Ġre f
it ch
Ġwal l
87 3
en cy
Ġac etamin
Ġmultiv it
Ġsing ulair
Ġme then
az op
Ġt er
pir ide
ime piride
Ġd ress
Ġt d
Ġgl imepiride
Ġdress ing
diph t
Ġanticholinergic s
12 1
Ġprogest erone
Ġd am
om at
Ġz yprexa
t n
39 2
Ġdam age
99 9
Ġhyd ant
Ġinc ontin
Ġb ur
men thol
Ġt art
Ġsympathomimetic s
sing ulair
t x
Ġcy st
ta ren
Ġrab ies
o ins
tegr ase
Ġhydant oins
Ġag nts
58 56
Ġglu co
78 0
Ġco enzyme
Ġphenyl eph
er v
d el
al d
Ġg ro
Ġth umb
ch ewable
ur it
cent rum
n ia
od rine
Ġmid odrine
o ur
Ġextremit y
st umbling
Ġhypertens ive
trip ping
1 10
re tin
Ġc ir
id ed
c elexa
o re
Ġ ure
ff ered
oc ardial
Ġmethen amine
Ġs ided
Ġact iv
Ġd ement
thes ia
Ġt end
Ġarter y
. .
Ġv ic
Ġincontin ence
Ġdement ia
er on
id s
ut er
ere ne
mt erene
Ġdi pro
Ġpel vic
Ġfac e
Ġtria mterene
pro ced
od ium
Ġbre ast
col ax
carb onic
m ag
ox ide
Ġc ath
Ġpro s
et rol
Ġtri m
Ġnebuliz er
er at
Ġval ium
yn cope
4 00
9 5
zol es
Ġtria zoles
8 59
Ġs in
Ġz ofran
46 2
Ġbi le
t imolol
ram ip
Ġk eppra
Ġwe ek
Ġv eno
enz a
ophil us
lu enza
un ct
l actam
Ġal legra
lactam ase
ic lo
78 5
Ġstimulant s
Ġpe g
Ġdipro pionate
nex ium
n ephrocaps
786 05
no m
eph ritis
Ġinf luenza
m da
ac ol
Ġn mda
11 1
Ġth or
ital in
uc il
are l
hydrochlorothiaz id
06 02
v ite
Ġ ing
88 30
Ġc p
Ġweek s
ant ep
ept ide
di uretic
Ġalcohol s
Ġrevers ible
Ġx arel
Ġxarel to
pl avix
the ad
v ing
uter ine
78 20
Ġpar athyroid
c lose
thead ed
tra umatic
Ġintra uterine
Ġsu bd
Ġlo vastatin
Ġar th
Ġtran s
Ġhypo kalemia
em i
Ġn ano
Ġb rain
ig an
acc u
p in
Ġris perdal
ad al
Ġlan soprazole
786 2
Ġar omat
Ġproced ures
ul colax
imum ab
Ġd es
ant ib
za ar
lid oderm
iren a
Ġaromat ase
Ġeff exor
Ġtest osterone
Ġal fa
9 8
Ġn atural
ic et
79 89
Ġl igh
Ġpiper adine
ac h
im idazole
Ġenhanc er
Ġam bien
Ġligh theaded
Ġmal ig
gra vir
Ġpk t
Ġp le
Ġin str
um et
ng r
cut ting
8 24
Ġse qu
osm ol
m acrobid
antib acterial
com p
yr idine
Ġveno us
Ġcon sc
azop yridine
o gen
Ġphen azopyridine
Ġepil eptic
8 05
l ant
Ġi ud
44 1
Ġso b
Ġazithrom yc
Ġg est
Ġpoison ing
Ġt oprol
8 45
Ġsens it
Ġtend on
Ġepileptic us
Ġgest ation
Ġmalign ant
Ġinvol ving
Ġt ub
Ġad al
n or
Ġre p
rem ia
l amictal
Ġex ertion
Ġfl uc
yl ase
erat olytic
Ġfluc onazole
Ġb eh
Ġst ate
Ġd ental
Ġneopl asm
b iotic
18 6
d ic
gl p
Ġter azosin
m ilk
10 8
ag lip
flo max
aglip tin
Ġ urea
op rost
24 49
az one
al y
Ġbeh av
mult i
Ġmy ocardial
. ,
Ġadal imumab
al ity
Ġsyst emic
Ġad j
__ _
Ġpoly st
osmol ality
Ġt adal
Ġtadal afil
Ġlact ose
vol taren
Ġm imetic
am ph
786 59
Ġinc retin
oxy genase
cl er
Ġpregn ant
r urit
rurit ics
et in
Ġantip ruritics
Ġconsc ious
Ġconscious ness
Ġhep atic
oc or
bas ed
4 10
Ġhypox emia
Ġpres yncope
Ġtransp lant
Ġb ell
Ġemolli ent
Ġc ele
en a
Ġcyclo oxygenase
s orb
al amine
Ġcont in
Ġmes alamine
it on
Ġinstr um
Ġhypox ia
Ġsu d
3 49
pro ton
o etin
el on
6 12
92 08
Ġgeneral ized
Ġc up
Ġn aloxone
Ġsw abs
b romide
Ġhydro bromide
hyper glycemic
2 02
8 13
at er
hyperglycemic s
ond ro
3 38
sel t
hum ira
nit ro
6 39
Ġcalc im
Ġne ut
ad ione
ton adione
Ġphy tonadione
Ġvic odin
Ġsensit ivity
Ġcalcim imetic
08 9
pro te
pon at
4 352
re otide
es is
am ylase
Ġmo ist
prote ase
Ġo ct
ri ef
w ellbutrin
Ġo ver
Ġlip ase
uri z
Ġnex ium
ponat remia
Ġoct reotide
i atic
per cocet
Ġf os
Ġec onazole
c in
Ġs cler
cop eptide
Ġgly copeptide
h c
k lor
al atan
Ġmalign ancy
Ġd ors
Ġmoist uriz
Ġin tegrase
p at
et e
ec h
Ġsit agliptin
c tr
ay ed
409 09
bl adder
Ġ ___
ic k
Ġc ur
88 88
Ġmic onazole
antep art
y rene
li x
Ġpolyst yrene
v is
Ġ enter
ip ar
tn f
ald actone
789 01
ob ac
Ġob st
s h
lip s
787 03
hil lips
Ġcol on
Ġproced ure
Ġlact obac
p a
Ġhum ulin
789 03
atro pine
ir rit
re th
Ġ "
amiv ir
cry st
Ġo selt
rom el
Ġoselt amivir
r one
Ġre tin
Ġwh e
cry s
f rom
Ġc t
ar ct
b arb
ab is
d e
inf arct
p ot
r d
Ġa pp
ri lex
olac rilex
Ġirrit ants
irrit ant
al te
Ġr alte
79 66
Ġralte gravir
Ġcann abis
nitro imidazole
Ġscler osis
reth ind
Ġpheno barb
Ġnitroglyc e
Ġcath et
Ġsud den
rethind rone
om et
Ġbur n
del ayed
Ġf asc
4 36
Ġp ort
o ol
romel lose
Ġra di
927 0
no v
rant s
itrac al
Ġphenyleph rine
7 231
Ġt ox
erv ision
Ġas y
Ġb arb
mptom atic
Ġat h
Ġlev oxyl
Ġsal t
Ġp hillips
Ġasy mptomatic
8 14
it ur
Ġbarb itur
Ġno rethindrone
ir st
Ġsp e
Ġprednis olone
amph or
hyp romellose
ongest ant
ep s
Ġv i
m arin
25 10
Ġsulf onate
s m
s w
Ġremo val
Ġsy mptom
ine x
Ġmigr ain
re e
atu m
Ġdet emir
ic ien
au nd
Ġ id
78 51
icien cy
t oprol
est er
m irena
aund ice
c ialis
co trin
Ġinhal ation
gl uc
rep ineph
300 00
Ġretin oids
Ġspe ech
Ġmigrain osus
Ġb actrim
Ġmel ena
Ġc ut
ul a
ion s
n st
Ġd ay
Ġc in
Ġj aundice
vic e
f ic
Ġad vice
Ġanes thesia
Ġnor vasc
h ex
en il
Ġ19 1
ber ry
Ġno repineph
Ġla cosamide
Ġnorepineph ri
ex ole
Ġint rac
Ġp ramip
Ġb en
Ġstair s
Ġpramip exole
26 2
Ġcompl ete
ran berry
Ġd el
Ġacid ophilus
Ġstr and
Ġdi aly
it ies
Ġgen ital
Ġelev ated
proton ix
Ġradi us
zol ine
Ġtrim ester
Ġoxyc ontin
Ġbarbitur ates
Ġst eps
cl avul
ud ine
459 01
Ġsy mbicort
Ġn itrate
Ġphenobarb ital
clavul anic
ox one
st ep
Ġf unction
Ġmod ified
ad e
rom ycin
Ġfore arm
Ġfasc ia
Ġpro c
Ġl eth
Ġeryth romycin
Ġen ema
bu ta
s cl
Ġath scl
8 67
Ġleth arg
d ose
07 0
rh osis
Ġcir rhosis
v ad
Ġl ig
in a
Ġp etrol
49 6
08 1
Ġcol itis
9 1
pl ant
am bien
Ġimmu nom
aqu enil
Ġimmunom od
ess ness
Ġdialy sis
5 18
Ġp ctr
Ġpctr s
ap ap
et ite
ill us
Ġapp etite
oc y
Ġsup p
49 392
719 46
9 23
Ġe z
p ed
Ġag it
Ġm yalgia
Ġhum er
Ġple ural
Ġz antac
Ġrib s
in ic
Ġpy elon
18 8
Ġpyelon ephritis
Ġdi ph
Ġnon specific
Ġk eratolytic
6 25
i ent
al legra
07 999
idd m
Ġar rest
Ġnon traumatic
Ġenzy mes
j anuvia
om ycin
Ġe ast
729 81
v ac
Ġcholec yst
Ġlactobac illus
est rants
enox ylate
Ġsequ estrants
Ġdiph enoxylate
Ġo tic
Ġan us
ep a
ot alol
Ġalk alo
v a
Ġthromb in
v enox
at adine
Ġhem op
Ġrec ur
ro zole
49 1
lev oxyl
Ġmax imum
Ġdist ention
ometh orph
Ġs otalol
ib e
zil ian
Ġbra zilian
Ġfre e
et im
25 55
Ġez etim
omethorph an
Ġezetim ibe
Ġd esonide
Ġalkalo ids
2 14
d yc
Ġh our
88 09
ar dia
Ġz on
Ġletharg y
is amide
Ġzon isamide
Ġagit ation
dyc ardia
im en
Ġsuper fic
Ġreg imen
ty sis
yp ro
lev emir
Ġbehav ior
Ġhumer us
56 6
Ġbup ren
uv ite
Ġbupren orphine
Ġap pen
Ġmoisturiz ers
5 29
ax a
bu ffered
Ġn ia
Ġvas cular
if e
Ġbra dycardia
z inc
Ġ6 50
le et
f ree
Ġra p
anc es
Ġhemop tysis
Ġnia cin
45 89
tum s
d axa
u gue
or an
46 59
Ġadj uv
Ġdors algia
op ress
Ġsal vad
Ġsalvad oran
Ġan al
af ate
59 1
Ġadjuv ant
os cy
Ġth in
Ġac etic
Ġsulfon amide
on na
Ġd v
Ġnon spec
ad onna
Ġv eh
789 04
Ġdi lu
Ġtem azepam
Ġlin cosamide
f ort
789 00
Ġport ugue
Ġportugue se
26 0
3 45
Ġs eptic
Ġepi pen
ph os
b actrim
10 1
Ġdis loc
ris perdal
Ġm omet
uv en
dh a
Ġmomet asone
29 6
ax il
59 0
Ġbell adonna
7 28
Ġat ro
Ġtr uvada
Ġes oph
9 20
Ġk n
vent il
Ġsin us
ch ondro
m y
uss ion
Ġkn ife
Ġp ads
Ġb u
uc inex
Ġj uven
8 28
Ġav iva
Ġpsych osis
Ġcomp ound
in itrate
Ġhem atem
Ġd initrate
Ġth r
Ġcathet er
Ġcut aneous
dic itis
Ġhematem esis
hum an
Ġappen dicitis
alo c
Ġ___ .
3 46
ic ade
er aloc
Ġmin eraloc
orticoid s
Ġmineraloc orticoids
m a
at ri
11 10
Ġalco h
Ġesoph ag
b rex
Ġj aw
Ġdil audid
Ġad verse
Ġelectrolyt e
Ġv e
26 89
56 1
Ġsulf asal
ang e
Ġtraum atic
Ġsulfasal azine
25 001
23 9
8 07
d roc
droc ortisone
Ġflu drocortisone
Ġc amphor
Ġimm un
Ġind ole
c ussion
Ġfunction al
ia zol
28 8
Ġaccid ental
Ġconj unct
Ġa u
ant in
se ed
10 30
as es
04 0
yro phen
Ġfunctional ized
45 1
Ġcon cent
5 36
Ġa f
ax seed
oth iazol
Ġbenzis othiazol
Ġbut yrophen
Ġbenzisothiazol ones
ep in
ac alc
er ate
Ġm ac
art ificial
Ġcin acalc
Ġcinacalc et
Ġc ranberry
Ġf irst
Ġu ri
il at
ol azone
Ġmet olazone
Ġm ex
15 0
Ġsecond ary
p ur
Ġdisp lac
tin oin
Ġtre tinoin
Ġdise ases
Ġm em
10 3
us k
Ġe aster
Ġeaster n
Ġtop amax
79 82
Ġfl axseed
6 489
os ol
Ġdisturb ances
Ġbutyrophen one
c reon
k eppra
ly cop
Ġr italin
end a
b en
l der
10 12
ur red
ins ulin
Ġc onvuls
Ġo p
antepart um
Ġ iddm
ro s
iz a
ior icet
Ġeff ect
5 589
e nos
ch ant
Ġhy oscy
Ġhyoscy amine
Ġconvuls ions
ar p
Ġ. ,
Ġh usk
im al
4 15
p rom
Ġrec tum
Ġox icam
Ġpro biotic
46 9
Ġvent olin
Ġau gm
Ġphosph ates
02 2
am enda
3 39
re lease
k g
dec ongestant
Ġimmunomod ulators
a it
c etirizine
di z
Ġdox epin
Ġunit s
sh lder
Ġsymptom s
18 1
Ġhip pur
Ġcer v
Ġhippur ate
re g
ch emic
Ġoc cl
Ġthr ive
Ġph arm
Ġsyring es
bet amethasone
Ġrem eron
" .
ch ange
Ġcol umb
Ġerup tion
Ġcolumb ian
Ġg ait
Ġu ter
Ġarth ritis
Ġbehavior al
2 24
st at
Ġc ep
06 6
Ġhypo glycemic
0311 6
Ġdisplac ed
3 25
Ġper oxide
Ġin h
u tic
Ġp hal
it ol
Ġred ness
af t
4 39
Ġwal king
Ġdep let
Ġdextr omethorphan
Ġdilu tion
Ġm l
87 1
b o
Ġgastroenter it
an ate
am ides
Ġcl avul
Ġclavul anate
ate x
Ġcur r
Ġm c
p el
Ġm apap
p oly
16 1
as k
cell cept
m eta
oc king
ip ras
Ġz ipras
Ġzipras idone
ac etamin
23 8
proced ure
Ġlo z
est yr
Ġex change
to ur
con tour
estyr amine
Ġ ion
Ġres in
Ġh all
ace a
Ġdeplet ers
m ph
09 2
Ġl i
03 7
od ef
Ġimmun odef
Ġhall uc
4 49
Ġat ov
or al
aqu one
Ġatov aquone
x an
27 24
ens ure
78 1
56 09
atro vent
Ġ22 10
comp azine
Ġsuperfic ial
meta zoline
p ow
ed om
arb am
Ġtum s
im pat
ir ole
49 121
Ġro pin
Ġropin irole
l in
Ġcompress ion
d is
s ine
p od
el id
Ġpetrol atum
es artan
12 0
79 84
719 41
t ol
Ġmex ican
Ġmono hyd
col crys
Ġprote in
Ġly mph
prom azine
Ġtri phasic
Ġchlor promazine
d ur
ox ime
Ġcef pod
538 3
Ġcefpod oxime
oc et
Ġa ut
47 9
he ad
i as
Ġtra v
87 6
Ġpros th
Ġvi agra
0 11
Ġfre edom
amiv udine
Ġsubd ural
re am
uc ed
5 49
Ġpoly sorb
04 2
Ġsub oxone
o gestrel
p ri
st al
6489 3
h iv
Ġimmunodef iciency
z ofran
Ġcompress or
Ġobstr uct
tr an
Ġst er
Ġint est
Ġnitro stat
loc aine
Ġdextr an
2 19
Ġpr t
hex idine
Ġmac roc
l atex
ant ine
Ġsl urred
Ġm en
tr uvada
Ġacc u
diz em
Ġm bp
Ġne uro
sen s
Ġlevetirac e
al t
arin ic
Ġchlor hexidine
Ġmusc arinic
oc arbam
Ġmeth ocarbam
Ġcerv ical
pri locaine
Ġmethocarbam ol
p res
top en
v ag
Ġlo venox
Ġantic hol
Ġx alatan
Ġlid oderm
vi ew
039 1
Ġmem antine
Ġ #
it t
p as
at ing
Ġb ase
se ud
Ġl ess
Ġasc ites
z e
Ġs dh
h es
ed rine
at or
78 21
ace utic
Ġpharm aceutic
Ġpharmaceutic al
sens ipar
6 14
Ġan ast
ad y
el lu
Ġpro x
27 61
z antac
Ġm il
Ġg lo
Ġc itr
ic ept
Ġey elid
ry stal
Ġano ther
3 40
Ġa red
Ġem erg
gre tol
Ġsoft en
0311 5
Ġared s
Ġmacroc rystal
Ġemerg ency
Ġsoften er
p r
mit rex
Ġprot ect
eff exor
847 0
Ġhalluc inations
n aloxone
Ġk in
Ġcal f
Ġcep acol
Ġres id
Ġcannabin oids
oth or
3 58
7 07
lox ac
hy ponatremia
789 07
Ġkin ase
l ax
Ġhyp osmolality
Ġfluoc inolone
Ġelev ation
est race
Ġerup t
Ġnonspec if
bul k
Ġconcent rate
2 08
m etam
o phage
ophage al
g el
17 0
metam ucil
atu res
etamin e
to za
Ġfe atures
5 08
ul ation
ant iviral
i asis
Ġb o
lu t
Ġdi a
am ber
Ġex cept
cox ib
Ġcele coxib
dex tro
is s
Ġcap s
iv ent
Ġprogest ins
Ġactiv ities
pel vis
99 8
Ġoxy metazoline
458 0
Ġover dose
w th
Ġlocal ized
Ġrecur rent
h ag
ep ro
af in
idin one
c ellu
Ġz oster
Ġmes ylate
Ġconjunct iv
b rief
u th
ic es
Ġt ib
ism uth
303 00
Ġ %
Ġep oetin
959 7
g as
01 5
Ġgastroenter itis
Ġsh aft
b esartan
f errous
Ġp axil
Ġir besartan
Ġped iatric
** *
co zaar
Ġth igh
h em
Ġp arkinson
om ide
Ġor th
Ġfore head
57 70
Ġcomplic ation
Ġoccl us
Ġ enteric
res h
Ġun ste
othor ax
c ess
Ġcal trate
cellu lose
d u
Ġgro wth
it u
ag en
Ġmin oc
8 26
s k
Ġfract ures
Ġveh ic
l l
ot ifen
Ġform s
Ġa ir
Ġe kg
Ġdo g
iclo vir
Ġnicot inic
e ine
Ġl ung
78 3
press or
Ġint ub
Ġp ac
Ġr iv
Ġket otifen
Ġvas opress
Ġdist al
4 24
ac ic
2 09
Ġmin i
Ġlig am
Ġminoc ycline
Ġw ater
ist a
25 561
Ġmic ro
Ġte stic
ent ress
Ġanti thyroid
787 02
topen ia
25 562
38 9
Ġph os
seud o
ion amides
Ġth ionamides
lox icam
Ġme loxicam
Ġseiz ures
3 09
d ay
ypro gest
Ġdia per
16 0
uss in
Ġhemorrh oid
di atri
Ġgastro view
zo ate
rox yprogest
diatri zoate
Ġl uq
43 491
amm a
anti mitotic
03 2
Ġcon cussion
Ġm ass
Ġl amivudine
op t
Ġe cotrin
719 45
afin il
k ot
97 0
Ġirrit able
t rex
11 6
Ġnoninf ective
Ġd en
8 52
Ġver io
87 5
Ġst ocking
49 9
Ġb ilat
Ġcholecyst itis
g e
12 6
Ġic h
Ġib s
ser ms
adv il
lu x
Ġantib ody
Ġm s
id ent
03 89
Ġthor acic
Ġl ive
al ask
ip rost
Ġlub iprost
873 42
Ġvehic les
alask a
Ġlubiprost one
10 6
02 4
im ab
Ġr iton
Ġtestic ular
Ġriton avir
gr ft
845 00
5 25
ere n
um ab
27 67
Ġot itis
an x
di i
ular dii
l asix
ic in
ne urontin
to ck
Ġantiseptic s
o ch
in ol
om idate
59 00
Ġclo sed
Ġet omidate
Ġd ulcolax
st im
sp ine
26 9
clo s
lev oth
Ġdev ices
ulat ing
Ġpy rim
Ġdec ongest
levoth roid
ced rin
caff eine
Ġdecongest ants
Ġz ocor
Ġbut tock
Ġs ut
Ġdisloc ation
Ġden ies
04 7
c u
chondro itin
seudo eph
in ant
Ġh air
Ġintub ated
a h
Ġlev emir
5 19
Ġet t
ortis on
Ġrecomb inant
l eren
un k
Ġep leren
Ġepleren one
lycop en
Ġpyrim idine
Ġco ag
Ġref lux
Ġt ia
im odium
Ġher nia
Ġf ngr
an kle
4 0391
od on
al co
29 9
n ic
lex apro
Ġc m
phen azine
Ġdy s
seudoeph edrine
w ay
Ġb ismuth
Ġp rol
Ġh ond
Ġlevof loxac
Ġhond uran
re a
00 9
n nrti
as a
ort s
vac hol
pow der
o phth
v impat
Ġmed roxyprogest
18 39
ib s
Ġper fo
xan ax
Ġmedroxyprogest erone
Ġperfo ration
d ocusate
ac etic
end ocet
s al
s ive
Ġl ute
Ġanast rozole
Ġd ab
cop per
p athy
if id
Ġtetrac aine
Ġchol estyramine
o acid
Ġh om
04 8
alo x
Ġphal anx
Ġcoag ulation
8 799
u nd
u inal
ur ol
13 2
Ġjoint s
799 02
p ren
z id
Ġn ut
im azole
Ġsu bar
Ġmeth imazole
gra ft
Ġmis c
Ġing uinal
Ġsubar ach
d ulcolax
Ġc itracal
47 5
Ġde ep
gra f
Ġconj ug
c id
Ġcodes the
a mit
t ri
t eral
ag an
Ġure teral
ep l
Ġpro f
Ġcomb o
Ġconjug ated
Ġg um
06 1
ometh acin
Ġmo trin
Ġsc iatic
5 46
Ġc d
Ġind omethacin
Ġrep et
an ide
nst emi
amit iza
Ġl ack
dibenz odiazepine
788 20
Ġox azepam
59 20
3 4580
Ġun res
Ġor gan
Ġfre qu
Ġtub e
8 25
01 81
Ġk etamine
79 67
ang itis
ep cid
Ġsciatic a
09 02
Ġr ti
Ġhydroc ortison
Ġmovement s
Ġw om
Ġf i
il ate
esic are
rex ia
Ġb umet
Ġbumet anide
at ran
07 070
09 90
ex ilate
ig atran
Ġet exilate
Ġpneum othorax
Ġdab igatran
Ġc reon
Ġne ur
pre marin
red uced
Ġneut ra
Ġair way
z etia
Ġh b
Ġcell cept
sen ger
er och
847 2
eroch amber
e lo
26 8
56 400
pon sive
Ġov ar
m eth
re arm
Ġuter ine
Ġprof ile
al ign
ph agan
Ġst ool
14 0
Ġhum ira
Ġrepet ive
p olacrilex
at al
04 9
lu e
pres ervision
12 8
tr c
Ġder m
ger y
o y
Ġsur gery
Ġz etia
ic l
Ġd ro
Ġsel f
Ġano rexia
29 8
ub er
i lo
Ġs ah
Ġlev albuterol
Ġsk ul
oxy methyl
Ġthor ax
Ġc va
37 2
Ġchol angitis
b il
Ġcarb oxymethyl
Ġsho ck
s ore
08 89
Ġsal iva
Ġj anuvia
car afate
nor vasc
dextro amphetamine
9 34
on ti
06 2
59 080
oxyc onti
7 03
ag lut
asone x
Ġdeficit s
Ġunres ponsive
aglut ide
06 4
pyr idinone
pro ventil
Ġhydroxy pyridinone
26 99
ept ives
su st
Ġcontrac eptives
b ulin
Ġh el
03 90
st omy
Ġp rim
09 9
02 5
ef lex
59 970
no id
Ġpre m
sar na
Ġthromb ocy
alco hol
Ġovar ian
Ġderm atitis
Ġg ran
Ġro s
hythm ias
102 29
Ġseptic emia
Ġster ile
Ġlo ads
pra daxa
Ġligam ent
pro c
od ine
10 10
08 8
25 4
car dio
27 68
78 50
ub e
ip r
Ġtr uck
Ġphenyl acetic
Ġure ter
Ġhel ic
Ġros acea
g ram
re at
12 5
Ġdist ress
Ġrevers al
Ġc iclo
25 57
st azol
pi rox
co v
op ter
Ġpl aquenil
48 8
Ġli quid
Ġunste ady
Ġhelic opter
l av
it ary
Ġc ilo
zol oft
38 6
Ġmon th
Ġciclo pirox
Ġcilo stazol
ro pen
Ġl up
of lav
Ġsubarach noid
3 04
Ġt arg
Ġno se
Ġdv trc
Ġdvtrc li
Ġhyd ron
34 1
427 89
Ġdys r
m ot
Ġtr unk
Ġtarg et
Ġhydron eph
Ġun ident
Ġmod afinil
Ġorgan s
Ġunident ified
v ar
Ġg ang
tr u
16 9
Ġinf lix
ropen ia
Ġinflix imab
c a
s or
Ġan e
Ġadv il
Ġp as
927 8
iss ion
ain ed
Ġm ri
Ġf ioricet
Ġl ir
am ucil
Ġcomb ivent
Ġmet amucil
68 23
Ġlir aglutide
Ġs ed
em t
Ġalt epl
Ġdysr hythmias
Ġane ury
Ġaltepl ase
27 2
Ġvag ina
Ġrib oflav
Ġriboflav in
Ġp ick
15 9
29 89
Ġneut ropenia
Ġlute in
Ġb lue
12 2
anc ed
13 9
87 30
Ġdressing s
ren al
ig mine
sur g
Ġmil d
Ġin ternal
zol idin
Ġsuppl emt
Ġthia zolidin
Ġfrequ ency
Ġgran ulo
Ġthiazolidin ed
Ġc ro
Ġelec tro
Ġsc hi
4 29
elec trolyt
Ġd ap
yc le
Ġschi zo
13 6
Ġqu in
pas ngr
Ġcm v
el ch
g amma
ric ular
proced ural
7966 2
13 4
Ġantit uber
Ġfe lodipine
blo od
Ġantituber cular
Ġext ract
av ic
Ġpost procedural
Ġnebuliz ers
Ġprotect ants
9 18
Ġres tl
ar il
43 3
Ġarter ial
345 90
p par
ion es
Ġlo c
Ġsh arp
Ġthiazolidined iones
b rel
11 65
Ġtib ia
m et
Ġc ub
ere m
Ġwhe elch
Ġcro h
Ġwheelch air
3 07
] .
ar ia
Ġl g
Ġl ump
ith iasis
99 2
unit s
rem icade
cardio gram
Ġelectro cardiogram
Ġw ax
Ġa rea
Ġo ste
Ġinj ect
v inyl
Ġh a
19 4
vic toza
tazo b
e at
f e
Ġ :
Ġcy pionate
Ġdet ox
pren atal
Ġcip ro
Ġaut o
10 7
Ġas s
Ġ: ,
9 100
s oft
Ġp os
Ġh p
12 7
Ġtr ometh
ept al
Ġdo wn
Ġtrometh amine
8 23
on ale
Ġform ul
ain ide
ec ainide
Ġantip sor
Ġfl ecainide
255 11
Ġformul ations
Ġantipsor iatic
5 01
12 4
Ġery the
Ġsev ere
010 1
6 09
f omycin
at oprost
th in
Ġb im
ent yl
05 9
Ġfos fomycin
Ġbim atoprost
Ġc ream
19 9
ore an
Ġm ast
Ġk orean
com b
8 16
8 788
28 6
24 9
36 3
car dizem
stim ulating
Ġt in
se ct
Ġpancre as
Ġphy s
13 7
Ġor ig
iz er
ran itidine
Ġremo vers
all ergy
Ġfib er
99 67
sk el
Ġhemorrhoid al
glu cosamine
lo id
Ġin sect
02 0
Ġket oacid
Ġhydroxy urea
Ġcarboxymethyl cellulose
Ġketoacid osis
5 489
t ube
st it
al id
Ġac hi
03 8
if em
Ġsp orts
nor vir
7966 1
alid omide
Ġn amenda
sim eth
open ex
Ġinject able
Ġachi ev
u ne
37 3
ran ial
Ġrestl essness
en ers
Ġg em
Ġal um
Ġur tic
346 90
Ġa ortic
04 5
Ġaneury sm
Ġurtic aria
no w
Ġpulm onale
ste ine
802 0
rest asis
soft eners
Ġt ol
Ġesophag itis
Ġbo ulardii
om yc
Ġp olacrilex
es p
23 7
ib er
Ġinf ant
cy steine
Ġintrac ranial
c sf
p ul
Ġs acchar
Ġsy mpt
Ġsp ac
mon urol
omyc es
Ġsacchar omyces
l um
p s
im plant
Ġk lor
cy te
Ġcolon y
Ġgranulo cyte
Ġb and
Ġb ifid
Ġad enos
Ġ500 0
Ġadenos ine
ar ox
an esp
06 3
lor atadine
Ġfall ing
88 9
79 8
255 12
Ġ ent
ro zil
fib rozil
Ġgem fibrozil
Ġve in
sust ained
un el
Ġacet yl
812 1
Ġsubd r
Ġconjunctiv itis
l is
the sis
Ġestra d
Ġcub an
27 8
Ġsp asm
Ġmusc skel
729 89
p ex
fo rearm
Ġchol el
Ġgluc on
Ġnor vir
10 4
Ġ7 50
os itis
02 8
anc iclovir
78 47
sa icin
Ġc au
Ġm amm
ig il
Ġpres ervision
ira pex
Ġenter ing
ac tive
09 3
gl an
37 9
2 03
Ġf leet
ale ve
ob acter
9 170
m tor
al ian
Ġst oma
Ġim plant
Ġinhalation al
Ġrap amycin
Ġspac ing
Ġmamm alian
e y
Ġs now
Ġm ucinex
Ġno v
Ġclo zapine
Ġper phenazine
Ġpas senger
c f
f lu
Ġdis c
Ġhom el
Ġbifid obacter
er a
Ġcap saicin
Ġatro pine
ell a
erg an
Ġpoly vinyl
Ġhomel essness
l amines
er tic
ly lamines
Ġal lylamines
59 8
Ġdiv ertic
Ġper ium
Ġthrombocy topenia
Ġinfant is
Ġbifidobacter ium
9 39
r x
s ill
Ġh ous
729 1
303 90
Ġperium bil
Ġhous ing
t ia
Ġp ent
27 9
Ġmec h
Ġrem ission
13 0
23 2
58 6
48 71
Ġcroh n
01 4
Ġenter itis
re xone
Ġ2 02
alt rexone
Ġv alg
Ġac hes
23 4
Ġsp ine
Ġmy ositis
Ġvalg anciclovir
02 7
04 6
13 8
56 7
109 1
ifen acin
stit ial
Ġh az
13 5
Ġing re
Ġriv arox
Ġacetyl cysteine
Ġrivarox aban
69 6
ent ed
Ġco zaar
pre v
Ġper iton
Ġvis ion
Ġp itu
in ject
03 3
15 6
af ine
46 8
Ġsp cf
Ġpitu itary
w ash
Ġdisp l
yro sine
es ophageal
oc uvite
Ġper ineal
99 6
lev e
ereb ral
Ġaugm ented
5 119
l ancets
lo k
02 6
38 7
16 6
49 2
Ġoc uvite
Ġflex haler
multi ple
pa ration
Ġintrac erebral
ipr amine
u ff
Ġa leve
12 3
01 6
di ent
Ġob j
Ġel ixir
Ġingre dient
inject able
7 39
c itracal
11 11
Ġpre paration
Ġor bital
p de
in afine
Ġol op
chant eric
itt le
Ġolop atadine
Ġt on
Ġprox etil
Ġn ab
78 23
glu mine
Ġme glumine
a ren
Ġw nd
Ġte gretol
00 90
ast or
Ġst ab
47 6
57 15
Ġskul l
Ġdivertic ulitis
h r
Ġc ane
36 88
pro zac
Ġsalt s
4 31
Ġdis or
28 7
49 8
35 7
cent ra
s oy
Ġp ill
Ġg au
02 3
Ġfos amax
Ġdro op
ab y
29 420
Ġk centra
57 9
96 88
rox il
umet one
2555 1
Ġnab umetone
00 3
78 42
Ġform ula
m olol
Ġn altrexone
Ġes molol
Ġvessel s
ar co
ta zid
Ġcef tazid
Ġactiv ator
Ġdisor ient
Ġceftazid ime
at az
08 4
ef iber
Ġas p
yp ass
ody n
Ġtrav oprost
Ġc ialis
25 080
45 2
f leet
v eno
Ġd arb
Ġc itrates
ep oetin
pl an
Ġsup press
ention al
Ġren vela
alin izer
Ġalk alinizer
Ġpolysorb at
Ġdarb epoetin
l ar
99 591
Ġcele brex
Ġsed ated
h rh
ra p
Ġtre m
Ġped est
Ġbet w
2555 2
y ataz
as then
st ool
pl a
02 1
24 6
ult ra
22 2
55 7
55 59
Ġop n
Ġsuppress ants
Ġf ist
Ġh av
is chemic
11 8
Ġper io
hem odyn
hemodyn amic
y v
39 9
Ġhem at
Ġald actone
z ista
Ġt eno
Ġr h
46 7
Ġhosp ital
Ġtox oid
Ġdisorient ation
r italin
t ouch
Ġin oc
27 0
38 3
pro ct
Ġinoc ulat
g nr
o ate
Ġl hrh
Ġcau ght
Ġperio cular
gnr h
ic ar
Ġl u
26 7
ver a
338 29
dis in
lum igan
Ġhav ing
p t
Ġp am
Ġta m
ris is
lor astor
Ġval ve
Ġgang rene
Ġ Ġ
up or
Ġab cess
36 6
Ġflex touch
tru et
Ġachiev ed
c c
08 7
ann itol
gr ast
Ġnor gest
nov olin
Ġerythe mat
Ġs emic
res is
st upor
il grast
18 4
Ġlo pressor
27 7
57 32
7800 9
826 1
Ġsemic oma
ilgrast im
i mitrex
390 12
Ġfist ula
Ġ2 01
ent ing
33 20
Ġval erate
Ġl ittle
03 1
Ġst and
Ġal iph
78 039
35 3
ser v
Ġaliph atic
id ium
Ġar icept
79 7
Ġob serv
Ġpal sy
562 11
Ġpam oate
Ġc at
05 7
Ġchi ll
14 2
56 93
Ġex am
Ġped l
c ele
Ġmed ium
eta zolamide
ost atic
Ġchill s
cele brex
l f
Ġf ound
Ġac etazolamide
37 7
cer ta
Ġbu ffered
pul m
00 5
Ġh c
14 6
47 1
57 4
Ġbilat eral
or in
99 859
Ġb ones
Ġb rief
Ġb aby
pl aquenil
11 4
Ġsy s
11 5
Ġu ti
25 2
Ġper ic
Ġvasopress in
Ġc a
05 4
Ġstocking s
28 5
pulm icort
d erm
18 5
15 7
16 2
16 7
36 7
pro p
415 19
Ġquin april
Ġt erb
36 9
tro chanteric
Ġtraum a
sm al
Ġterb inafine
t end
Ġb act
Ġo pium
Ġf low
01 7
16 3
Ġco c
Ġhemat oma
Ġstand ing
d iazep
z ess
st ren
age l
01 3
Ġ15 49
17 5
26 6
59 2
38 5
Ġlin zess
Ġatro vent
stren gth
Ġb ec
Ġk eflex
Ġchang e
Ġcycl ist
Ġdi z
Ġres ult
16 5
Ġim odium
azep ril
lid ocaine
m ucinex
Ġan sw
Ġl ine
09 0
Ġdis op
14 9
Ġinj ector
pra vachol
hag ia
03 6
im ens
37 4
Ġchlor diazep
Ġspec imens
Ġadv anced
Ġansw er
Ġsit ting
glyd o
859 0
Ġp ad
07 2
16 8
i ol
em et
18 2
gluc agon
Ġdiz zy
ct ure
p e
ro gel
Ġgastro pa
Ġgastropa resis
4 1091
06 8
Ġr lf
45 3
Ġcarb amide
23 5
59 9
56 60
Ġid x
Ġlup us
Ġtin cture
ag lar
Ġag nst
Ġcom fort
28 2
439 09
vag inal
Ġc gmp
04 3
Ġhy ponatremia
Ġcholel ithiasis
Ġm er
ab scess
Ġe v
Ġerythemat osus
07 6
37 6
Ġval pro
11 7
15 8
ex t
Ġdysp hagia
phas ia
Ġintra vaginal
Ġsinus itis
re f
08 6
05 6
59 7
Ġcl ear
44 4
re ad
25 1
est ra
27 5
act in
45 6
di arrhea
yv anse
19 5
Ġnov olin
Ġa phasia
29 3
Ġclo str
hydr ate
uv aring
tra v
Ġlu er
Ġclostr idium
lo z
st emi
17 2
29 7
im ate
48 7
36 8
Ġsol ifenacin
Ġproduct s
aqu in
Ġchlordiazep oxide
z ing
Ġ ram
Ġat t
Ġg e
22 1
47 7
Ġcr ush
Ġ14 39
17 6
57 420
Ġsw al
Ġdispl acement
Ġgau ze
trav atan
gest in
Ġvalpro ic
r c
s one
13 3
Ġpi lo
99 1
Ġwom en
k nee
Ġl arge
45 4
57 12
car pine
Ġdap sone
08 2
Ġx t
ter odine
Ġmono hydrate
Ġarth rop
er il
et y
58 69
Ġtol terodine
Ġpilo carpine
19 8
29 5
Ġth an
55 2
4 01
n l
Ġ18 00
25 081
78 81
fib er
Ġmanifest ation
Ġge odon
Ġmed ia
Ġlo ad
14 7
oc lon
lo meth
Ġg ent
58 8
Ġsyn thesis
Ġgro in
436 2
lometh asone
o yl
Ġd uct
it one
Ġan imal
Ġic e
Ġis chemic
25 3
23 6
92 03
Ġbec lomethasone
t opril
on ogestrel
17 8
Ġcap topril
Ġet onogestrel
Ġthro ugh
fe osol
ext ended
ref resh
l epro
Ġf ron
Ġanti lepro
17 7
Ġantilepro tic
4 111
47 2
88 4
Ġlum igan
** **
Ġv ers
Ġgastro stomy
Ġmy elo
ped est
Ġesophag us
p ain
Ġm anic
19 6
45 5
45 7
9 69
Ġ2 06
09 6
14 3
Ġacc ess
Ġinter med
Ġa erochamber
78 2
pro graf
Ġresid ual
Ġnorgest imate
yl ene
yc hi
val ium
Ġvers us
t ime
Ġh ct
25 6
46 3
88 20
Ġcomp azine
Ġintest nl
Ġa qu
is entress
17 4
spec ted
pro s
Ġregion al
Ġdec lin
v esicare
10 5
11 3
Ġrel ion
39 6
46 1
ak er
Ġsulf one
Ġdil antin
estra diol
Ġdeclin ed
ide x
55 3
Ġsuic ide
*** ,
Ġp seudoephedrine
er na
Ġv aren
05 2
16 29
Ġaugm entin
icl ine
Ġvaren icline
x alatan
Ġl anc
56 8
Ġs af
el in
25 7
76 0
00 7
07 7
05 8
am ate
68 22
r int
Ġs bo
el te
Ġve ins
Ġram elte
Ġramelte on
ol amine
Ġ2 03
an er
Ġcir c
Ġ ef
01 8
05 5
Ġacid osis
45 11
59 39
57 0
iz umab
Ġ2 04
Ġt ic
17 3
26 4
vic odin
358 0
Ġswal lowing
l eptal
Ġp a
Ġtri leptal
18 3
58 7
Ġmon oclon
814 7
2689 1
e cotrin
in ter
ev ac
Ġsh ld
rac il
Ġt ros
Ġv ul
Ġ16 23
Ġcol d
Ġamp ut
Ġmal f
inol ones
Ġtros pium
Ġb ed
or ies
ist aril
Ġwalk er
14 1
29 181
46 4
Ġet aner
Ġhydroneph rosis
Ġmonoclon al
Ġshld r
Ġetaner cept
m el
r up
re lor
it ussin
ag relor
Ġpar oxy
Ġaccess ories
Ġparoxy smal
Ġ2 05
ox ifen
Ġdep ot
chant ix
Ġtam oxifen
Ġresult ing
rint ec
Ġtic agrelor
6 29
c i
m ic
Ġinf rc
Ġtrem or
Ġg tube
28 3
im ol
Ġflu ids
Ġpra daxa
Ġfluoroqu inolones
my xin
lis pro
Ġteno fovir
k t
Ġf ort
ast elin
46 5
Ġul na
Ġsub rac
Ġrem icade
Ġprim idone
c ycl
e zing
Ġst ress
27 4
38 8
Ġcoll agen
Ġid ent
Ġglo bulin
Ġdisop roxil
6 26
Ġre qu
18 7
24 5
pro biotic
87 2
Ġreli ever
itrac in
electrolyt es
26 5
ex cedrin
48 0
c ip
gl itin
14 8
Ġme glitin
Ġmeglitin ide
b all
h arm
z yprexa
Ġother s
79 092
Ġfron t
b le
at ar
Ġch ewable
26 3
azol es
Ġ ),
atu da
10 65
ep ogen
Ġloz en
g f
25 8
48 5
ost at
ron ized
Ġpost proc
unct ure
5 259
Ġl ay
ph ren
03 0
Ġst enos
Ġnonin fl
Ġwhe ezing
cu e
Ġcoc aine
Ġres cue
07 5
ut ch
49 7
cov orin
Ġcollagen ase
u covorin
in itis
Ġm acrobid
17 89
46 6
43 59
Ġle ucovorin
Ġref ill
Ġschizo phren
Ġsaf ety
Ġc risis
29 4
phen ir
39 5
47 3
Ġcr utch
phenir amine
03 5
36 5
te g
79 3
Ġmic ronized
cycl en
Ġlay ing
00 83
am une
Ġst art
il ant
t osis
Ġcar afate
39 8
35 1
89 29
Ġinter trochanteric
Ġbrief s
ost omy
68 27
x ostat
Ġp ic
en brel
ot s
Ġfe bu
Ġfebu xostat
Ġre glan
Ġh d
06 7
ant if
Ġsub cut
Ġschizophren ia
d ag
l an
as part
Ġc olic
Ġmedic inal
24 7
Ġprod uc
Ġdes ogestrel
Ġp n
Ġp ol
Ġd ar
Ġ15 00
15 4
Ġpr sn
Ġdv t
Ġp epcid
Ġc an
anyl ate
Ġgu anylate
Ġcycl ase
6 02
g c
13 1
78 4
Ġimmu ne
96 89
sw ord
dag ger
9 38
Ġl et
19 0
Ġhaz ard
d m
v igil
ar anesp
id yl
Ġn ephritis
15 3
59 6
49 3
89 8
23 3
ost av
ill ary
Ġbiguan ide
Ġpe ak
ostav ax
Ġres t
07 3
39 1
68 0
Ġfort e
Ġlet rozole
the m
Ġ21 0
Ġh aw
29 00
55 4
Ġto oth
ean s
vent ricular
Ġbac itracin
atar sal
Ġnoninfl am
f ul
f lex
y ron
Ġa ort
pi vac
45 86
Ġult ram
Ġbu pivac
Ġbupivac aine
n amenda
Ġd ots
09 5
19 2
29 0
di arrheal
Ġbi phasic
Ġma alox
Ġpres ence
Ġgall bladder
28 4
dil antin
m n
15 5
Ġmet atarsal
gre e
Ġde gree
Ġtrav atan
mot il
Ġsubcut aneous
r ated
Ġa ro
Ġm eans
Ġf ind
16 4
24 8
Ġfl agyl
yron ine
49 0
Ġnsaid s
Ġleuk ocy
f os
19 83
Ġbl adder
Ġlin er
Ġsut ures
prev acid
Ġpa res
Ġb ypass
Ġf erro
Ġr ci
Ġk nown
48 1
56 5
ost igmine
88 81
Ġval trex
Ġcalcit onin
6 69
en ium
36 4
Ġflu t
66 3
Ġpolysorb ate
h ep
q var
38 4
pro vera
Ġse ed
y asthen
15 2
ther m
cl ear
Ġcl avic
37 5
Ġantim yasthen
Ġpsych o
Ġamino gly
bas aglar
Ġaro und
Ġantimyasthen ic
t yrosine
Ġpre p
Ġprev acid
47 4
con t
Ġphys iol
Ġflut ter
v es
on ium
03 4
43 4
ulo us
Ġpar ano
omy el
Ġhazard ous
r od
s ure
ic a
Ġs ir
00 81
ad iazine
est ril
Ġsulf adiazine
68 7
orr he
Ġclavic le
6 238
Ġb ari
al li
39 3
Ġpot ential
Ġtrans ient
Ġpotential ly
n apro
Ġdi p
Ġm uc
Ġh igh
ant adine
uc erin
Ġam antadine
gl it
Ġ87 5
lev o
Ġdu ration
Ġrh am
Ġprsn l
Ġbari atric
8 15
Ġg g
Ġlo ck
lu ng
Ġ, ,
anus ol
av iren
Ġeth yl
ocor onary
Ġrap e
Ġef aviren
Ġaort ocoronary
glit azone
Ġefaviren z
8 32
00 8
it rop
Ġpre marin
35 4
nos us
av ac
Ġsel enium
Ġtub ulo
plan on
inter stitial
Ġpares thesia
Ġrham nosus
6 27
ol loid
Ġt rop
Ġst at
ther ia
Ġhydroc olloid
diph theria
dec avac
867 3
cip ro
ph arm
Ġr x
Ġphen ergan
Ġcongest ion
Ġfi bul
itrop an
l le
15 79
lu nom
ulat or
vag ifem
erem ia
Ġfibul a
lunom ide
s ub
00 4
Ġis sue
04 1
Ġal ign
ai ian
87 0
Ġisland er
Ġpres c
Ġmo od
Ġpac ific
Ġprol ong
Ġhaw aiian
z ed
ol imus
lo peramide
no kot
em aker
se nokot
ome ga
45 81
ulo ric
Ġpac emaker
aspart ame
Ġsir olimus
f asc
Ġp io
Ġp rimary
on t
ol azine
Ġran olazine
cap top
Ġpyrid ostigmine
Ġstenos is
Ġpio glitazone
captop urine
Ġ2 08
id azoles
co ugh
Ġcl sn
Ġsp inal
of ine
Ġim idazoles
Ġlef lunomide
Ġnano cryst
Ġprem ix
Ġbact eremia
alli zed
Ġnanocryst allized
ar icept
Ġ22 11
19 10
89 10
su spected
Ġro b
Ġalcoh olic
Ġstab iliz
Ġmer captopurine
Ġpsycho active
napro syn
9 160
one b
Ġy es
Ġcalc arb
Ġproduc tive
v ox
Ġis entress
03 10
le olar
19 85
27 3
ult ure
Ġmet ac
59 5
Ġcol crys
ra y
59 21
al phagan
Ġn ephrocaps
Ġst rep
24 4
Ġgast ritis
58 3
39 7
di phenhydr
Ġcon certa
Ġrif am
ogen ic
867 18
d ol
as y
Ġ17 05
Ġflo or
Ġbic ycle
Ġrifam pin
e ek
Ġg el
07 8
ab d
14 5
54 09
pyr id
Ġstabiliz ers
en em
09 4
ant yl
Ġinf ect
86 1
Ġben ign
Ġlanc ing
c ort
Ġ ramip
Ġs ever
Ġm ach
Ġn asonex
Ġi mitrex
37 0
acid ophilus
urop athy
Ġramip ril
Ġsever ity
e e
Ġd rop
Ġpain ful
Ġh r
29 2
Ġglu cophage
Ġstr p
Ġs eno
48 4
38 2
36 2
Ġx ifaxan
Ġj unel
Ġseno kot
c lix
f ioricet
x openex
Ġ16 88
rob an
olytic s
Ġsut ure
Ġoste omyel
ulture lle
5 10
5 39
h er
04 4
op athy
Ġlev oc
Ġdip lo
Ġm andi
Ġn od
Ġch eek
57 6
Ġrep eat
Ġmetac arp
e al
z atriptan
Ġ18 89
ec avir
ch emia
Ġco g
eph alo
Ġri zatriptan
68 6
Ġantibacterial s
Ġulcer ative
85 00
Ġent ecavir
cont rac
z one
ac et
Ġis chemia
Ġth alidomide
Ġabd om
ou racil
Ġint o
Ġcont our
orr hag
Ġenc ephalo
Ġfluor ouracil
nit ine
Ġpic c
Ġfind ing
contrac eptive
6 05
s cop
14 4
Ġco unt
57 7
Ġlymph oma
Ġamput ation
Ġrest asis
Ġp m
pi a
us ed
Ġpre c
Ġal f
Ġne omycin
rin k
reg ular
Ġc os
12 55
Ġn erv
Ġu tr
ck s
Ġcar di
af en
calc arb
Ġav apro
Ġdiplo pia
l ic
Ġfol ey
Ġv yvanse
Ġv istaril
ac l
54 1
79 5
iotic s
Ġso cks
Ġot algia
922 1
813 42
poly myxin
flu ticasone
diphenhydr amine
Ġk dn
int ol
Ġsol u
724 3
Ġear ly
pharm ac
Ġkdn y
Ġa ff
Ġm annitol
Ġv ar
Ġl ancet
Ġnon disp
Ġnon veno
sy st
Ġex cedrin
proct osol
u zosin
re as
Ġm iotics
05 3
88 49
Ġalf uzosin
c ontin
p hil
Ġt ric
Ġh ot
Ġl es
08 5
824 8
Ġnonveno m
49 4
58 1
cos a
7 100
789 02
Ġglo ves
prop ylene
clear lax
6 04
el ence
48 2
he umatic
Ġtra ch
ath ic
Ġorth o
12 54
Ġal phagan
Ġpro ventil
Ġcalc ulous
Ġglu t
Ġpros car
934 01
Ġperiumbil ical
truet est
Ġencephalo pathy
7 26
8 10
m irapex
Ġp anic
ic idal
Ġper itone
Ġerg ot
syst ane
6 81
7 15
p kt
Ġb itt
ul ast
07 1
07 4
0311 3
873 43
Ġbitt en
ulast a
2 20
em bolism
ro ke
te gretol
Ġim p
99 53
2 13
u st
00 6
Ġc av
13 10
Ġes rd
Ġatt ack
c are
g g
k l
18 49
ap enem
56 3
Ġcarb apenem
924 11
Ġcyst itis
Ġdel usion
Ġlig and
Ġa x
Ġ13 88
yl ating
58 32
yll ine
Ġalk ylating
6 11
Ġp uncture
Ġ16 89
Ġbi ke
Ġsens ipar
2689 2
9 40
n asonex
Ġ2 07
Ġat az
an avir
Ġn stemi
19 3
27 1
57 5
Ġto ol
Ġran k
az ide
Ġest ers
ran kl
82 08
Ġphenyleph rin
Ġataz anavir
Ġc q
10 46
28 75
55 1
305 90
Ġpos them
Ġposthem orrhag
i ective
Ġ2 09
Ġo ut
se iective
Ġmis use
62 02
Ġdel ica
Ġsupp or
8 53
in tox
Ġ16 04
Ġflex eril
pat anol
intox ication
d ro
z ostavax
Ġv ol
ec ted
55 5
uro tic
Ġang ione
69 3
794 31
sill ar
Ġangione urotic
s odium
on iaz
ia p
Ġam i
Ġ19 27
Ġch arco
Ġgl ass
Ġpois n
rem eron
mes artan
224 2
Ġsuppor ting
oniaz id
in tran
33 3
gest rol
val trex
ek g
rox icet
intran asal
9 44
c et
Ġis oniazid
Ġco reg
tria mcinolone
Ġme gestrol
vi read
re v
lo ad
Ġm ot
Ġis onic
ot inic
Ġex ter
Ġsystem s
my x
Ġprox imal
Ġperiton sillar
Ġisonic otinic
9 479
Ġrespi mat
Ġun comp
Ġwalk ers
Ġbenz oyl
ineph rin
urin ary
Ġep inephrin
Ġreaction s
Ġtransp ort
Ġcrutch es
Ġexter na
v itamins
Ġre yataz
12 51
59 4
43 21
Ġflu vox
68 3
94 31
Ġtox ic
Ġfluvox amine
k et
n ry
t t
Ġa w
Ġl ab
io p
ir d
lor ide
Ġim dur
Ġstr uct
Ġstat nry
r ion
ol ine
Ġd b
id y
Ġ16 17
Ġl adder
ap res
Ġper iap
Ġantidi uretic
2557 1
Ġmalf unction
Ġpol yc
3 13
f lorastor
o per
ep rion
ac avir
Ġab or
Ġsen ile
68 20
Ġvasopress or
Ġami loride
Ġcharco al
Ġdb tl
Ġperiap ical
in tegrase
Ġc ram
im dur
Ġab acavir
45 01
33 10
6 08
p epcid
t est
ol l
10 33
ad ex
Ġst roke
Ġth ird
Ġmin oxid
57 71
67 5
719 43
Ġminoxid il
ul era
om ig
Ġ18 99
Ġ15 15
pid idy
78 24
Ġprot am
Ġang ina
wal k
Ġmetacarp al
Ġsolu tion
ec g
Ġ14 35
Ġpre zista
Ġantian dro
Ġes ophageal
719 7
amic in
0311 4
chondro it
Ġintest ine
015 11
Ġgent amicin
Ġlozen ge
Ġmuc olytics
Ġosteomyel itis
iop athic
Ġantiandro gens
Ġh i
Ġ10 26
Ġ14 49
ip ril
Ġsin emet
6 259
Ġp ub
58 59
48 3
chlor ide
69 7
lax ative
Ġtrop onin
Ġdrop s
Ġcos opt
8 18
n am
p ep
er c
Ġt w
Ġst e
24 2
ex ipril
iz ation
ody nia
Ġsub cu
Ġcomp act
Ġmo exipril
f ilgrastim
as acol
th ien
ul ic
Ġo int
per s
46 0
88 6
427 5
Ġside walk
Ġpeg filgrastim
Ġabor tion
thien amycins
g n
l ed
le b
gu ar
17 1
56 4
un avir
ran exa
Ġthro wn
nov ofine
536 3
Ġdar unavir
nam on
9 15
p seudoephedrine
Ġp t
Ġl ight
ne ulasta
Ġatri pla
aph or
Ġid iopathic
998 11
c it
ec k
act on
Ġsup ra
37 1
Ġtria zolam
Ġmouth wash
v omit
st in
Ġc urb
se ction
Ġ12 29
07 81
Ġ15 14
Ġdis rup
Ġcalc ip
Ġflu id
Ġclo t
Ġcalcip otriene
7 27
Ġ16 66
Ġ12 15
Ġol mesartan
Ġins uff
Ġab stin
Ġhydro chloride
789 59
su gar
utr al
805 4
Ġabstin ence
6 18
Ġ16 99
Ġ10 58
Ġ10 57
Ġ13 56
Ġ17 17
est rin
24 3
Ġde g
4 42
od ies
ac ral
Ġas acol
Ġ17 00
59 3
49 5
58 0
Ġex cess
Ġhem or
az a
dep o
idin ium
o ic
p ent
Ġ16 39
Ġl iv
Ġsco p
33 4
Ġcog entin
en pep
uc el
Ġst ar
Ġdis section
im p
78 80
58 4
Ġob s
719 47
Ġscop olamine
od olac
et ra
10 239
Ġg r
Ġch ondro
Ġex pi
Ġto b
Ġet odolac
Ġcardi omy
8 33
r heumatic
Ġb ump
Ġ21 1
Ġ12 05
ulo pathy
Ġra dic
288 00
224 1
Ġpub is
Ġdisrup tion
Ġexpi red
Ġradic ulopathy
i q
l im
p b
s aline
Ġc le
Ġno vel
67 4
c ongest
d em
al on
Ġcar dizem
57 3
Ġfx n
Ġamit iza
Ġsoft clix
Ġap ri
du ra
Ġrequ est
5 03
d ip
Ġst g
lim id
j ected
Ġ10 59
ant acid
Ġpro jected
46 60
rat ing
com fort
ben efiber
Ġmyelo ma
s l
Ġ ill
Ġ18 56
Ġ14 26
up rol
Ġnon tra
Ġle uprol
bet imol
Ġpulm icort
Ġnex t
728 29
Ġleuprol ide
ec it
Ġun st
oly n
38 29
int entional
Ġbic a
924 8
ge odon
7967 1
Ġcan did
Ġvar ic
5 26
f i
k eratolytic
Ġp in
er ior
Ġmedic ation
Ġ10 14
Ġg as
Ġ13 59
ap ri
are nt
un intentional
ess alon
Ġz y
oint ment
mult iv
met formin
Ġband age
Ġ13 18
19 77
15 85
oc in
36 0
57 2
Ġpoly myx
Ġlip oic
Ġleuk emia
Ġpres enting
Ġmouthwash es
Ġpolymyx ins
9 16
o the
Ġ17 86
op ic
67 3
c le
m opress
v aza
ol us
Ġcl ar
Ġvul va
cet ir
mopress in
b ronch
ch ed
Ġ17 89
Ġreduc er
78 37
con trol
Ġdes mopressin
372 30
934 02
Ġnod es
Ġstruct ures
6 35
6 289
9 288
f eron
m outh
Ġ13 03
Ġ14 36
Ġreplacement s
786 52
Ġlact ase
Ġtrach e
6 44
g lo
g ran
ati de
ag esic
Ġen l
ta id
Ġmalign an
518 81
2557 2
lan soprazole
Ġunst able
bronch ogenic
9 88
e en
s antyl
in ation
od ol
Ġc c
ep ron
Ġ18 09
Ġcom t
Ġ13 39
Ġ14 00
Ġ19 69
est a
28 0
Ġr id
Ġdex lansoprazole
68 2
gluc erna
comb igan
Ġaminogly cosides
4 40
6 15
d epress
Ġl atuda
Ġ15 39
58 5
Ġhe el
88 7
Ġte eth
Ġben icar
sub oxone
8 08
8 48
9 181
Ġ2 000
is opr
en ing
Ġ10 25
Ġ15 46
Ġcar isopr
Ġlev aquin
Ġcap ecit
Ġcarisopr odol
Ġcapecit abine
Ġs m
Ġs ar
Ġ19 46
ept adine
Ġbreath ing
pididy mit
h eptadine
y m
Ġp opl
Ġc ypro
Ġ16 07
Ġ18 37
Ġ15 38
am et
Ġ19 89
ite al
Ġinfl am
Ġpopl iteal
Ġcypro heptadine
6 23
em olli
Ġf if
Ġ16 00
Ġ13 05
Ġ17 47
Ġ19 13
lu b
58 2
tra vite
oprost ol
Ġadj ust
852 20
reas ed
emolli ent
2 01
Ġ18 17
Ġ13 04
05 39
Ġ19 16
ig g
Ġper les
Ġper iod
Ġly sine
7967 2
Ġbetw een
fos amax
Ġcardiomy opathy
d y
k en
t ure
Ġc yc
Ġ12 00
18 0
99 3
Ġli ke
Ġorth ostatic
rap amune
her oin
Ġnontra f
Ġfif th
Ġa a
ra x
Ġ11 38
di phen
Ġepis odic
Ġdec ongestant
hep arin
Ġexcess ive
Ġs ign
ag lin
Ġn uvaring
05 0
Ġantid ote
Ġantib odies
112 2
Ġrep aglin
Ġenl arg
Ġrepaglin ide
l ace
am ole
Ġth io
68 5
509 0
tegr ati
disin tegrati
pyrid amole
4 08
5 289
8 69
b ody
i omy
l t
od art
Ġ16 13
28 860
56 0
88 2
nos umab
Ġglyc erin
68 24
Ġde nosumab
mes is
Ġanorexia nts
Ġleukocy tosis
2 30
lo t
lo cal
Ġc gf
ere mesis
Ġv esicare
ant a
Ġ15 13
yl anta
ren agel
ne al
hydro c
100 0
Ġpropi on
Ġhyp oderm
Ġhyp eremesis
Ġcor neal
566 99
Ġperic ardial
Ġhypoderm ic
Ġp ow
ol d
Ġ15 89
Ġen sure
49 40
Ġle iomy
99 5
prost atic
Ġpreparation s
Ġleiomy oma
" ,
" ],
o k
y te
Ġc ord
ist le
Ġ18 69
Ġ19 77
ial da
alo e
Ġtab le
Ġth istle
eth in
dex ilant
Ġben azepril
nic oderm
Ġtric or
8 798
ast igmine
Ġ12 04
Ġtri pp
Ġst umbling
Ġ19 26
Ġth reat
av is
Ġriv astigmine
Ġtripp ing
g x
lo pressor
Ġm irena
ar a
Ġad hes
Ġh ald
Ġ10 29
Ġ14 24
Ġ15 57
am med
Ġr hab
Ġlevo throid
Ġsur g
Ġj ammed
Ġbis oprolol
Ġlac tic
sur gical
disin teg
Ġpin ched
Ġsign s
Ġhald ol
Ġrhab d
disinteg rating
it ive
10 84
Ġ11 12
Ġ17 07
Ġ19 02
cal trate
612 11
Ġparano id
leb itis
7 09
7 200
9 21
f ortic
g st
m eterol
Ġt race
en es
Ġ13 29
ch est
Ġ17 28
Ġ19 88
Ġsal meterol
rom olyn
ev ers
ne oral
un sp
Ġsp ray
Ġz estril
Ġsub s
Ġact os
Ġobserv ation
Ġmandi ble
Ġsar na
Ġthreat en
c an
d imer
Ġp et
Ġd gst
Ġc romolyn
Ġl en
mit riptan
15 1
Ġspec ial
ms m
68 4
ct iv
lip ta
Ġinter feron
Ġcompound ed
Ġarthrop od
pharmac y
mouth wash
Ġdgst v
Ġ18 87
us ing
Ġ17 19
op tic
Ġbl m
88 01
ian e
Ġel lipta
Ġzol mitriptan
fo ot
arth ritis
omy olysis
pr s
Ġrhabd omyolysis
Ġp ack
Ġs ic
Ġl bp
Ġ12 03
Ġ13 15
Ġ13 27
Ġ17 45
49 390
296 90
4 43
7 14
ag es
Ġ16 29
Ġ16 49
Ġ16 47
Ġ15 05
Ġ19 15
17 49
Ġill ness
glo bulin
an algesic
os yn
Ġ10 36
Ġ15 12
Ġ15 24
Ġ15 45
Ġ19 57
Ġ19 99
89 18
pre m
68 69
Ġdet rol
teno f
yst er
proc rit
a erochamber
d le
e ucerin
n is
ro se
Ġ18 36
Ġ12 25
Ġ14 08
Ġ11 37
Ġ19 48
iaz enes
Ġtr iazenes
ib a
Ġmy nephrocaps
Ġfe et
Ġbump ed
3 079
8 42
Ġp alm
Ġ12 39
Ġ14 13
09 1
Ġun control
Ġ19 38
Ġx openex
Ġint entional
Ġiv pb
Ġgro und
Ġben efiber
multiv itamin
s itis
it ra
sp rintec
Ġ16 05
Ġ16 26
Ġ18 05
Ġ18 27
Ġ12 13
Ġ14 15
Ġ15 02
Ġ19 00
78 459
79 02
Ġimmu no
Ġsub salicylate
dex tr
Ġcycl st
Ġbur sitis
Ġrob itussin
dem adex
4 78
7 38
b ism
Ġ13 49
Ġ14 07
Ġ14 04
Ġst emi
Ġab ort
Ġaggre nox
Ġcor nea
ov udine
cov y
Ġton gue
c pt
p entyl
em tricit
ate ll
Ġ12 56
Ġ13 13
Ġ14 25
Ġ17 39
py rim
Ġ19 12
27 62
zol o
38 0
orm al
tria zolo
Ġpra vachol
Ġdr ain
69 29
Ġcyclo pentyl
ff ee
Ġfe el
459 09
Ġvol taren
Ġimmuno globulin
bism ol
cpt ps
pyrim idines
2 04
7 40
b orrhe
c iclovir
n ifed
z ic
Ġm irapex
ac ort
Ġ10 27
Ġ13 48
Ġ17 29
Ġ19 23
Ġclo b
Ġest race
Ġde hydr
tenof ov
borrhe ic
Ġf evers
Ġ16 38
Ġl ate
Ġ12 45
Ġg reat
Ġ13 26
Ġ15 28
im od
Ġr t
Ġr ng
ig e
Ġcon c
Ġxanth ines
con cussion
Ġnapro syn
Ġpost concussion
Ġvent ricular
Ġband ages
Ġton sill
congest ion
3 12
k w
l up
o zol
Ġc uff
iv ir
om nia
Ġ11 59
29 1
26 1
Ġco ffee
Ġver a
ai red
Ġnar atriptan
aqu aphor
bur n
pot assium
dis pers
tran sp
Ġoste o
dispers ible
6 10
Ġs ple
lo venox
he um
arb ophil
Ġket one
vir ine
66 09
Ġconjunctiv al
Ġlen alidomide
Ġuncontrol led
Ġsple en
4 26
5 14
p axil
s ob
ol air
Ġ18 38
ac ted
Ġ14 38
Ġam phetamines
Ġor ific
79 04
67 1
Ġlevel s
ov en
84 49
Ġlat eral
Ġantise borrheic
ater n
Ġperitone al
Ġimp acted
Ġorific e
2 10
3 48
d ulera
Ġc ab
an ec
is o
Ġ13 36
Ġ15 27
Ġins omnia
24 1
Ġrepl ac
Ġprost ate
Ġem esis
Ġlevoc etirizine
Ġpolyc arbophil
Ġtonsill itis
lup ron
4 23
m ass
Ġ16 16
Ġ18 29
ad itor
Ġ13 07
Ġ17 24
Ġ19 45
Ġcar ot
Ġph enter
Ġext rem
ben azepril
Ġsupra ventricular
diphen hyd
Ġphenter mine
4 02
4 38
res iba
ed ronic
Ġb ili
Ġt resiba
se re
Ġ16 09
Ġ18 28
Ġ18 79
amin ase
Ġ10 37
Ġ14 05
Ġ17 79
Ġ19 14
Ġlo t
gl t
Ġpro vigil
78 10
Ġsp bl
Ġim ipramine
ard itis
Ġzol edronic
9 130
Ġb as
Ġ18 08
Ġ12 02
Ġ15 17
78 12
hydro phil
inhib itor
Ġpetrol at
9 36
e o
n atural
hi p
ac tic
Ġ14 02
Ġ14 89
ml actin
Ġ17 25
Ġ19 66
Ġlo estrin
gm enting
Ġdex trin
119 8
urit ic
ma alox
lycop ene
Ġperiton itis
emtricit abin
5 40
t ussin
z erem
as acort
Ġtem ozol
en itis
Ġ18 19
ra virine
Ġ10 46
Ġun ilat
ox if
Ġet ravirine
Ġmis oprostol
clo trimazole
Ġref used
Ġvic toza
Ġhazardous body
Ġprolong ed
Ġclot ted
imp aired
transp ort
Ġtemozol omide
Ġw ip
th romb
Ġd epi
ec ran
um en
Ġol ecran
Ġ17 69
58 31
57 22
Ġcer umen
Ġmu cosa
805 2
Ġdors al
ma o
ychi a
Ġglut amate
Ġcle an
Ġbili ary
Ġdepi gmenting
5 35
9 66
j unel
Ġs ites
Ġ18 67
Ġag t
11 649
Ġ13 38
Ġ14 58
el d
05 1
Ġst atic
oc ort
Ġhyper cap
Ġphosph or
Ġhist o
Ġmono amine
77 6
959 3
65 21
Ġpost ures
Ġprotect ant
Ġpn v
Ġaw kw
heum at
sere vent
Ġhypercap nia
Ġawkw ard
4 30
Ġthe oph
Ġ16 25
Ġ( ****
Ġ10 13
Ġn er
Ġ12 08
Ġ12 07
Ġ12 38
ant oven
78 41
olo gic
Ġne utral
Ġsh ell
Ġchlor pheniramine
197 0
Ġperiumbil ic
Ġtheoph ylline
Ġ(**** **
6 36
b ro
j an
w r
al f
Ġ16 27
Ġ16 45
Ġ18 26
ph rosis
Ġ13 58
Ġ14 06
Ġ14 19
Ġ22 0
Ġ19 59
78 01
Ġep ogen
Ġmen str
707 15
Ġhb r
Ġhydroneph phrosis
Ġner ve
s ol
z ocor
or k
se v
Ġ12 06
Ġdispos able
Ġ14 27
Ġ15 11
Ġ17 37
Ġr up
ram ycin
53 081
chol ine
Ġmov ing
Ġvacc in
796 05
atri pla
wr st
Ġs orb
Ġn acl
Ġ19 97
Ġsp ont
f irst
Ġh ives
Ġ12 48
Ġ14 59
Ġ15 04
Ġ15 48
am ns
Ġ17 03
Ġ17 99
Ġ19 29
il ine
Ġor g
Ġprot amin
hyd rin
Ġandro gel
Ġtrans amns
Ġcathet ers
gn se
Ġdehydr gnse
ol ide
Ġh it
Ġ18 13
Ġ18 23
Ġ12 58
Ġ14 23
Ġ14 37
Ġcomplaint s
Ġ17 04
Ġst om
Ġ19 10
Ġ19 04
Ġ19 36
alc yte
39 4
38 1
glyc erin
789 05
Ġhalo betasol
Ġmid dle
Ġfluor ide
Ġpel vis
rev limid
5 02
Ġ astelin
ist ant
Ġ16 14
Ġ18 25
Ġ18 45
Ġ13 28
Ġ15 23
ex ternal
Ġabn l
cat apres
chol estyramine
Ġher oin
Ġpart s
Ġlumb os
con cent
Ġwhe at
Ġchondro itin
avis con
concent rated
g ent
on itis
Ġ16 02
Ġ16 56
Ġ18 03
Ġ18 24
Ġ17 12
up ogen
19 1
57 50
glu co
Ġneed s
Ġfo ur
Ġdep o
dex trin
Ġps ychi
Ġsic kle
Ġlumbos acral
d oc
p rol
s glt
t te
u ation
Ġo stomy
ist ed
Ġ12 26
ph al
Ġ14 14
Ġco transport
Ġr heumat
Ġcol est
Ġmod erate
76 2
Ġoc ular
807 01
Ġaf ter
Ġsorb itol
Ġcotransport er
d etrol
s low
ic ay
Ġb ox
Ġ18 15
os a
Ġ15 59
Ġ15 99
Ġst ates
Ġ19 05
88 1
gar d
729 0
Ġact ivity
pros car
Ġphosphor us
Ġpsychi atric
n epro
t ril
Ġs ure
iv icay
Ġ18 14
Ġ12 49
Ġ14 29
Ġ11 39
Ġ17 66
if ine
Ġen brel
36 1
ter a
89 9
pre zista
ept idyl
69 5
Ġmen thol
Ġprol actin
electrolyt e
Ġ1549 6609
gg ed
Ġtob ramycin
dip eptidyl
Ġvaric ella
5 780
c amphor
Ġs z
ul tic
Ġf am
ar tic
Ġ10 15
Ġ14 16
Ġ15 09
Ġ15 26
Ġ17 06
Ġ17 02
Ġ19 28
Ġ19 39
Ġ19 47
Ġch em
coc cal
88 100
oth yronine
66 1
Ġrif amycin
Ġsub acute
iod othyronine
tri iodothyronine
Ġpos itive
b io
n y
Ġt ivicay
Ġm ag
Ġ12 37
Ġ13 37
Ġ14 28
Ġ14 45
yl ar
Ġ17 23
Ġ19 03
Ġ19 58
im uran
ip s
57 61
and in
erg oline
epi vir
959 2
802 8
805 0
sorb ate
Ġcur ve
poly sorbate
dur agesic
Ġwom ens
Ġcab ergoline
Ġspont aneous
3 01
5 58
9 389
r ag
Ġ itch
Ġd ros
pi ren
Ġf ilgrastim
Ġh old
Ġ16 59
Ġ16 36
Ġ11 58
Ġ17 56
Ġ17 88
Ġ19 06
Ġ19 24
Ġclo gged
ov idone
Ġass isted
Ġdros piren
Ġdrospiren one
5 12
b act
c ulturelle
d itropan
Ġh arm
Ġ18 49
Ġ10 19
Ġ12 36
Ġg ar
04 41
Ġ15 16
Ġ15 37
Ġ11 00
Ġ17 58
Ġabd o
Ġspironol acton
67 7
Ġatri o
Ġflush es
du oderm
703 0
203 00
Ġliv ing
b ack
d ial
re yataz
Ġp ancy
Ġs f
it ory
Ġ13 19
Ġ13 45
Ġ15 36
Ġon ychia
66 0
489 2
Ġure th
Ġorth op
4 11
b rist
c p
c art
o jet
Ġp il
Ġac tive
Ġ16 28
Ġ16 46
Ġ18 46
Ġ18 55
Ġ10 18
Ġn ri
Ġ15 18
Ġ15 29
Ġ15 56
uc an
Ġ19 17
Ġ19 37
68 25
sim ethicone
aff ective
Ġov ary
latul ent
Ġinvol un
867 11
antif latulent
lub ricant
nifed ical
Ġrheumat oid
Ġpancy topenia
brist ojet
e ous
n uvaring
Ġ race
et ta
Ġ14 12
Ġ15 58
eth nic
Ġtr ulic
mo ur
87 341
tran s
Ġaqu eous
Ġposthemorrhag ic
can asa
Ġpet ites
cart ia
ethnic ity
Ġtrulic ity
7 08
8 001
f exofenadine
ul n
em est
Ġf lorastor
Ġin tr
Ġ18 07
one x
ris dol
Ġex emest
69 8
Ġdu oneb
410 71
Ġphys ical
Ġcirc ulat
Ġtrache ostomy
bact roban
Ġexemest ane
c hil
f amotidine
m epron
o ther
w ater
Ġ il
Ġp orcine
Ġs arco
Ġsy nov
id osis
Ġ10 12
Ġ13 57
Ġ14 47
Ġ15 79
Ġ17 36
le uk
Ġmet ab
88 3
press ure
Ġpneum onitis
Ġpar asy
Ġdes ipramine
566 09
Ġass lt
Ġcalcitonin s
Ġadjust ment
zic om
trans derm
Ġsarco idosis
7 22
8 002
n x
o res
o od
Ġp atell
lo motil
Ġo per
Ġh tn
Ġ10 16
Ġ13 14
Ġ14 56
09 89
am yc
up per
Ġ19 56
ip ol
45 340
Ġj t
Ġcoll is
69 2
Ġcolest ipol
Ġin dex
Ġ13 12
Ġ19 18
Ġal c
78 194
az am
salm on
76 5
427 1
Ġinter phal
812 2
Ġgar lic
Ġb imal
Ġ13 00
Ġ13 16
Ġ15 10
Ġreduc t
29 590
Ġtr n
Ġmethyl cellulose
Ġclob azam
Ġpatell a
Ġoper ation
) (
5 081
9 56
c or
as u
Ġt b
Ġad m
Ġ16 48
Ġ12 12
Ġ12 47
Ġ15 06
Ġ17 14
Ġ19 86
ut es
Ġr le
Ġflu nis
qu ip
end ocardial
cos opt
Ġsub endocardial
ore tte
Ġdes covy
Ġarthrop athy
Ġflunis olide
8 30
t d
x x
Ġv impat
Ġ18 78
Ġ18 86
Ġst ud
Ġmar inol
24 0
ax in
cl idinium
Ġmin utes
66 6
olost omy
oper ative
Ġpil on
2 23
5 32
Ġ16 08
Ġ16 57
Ġ18 58
Ġ18 96
Ġ10 56
Ġanti thromb
Ġ19 79
sy mptom
tric or
Ġren agel
anti pl
Ġcycl ic
436 4
Ġcav ity
pent asa
Ġantithromb otic
p an
Ġc olostomy
Ġ16 58
Ġ12 28
Ġ12 79
Ġ13 47
Ġ17 46
Ġ19 25
Ġch el
Ġsulf ide
atelet s
100 5
Ġcytoprot ective
ben icar
Ġuter us
011 12
Ġneur itis
mot orc
Ġles ions
Ġoint ment
Ġorthop ed
antipl atelets
Ġantithrombotic s
0 1198
3 489
Ġb al
ul um
Ġmed s
Ġ12 46
ant ix
Ġ17 18
Ġ17 38
Ġch antix
im et
57 1
mo trin
77 3
Ġanaphyl actic
Ġpent ips
Ġorthoped ic
9 51
f er
al izumab
Ġv ec
ec ia
ra ck
Ġ10 49
Ġ12 10
Ġ17 26
Ġal leg
25 061
im optic
oc p
ex amic
Ġom alizumab
glu cos
Ġtran examic
Ġpr asu
Ġinc id
Ġtrim eth
Ġproc rit
Ġstar ting
Ġwip es
Ġprasu grel
m apap
Ġ10 39
Ġ10 38
Ġ12 23
Ġis oph
Ġ11 48
op n
Ġ19 09
ot rop
phen ergan
cl ick
47 0
79 07
Ġsen ior
99 592
Ġacet ab
Ġcontusion s
Ġcin namon
ĠĠ ĠĠ
antif ungal
Ġnerv osa
Ġste ady
motorc ycl
Ġalleg ed
3 08
b entyl
x olair
Ġ18 06
Ġ12 27
Ġ13 08
Ġ14 09
Ġ14 17
Ġ14 88
Ġ11 46
ur onium
Ġ19 01
Ġfem oral
Ġmale at
ev ity
Ġsu st
44 39
int elence
250 11
427 32
97 1
nex planon
796 04
Ġconjunct iva
comb ivent
Ġbimal leolar
Ġvec uronium
4 22
9 089
b rox
Ġb rin
Ġ18 12
Ġ12 14
Ġ12 35
Ġ13 17
Ġ13 24
Ġ15 07
ch itis
28 1
ut ab
Ġsol utab
ld h
Ġtrans aminase
fort amet
Ġcompound s
Ġca using
Ġinterferon s
prol ia
Ġsure click
leuk in
z aril
Ġant erior
ia c
Ġ15 19
ric ants
Ġsulf acet
Ġth ym
Ġk apse
qu in
pro gestin
67 6
Ġro x
Ġlub ricants
antep ar
Ġmen ing
Ġhb v
td f
Ġsulfacet amide
Ġthym idine
Ġkapse al
5 23
Ġ18 76
Ġ14 18
Ġ15 78
Ġ11 55
Ġun der
com a
Ġfor ce
iod ine
924 10
349 0
zid ovudine
9967 3
gent eal
Ġparasy mpathomimetic
Ġacetab ulum
5 781
od en
Ġb odi
al one
Ġm tr
iv olol
Ġ16 79
amin idase
Ġ14 79
03 011
Ġch eck
eth anec
ig y
ib erate
Ġneb ivolol
Ġabnormal ity
syring e
Ġsmooth ies
del iberate
pres yncope
Ġneur aminidase
Ġbodi ly
8 46
c itr
z enpep
Ġb ethanec
Ġ13 02
Ġ15 03
Ġ15 47
25 531
itr ol
su icidal
Ġpost operative
Ġple ur
338 19
Ġdel iver
828 68
Ġass oc
pe g
Ġbethanec hol
Ġh alf
el y
Ġ15 25
Ġar anesp
Ġ19 49
15 50
Ġdis lo
Ġpro graf
ne upogen
Ġqu atern
Ġob t
ver bal
Ġhypo vol
84 48
Ġq var
Ġphos lo
Ġrequest ing
Ġbrin zolamide
Ġdeliver y
Ġquatern ary
3 16
4 04
8 68
b ri
l a
Ġres tr
Ġ13 09
io th
Ġ11 56
Ġ11 57
Ġ17 13
ax alone
Ġbenz ath
Ġof loxacin
Ġmet axalone
tens ive
Ġint artic
Ġlip op
Ġdist ension
Ġoxy gen
ute gravir
Ġanus ol
Ġstrep to
Ġrid ing
Ġbenzath ine
b if
Ġp ovidone
lo ri
00 64
Ġd ol
Ġd ofetil
10 649
Ġ18 04
Ġ12 19
Ġ13 06
Ġcomb igan
Ġr ing
olyt ely
Ġpoly s
Ġpr ur
Ġ+ .
787 3
ias pan
Ġmtr cy
Ġrestr aint
Ġdofetil ide
6 16
7 23
p ost
Ġa ud
ord ial
Ġ18 48
co b
Ġg o
99 889
Ġpen is
non cardiac
Ġinter stitial
orc ycle
pr od
Ġpresc rip
Ġpresc ript
Ġprec ordial
Ġmot orcycle
depress ive
3 24
g ia
Ġs ia
Ġ16 55
Ġ18 16
Ġ18 47
Ġ10 55
Ġ12 09
Ġ12 18
Ġ17 08
Ġ17 27
Ġlo motil
Ġx tra
Ġsp rintec
rin one
and rogel
99 7
Ġpu er
Ġmal ar
202 80
truet rack
vomit ing
Ġlipop eptide
Ġaud itory
x r
y phen
Ġa h
Ġat ax
ast at
Ġtri hex
Ġ17 35
Ġ17 68
Ġ19 96
ary nx
ill a
86 4
86 00
93 42
614 12
825 25
rod antin
tril eptal
glucos idase
Ġprescrip tion
yphen idyl
Ġtrihex yphenidyl
6 46
8 09
l ine
t ur
Ġd ut
st ones
Ġ18 02
Ġ10 28
Ġ10 48
Ġ12 57
est ring
Ġdis comfort
but amine
Ġmod ulator
Ġdef iciency
Ġend ocet
Ġdo butamine
Ġpros thetic
Ġtrim al
9967 4
Ġfinding s
Ġpilon idal
Ġdut asteride
7 080
f ever
s od
iv ert
Ġn ear
02 31
Ġ19 87
ut amide
Ġsucc inyl
Ġnitro imidazole
ub ic
69 1
66 2
77 4
Ġpar ox
338 18
Ġpow ered
Ġobt ain
Ġstrepto coccal
3 56
8 783
c ranberry
res istant
Ġt ight
Ġf resh
Ġ12 11
Ġg in
Ġ13 25
Ġ15 35
Ġ17 59
Ġins uln
if ene
78 13
Ġinter leukin
sul f
Ġpenicillin ase
Ġimmunomod ulator
728 85
bo ulardii
Ġfam ciclovir
ny amyc
prod igy
7 57
b or
as min
re quip
Ġm ultic
Ġac rom
Ġ11 10
37 991
89 6
lox ifene
Ġra loxifene
Ġper i
Ġev ista
Ġdol utegravir
Ġsuccinyl choline
8 00
9 060
p etrol
Ġb entyl
Ġc ult
or th
Ġ16 06
Ġ15 08
Ġ17 10
Ġantidepressant s
54 31
uv igil
rob itussin
802 4
Ġmax illary
011 11
Ġlup ron
Ġschizo affective
Ġstom ach
5 569
l ast
m annitol
in acea
Ġs aw
lo ric
Ġ16 12
Ġ16 03
Ġ16 19
Ġ16 15
Ġ10 11
Ġ13 23
Ġ11 49
Ġ17 15
Ġ17 76
Ġsup rap
ne uropathy
47 01
int stones
ithrom ycin
acid oph
92 01
94 23
Ġtrans derm
Ġcatheter ization
Ġster n
Ġless er
852 00
gluco trol
Ġtrn sp
Ġsuprap ubic
3 50
5 24
b yst
g ase
l ialda
r g
w e
er y
Ġ10 79
Ġ12 24
Ġ17 09
Ġ19 76
Ġtab let
ta pen
use s
Ġer tapen
305 50
82 021
max illary
Ġbronch us
my fortic
Ġclar ithromycin
Ġmultic lix
byst olic
gase ous
Ġertapen em
6 1012
p ax
w or
Ġt ing
ro tal
Ġ16 18
Ġ16 68
Ġl ioth
co pyr
ac ap
Ġ12 59
Ġ13 46
05 01
Ġ11 79
Ġvia ctiv
Ġ17 77
Ġ19 07
Ġ19 35
26 81
78 499
Ġsp ace
rol ate
Ġgly copyr
92 05
Ġbud eprion
807 09
met rogel
Ġlioth yronine
Ġglycopyr rolate
3 184
9 13
d if
v id
Ġs cap
Ġb race
Ġt i
Ġt yrosine
ar om
an ex
Ġ16 24
Ġ18 39
Ġ10 17
Ġun w
Ġ19 08
Ġmet abol
Ġor chitis
Ġne uropathy
35 10
Ġflu phenazine
79 0
oqu in
68 102
Ġpat anol
Ġsc rotal
Ġdiffic ile
Ġfi eld
Ġrup ture
Ġstud y
2 29
3 27
6 13
Ġ umb
as on
on avir
Ġs ac
ent a
Ġ18 97
Ġ13 10
Ġ14 03
Ġ14 48
Ġlo pin
29 410
Ġ118 9
Ġim idaz
Ġz omig
99 51
rit onavir
305 60
olin amines
796 02
Ġsequ el
Ġbehav i
marin ol
Ġhypovol emia
Ġfresh ers
Ġcult ures
oquin olinamines
Ġlopin avir
Ġimidaz oquinolinamines
8 01
t omycin
Ġm ylanta
ar yl
ro al
Ġl ast
Ġl le
Ġ10 24
Ġ10 23
Ġ11 47
ch ew
Ġ17 49
29 680
Ġr itu
ve ga
802 6
Ġdap tomycin
prem ix
Ġmetab olic
Ġumb il
Ġbehavi roal
3 14
7 16
8 34
j antoven
re glan
Ġw ood
Ġt pa
or ic
an ical
Ġ18 68
Ġ12 16
03 40
38 010
Ġex tern
sel f
pram oxine
69 4
dex amethasone
Ġref resh
Ġtrimal leolar
orth o
Ġting ling
6 19
6 43
Ġp arent
Ġb ark
Ġc mb
se qu
Ġ16 37
ac lu
Ġ13 11
el chol
Ġ15 33
Ġ11 45
Ġ19 19
Ġ19 55
il m
Ġpro ct
46 19
ost ix
52 24
Ġaz opt
Ġfl atul
zo vi
66 5
Ġcrush ing
citr ucel
Ġprur itus
wor king
Ġparent eral
aclu de
zovi rax
5 15
7 189
j ak
in ta
Ġb ril
Ġb eat
er uct
Ġin st
ri x
Ġ10 45
Ġ12 17
02 40
Ġ15 88
Ġ19 68
78 56
54 16
Ġph lebitis
Ġper iph
923 3
avic ular
Ġperic arditis
oll en
Ġatax ia
Ġbril inta
eruct at
9 08
n ephro
o zone
p sych
Ġb ad
st ocking
Ġrec last
ar um
Ġ10 33
Ġg amma
Ġ11 35
Ġ17 53
27 49
ap s
af ed
ow er
Ġj anus
786 6
phosph a
lev aquin
86 2
787 20
62 01
Ġgra vid
Ġsc ab
Ġdec reased
569 42
Ġconcent rated
Ġunste ad
elo da
Ġinfect ious
Ġgravid arum
3 10
5 28
8 35
f ungal
z ia
z op
ed ema
Ġb it
Ġsyst ane
Ġ16 69
Ġof f
pro vigil
med rol
Ġclo m
sen nosides
Ġes zop
305 20
96 00
Ġsc ale
Ġmax str
kg o
icl one
Ġpn ctr
Ġax illa
load enitis
Ġsia loadenitis
Ġunstead iness
Ġeszop iclone
4 48
b a
b ayer
Ġa lo
Ġs oc
lo vaza
Ġdi potassium
se ss
Ġac am
Ġac arb
ra zep
Ġ14 57
ur as
Ġ17 16
Ġal g
36 82
Ġclo razep
iz oral
81 10
Ġsub sequ
96 01
96 54
112 1
perd rink
538 1
azop t
tri min
pros ate
acap one
Ġwood working
Ġacam prosate
Ġacarb ose
Ġclorazep ate
Ġsubsequ ent
b e
v as
Ġ16 43
Ġl uras
Ġ18 88
Ġ18 66
Ġ10 78
Ġ13 79
Ġ17 87
Ġ19 67
atin ib
phen ad
Ġox azol
Ġspec travite
Ġepi vir
mo us
Ġheart burn
84 09
Ġnonin flammatory
Ġrab eprazole
032 11
Ġcirculat ory
Ġluras idone
Ġoxazol idinone
8 31
9 064
Ġ rac
ol atum
ro zerem
Ġl ens
Ġ18 57
Ġ17 48
Ġ17 43
im zia
hydr olatum
chlor thalidone
av apro
Ġ+ )
959 5
Ġend othe
813 6
Ġhr t
3 59
4 07
7 33
i agen
k eflex
00 76
Ġd itropan
et to
Ġ11 36
Ġ19 44
Ġ19 53
89 0
oxyl amine
amil a
Ġpersonal ity
923 20
Ġadhes ive
Ġpleur odynia
d risdol
r m
re cl
Ġb acterial
Ġc op
ad erm
pid ra
ap amide
Ġhyper osmolality
Ġ106 9
Ġper ip
cal trol
Ġran exa
Ġlac taid
Ġval u
Ġoc cup
anti hyper
Ġsequ nt
ick ening
Ġdelusion al
Ġsolution s
Ġcandid iasis
Ġaa a
Ġpalm etto
Ġpuer per
2 05
9 190
x y
Ġ ect
Ġs low
Ġb ites
Ġt essalon
om usc
ri um
Ġg re
Ġ17 11
Ġ17 57
Ġpl ant
Ġpen ile
av ert
959 11
Ġnifed ical
Ġind apamide
Ġneur omusc
Ġhaz el
988 90
Ġmening itis
Ġtight ness
recl ast
Ġneuromusc ular
n yst
ag gre
Ġ18 59
ur ia
ren a
ell ing
ig a
Ġsp rink
Ġim uran
Ġsw ollen
Ġme ga
628 2
628 38
Ġregion s
Ġproc ess
116 21
zone gran
Ġprec ision
Ġfour th
Ġafter care
Ġumbil ical
nyst op
aggre nox
Ġsprink les
5 78
8 11
h osp
n ec
o chol
v alcyte
z aditor
in ocort
Ġb ask
Ġm ist
an af
et ball
Ġ18 77
Ġ10 34
Ġ14 46
Ġ17 78
uc ort
act iv
Ġhydro quin
he a
Ġinf usion
Ġper f
cur onium
Ġro curonium
Ġform ation
959 09
Ġap pl
95 03
Ġsin uses
202 12
dextr omethorphan
Ġdrain age
Ġoccup ant
Ġbask etball
Ġhydroquin one
2 16
6 45
6 884
9 14
d es
d opa
o ice
ed ochol
Ġb ical
19 88
Ġpro bl
im m
Ġhyper osm
Ġstim ulating
ard en
67 0
67 59
Ġel sw
Ġclass d
Ġvi read
Ġrox icet
Ġalg inate
activ ated
Ġbical utamide
Ġelsw hr
4 13
u x
in j
Ġf oc
Ġ16 35
Ġas sess
Ġst one
ris o
Ġflu ores
79 2
Ġbip ol
ce in
77 21
112 0
873 20
Ġover load
bo ard
therm ia
Ġfluores cein
3 35
4 06
h our
v ia
Ġp ath
Ġc ong
se nex
ac el
ac etam
25 060
Ġcar nitine
49 87
pha zoline
Ġpot ency
fl av
Ġ157 7
Ġel astic
calc i
du oneb
Ġpent asa
cle ocin
cor gard
6 089
9 140
e pis
v iv
Ġs omat
Ġfol low
Ġn eph
Ġ12 44
Ġ22 1
est in
Ġ146 7
ple gia
76 1
con st
tra um
Ġav odart
poly v
Ġ1439 49
Ġinterphal n
Ġprobl em
5 11
f ract
Ġin deral
Ġ18 18
Ġn ormal
Ġcalc ane
tox ins
68 100
873 44
Ġtool s
test osterone
bro ken
we ak
epis odic
2 12
5 59
it ness
es ity
an a
Ġ15 55
Ġ17 67
ab il
atus sin
43 29
34 05
88 44
Ġim iqu
89 1
Ġhypo thermia
77 1
76 4
Ġrib avir
bis ac
ros th
9967 6
Ġvul v
Ġalo e
Ġperip rosth
Ġimiqu imod
Ġribavir in
a pl
b ypass
i ance
Ġa fib
ol lis
Ġs s
Ġt ortic
ord ination
Ġ16 67
Ġy az
Ġon fi
Ġco ordination
cop al
ell ect
89 7
Ġint ellect
86 5
300 01
Ġanast om
Ġmech anical
Ġcarot id
Ġsynov ial
estin on
fract ured
itness ed
Ġtortic ollis
Ġintellect ual
3 23
e pididymit
j enta
r s
u ra
z ar
th or
Ġb ef
Ġ15 54
le olus
Ġsal i
Ġcar tia
Ġk al
hist amine
44 14
Ġ106 7
av e
87 363
Ġmal leolus
86 3
92 02
Ġpost traum
anti histamine
Ġtub erc
pr x
du e
424 1
604 90
Ġgr ft
Ġect opic
Ġanastom os
3 02
5 13
6 48
7 140
m ac
n asacort
p et
Ġb at
Ġb ord
Ġf er
pl ate
Ġ13 01
able x
Ġclo zaril
phy s
car dura
Ġprop afen
Ġdr um
eff ient
con certa
61 10
asthen ia
853 00
Ġsm art
842 00
Ġpolys accharide
Ġvalu es
Ġkal etra
Ġpropafen one
4 47
a q
b ifid
d jenta
h mg
l atuda
in ed
ant ivert
Ġun il
Ġdis abil
Ġsulf a
38 870
42 090
di g
Ġtra djenta
786 30
sin emet
Ġabnormal ities
Ġmy asthenia
Ġmo b
Ġabs orp
Ġcr nt
923 00
Ġneuro toxins
Ġmil rinone
Ġhom icidal
Ġstern um
Ġmetabol ism
anaf lex
Ġsomat ostatic
Ġdisabil ities
0 121
5 37
6 03
b c
g aviscon
l act
th ria
Ġ18 85
Ġ10 35
Ġ14 01
Ġch air
Ġcar dura
Ġ111 9
Ġj ose
benz oyl
sar thria
non veno
ver teb
Ġinter verteb
802 11
Ġrap amune
Ġjose ph
nonveno mous
Ġinterverteb ral
b s
f etamine
as p
Ġt ussin
Ġ16 87
amin i
Ġ11 78
am fetamine
ear s
tr iva
Ġi odine
yp es
ev a
57 00
Ġint elence
99 57
gen ic
iph ex
Ġgluc erna
Ġbet imol
Ġgra vis
dex amfetamine
Ġligam ents
298 10
Ġorig inal
Ġthreaten ed
4 16
4 46
7 13
8 082
8 1000
f ill
k a
od afinil
Ġc ulturelle
Ġt ag
Ġ11 44
if lu
Ġun ifine
Ġr oll
Ġne w
me lo
Ġlis dexamfetamine
Ġarm odafinil
Ġultr amini
Ġindi rect
924 01
Ġover active
Ġmoisturiz er
823 00
chil d
Ġchel ate
Ġpuerper ium
Ġss ri
2 25
5 05
b ud
i ated
o am
as orb
or ta
Ġl un
co reg
zol id
Ġr in
Ġgen it
33 33
ano ate
79 10
ind eral
gen cy
Ġdr y
Ġur gency
Ġav iane
296 40
dextro amph
cort ef
Ġscap ula
) /
3 28
4 45
7 69
8 189
a king
th igh
Ġn iaspan
Ġ12 33
Ġ17 54
ot ox
Ġhe at
Ġtet ra
Ġ139 9
99 812
Ġna phazoline
Ġtachy car
924 20
309 81
Ġline zolid
Ġatrio ventricular
Ġrestraint s
bud eprion
3 78
8 260
e ast
l rg
n onin
z omig
Ġa orta
ol um
Ġt ension
Ġn iddm
Ġ12 53
28 51
29 71
Ġex amin
88 5
Ġdy sarthria
Ġgl and
su per
cy x
Ġdec anoate
Ġinsuff iciency
Ġenlarg ement
antihyper tensive
Ġhyperosm olar
melo g
Ġrin se
nonin flammatory
4 12
4 0390
8 04
8 49
a ic
e olum
s pi
s bs
z n
Ġf r
Ġh ord
Ġ16 11
um e
Ġ14 44
Ġy east
18 128
Ġsul ind
50 11
ith roid
uro x
un c
Ġsp on
88 8
79 31
89 5
rol et
Ġdox erc
96 501
802 12
436 5
518 4
728 88
align ant
703 1
386 10
Ġgang r
orrhe a
Ġcram p
Ġbord er
Ġhord eolum
Ġsulind ac
Ġdoxerc alciferol
3 129
n ac
Ġv oric
Ġv arden
Ġ16 78
Ġg ib
di pyridamole
Ġhum id
Ġ146 9
bar aclude
Ġvag initis
Ġantiper spi
Ġcond uct
Ġmicro gestin
nic orette
Ġprem alignant
flav on
Ġlun esta
Ġvoric onazole
Ġvarden afil
Ġantiperspi rants
u oden
ol izumab
ed ronate
Ġre t
Ġthe rm
Ġ16 10
Ġ15 01
stic k
Ġ17 55
oc ream
47 39
Ġris edronate
77 5
Ġdo es
Ġing est
Ġport al
tru e
flex eril
rod uoden
post part
bifid o
Ġexamin ation
2 11
v yvanse
x d
at ory
al ep
ro w
Ġ14 42
io cl
Ġ17 44
Ġ19 33
gl ide
55 01
Ġsyn copal
Ġz ov
Ġz alep
az e
zy me
Ġped ic
Ġvent ral
681 10
Ġacrom iocl
polyv in
Ġzalep lon
2 07
3 37
7 59
8 289
n ausea
Ġa q
or a
Ġm oxif
Ġf ur
Ġ18 11
il ect
Ġsu i
Ġbl ist
Ġ112 9
88 10
Ġpen fill
Ġext en
Ġvag ifem
76 47
max alt
Ġazel aic
Ġsupp orts
815 00
ont itis
Ġperiod ontitis
otrop ic
Ġti er
Ġmoxif loxacin
3 26
f ac
w l
Ġf ec
ist iq
Ġ16 53
Ġ18 01
Ġ18 83
el ine
Ġbenz ocaine
Ġpr istiq
Ġ158 7
719 06
255 32
Ġrequ ip
Ġmach ines
Ġtransderm al
const ulose
4 781
6 51
8 56
k osyn
p ork
Ġw bc
00 03
er lac
al avert
ad il
11 40
02 01
02 19
Ġ19 65
Ġmet rix
48 02
57 20
Ġneedle stick
ov ag
restor il
96 3
812 00
628 30
536 49
pas senger
comb ivir
ey e
rup t
gf r
Ġolecran on
2 06
3 18
4 37
5 04
7 36
g in
l ump
l ess
o urce
Ġb il
Ġdi pyridamole
Ġo yster
per idine
Ġin r
Ġ16 54
Ġl v
Ġ18 10
ad ox
Ġ14 78
Ġ14 54
am ox
Ġ22 3
Ġe ucerin
Ġsalicyl ic
act os
Ġmet rogel
Ġpi rox
ert ility
Ġem phys
ti kosyn
202 11
Ġaqu a
722 10
Ġcalcane us
Ġpirox icam
2 26
3 189
d ing
v y
v sl
y loid
Ġ ia
an ucort
10 52
ri gation
Ġg al
Ġ14 43
07 054
el m
Ġ11 33
Ġ19 34
29 70
Ġnon rupt
58 63
38 04
Ġinf ct
Ġfib rosis
Ġprop ecia
69 89
Ġir rigation
409 0
307 1
mel atin
mel adox
Ġenlarg ed
phenad rine
Ġ143949 83
Ġvulv ovag
Ġtachycar d
Ġvulvovag initis
8 150
l ucan
r l
t ene
y s
as ag
in ery
on tal
Ġsy mp
ec tion
Ġ10 10
Ġ10 47
el le
Ġ15 53
Ġ17 33
13 30
Ġr asag
Ġth omb
Ġhyper calc
Ġor phenadrine
57 68
Ġchol edochol
Ġ136 9
Ġbicarb onat
rost omy
Ġped al
Ġvent ric
805 02
Ġcontin u
Ġmast odynia
Ġmach inery
Ġperiod ontal
Ġpostconcussion al
535 50
dif lucan
Ġemphys ema
Ġrasag iline
Ġhypercalc emia
2 15
6 38
h a
t essalon
t ypes
re vers
on om
Ġs ex
Ġf ast
Ġ14 10
Ġ14 55
Ġ11 53
Ġ22 4
Ġe pididymit
Ġnon selective
89 2
89 3
Ġmid foot
gast roduoden
77 7
Ġdic loxac
Ġme peridine
Ġir revers
Ġma o
kin ase
Ġcitr ucel
453 42
mic ro
ket oacid
dextroamph et
Ġepididymit is
Ġdicloxac illin
Ġirrevers ible
a mlactin
d ok
p ancre
y th
z estril
lo ba
Ġ18 54
ant id
ant amine
Ġu loric
29 20
Ġsk ate
Ġbi loba
Ġj ar
ind uced
Ġpr uritic
Ġend omet
84 08
Ġvit re
Ġparano ia
hydroc ortisone
Ġgal antamine
2 189
3 36
4 03
4 05
5 47
d g
d o
i peridone
l amivudine
w h
er os
Ġt m
an y
Ġin tens
hi al
Ġ10 43
Ġ12 43
Ġ14 33
el jan
Ġ19 92
ot ec
78 43
glyc er
Ġpoly m
Ġpal iperidone
Ġpept o
807 02
508 2
574 50
Ġtw o
Ġcandid al
Ġgin kgo
nec on
Ġcholedochol ithiasis
onom ic
Ġskate board
Ġvitre ous
Ġintens ol
eljan z
4 254
5 17
8 39
9 30
b it
at rol
Ġp ram
Ġp ak
Ġf ertility
Ġh ic
Ġ16 44
Ġ14 53
Ġcompl era
Ġdis s
Ġcar ies
34 39
Ġx eljanz
66 4
Ġro ot
Ġby etta
519 0
969 4
Ġ1623 3333
478 19
psych otropic
Ġcontinu ing
9 110
o yster
x eloda
at ral
or o
Ġ12 01
Ġ19 11
Ġnon compl
78 552
ens ia
rac hial
pre d
87 4
lev itra
pept o
Ġmic tur
Ġ___ ,
Ġcream y
dy azide
weak ness
Ġtm j
Ġmictur ition
3 17
6 01
6 57
8 58
9 200
9 500
g esic
s alate
re dn
Ġs ere
Ġs pl
Ġs ix
Ġf ul
Ġf ond
Ġv s
en ema
Ġl iqu
Ġ18 112
ors yth
Ġg un
Ġ13 34
ch er
Ġsal salate
ne xa
52 25
pro top
Ġ108 9
Ġ109 7
Ġvas c
su es
Ġsmo ke
Ġmulti kinase
77 0
aparin ux
255 21
Ġcur rent
Ġaut onomic
ps yllium
Ġassoc iated
Ġextern um
Ġsere vent
Ġfond aparinux
orsyth ia
protop ic
5 16
9 351
l am
n ith
Ġw rs
Ġp ur
00 31
Ġc ert
Ġant ep
Ġtri ume
nd l
89 20
89 81
Ġfl av
87 7
72 142
de brox
phos lo
998 32
290 12
sulf ur
Ġnoncompl iance
nith ine
Ġantep art
Ġtriume q
5 27
5 33
c ep
h nd
p al
v enlafaxine
Ġ elet
at abs
Ġb rachial
em ax
Ġm di
Ġf ight
ar im
Ġ13 55
ch ronic
ot ulin
Ġnon cl
ond ylar
Ġoc ella
Ġgout y
569 69
Ġdes venlafaxine
Ġnerv ous
Ġsequel a
Ġtag s
Ġpram oxine
arim idex
otulin um
Ġnoncl sn
m ixed
x imab
on pas
ar med
ec or
Ġ12 78
Ġ11 43
Ġun armed
Ġlo vaza
Ġe gfr
tor in
57 11
Ġspec ific
Ġpen et
Ġep zicom
Ġbic ondylar
dr ug
Ġbra wl
ger i
796 41
ben ec
pr andin
Ġmenstr ual
Ġritu ximab
Ġneph rostomy
Ġelet riptan
3 102
4 25
7 00
8 29
9 000
9 282
z al
Ġm yr
ar nitine
Ġad mn
ist ry
10 20
us opt
pl x
Ġg olytely
Ġst ump
ab otulinum
19 91
ip ress
45 341
54 12
pro tein
Ġz one
99 0
724 8
77 2
85 05
sul e
Ġgluco trol
Ġdes ox
sorb itol
Ġbo ost
Ġbact roban
669 2
Ġlevoc arnitine
Ġchem istry
Ġingest ion
Ġblist er
ecor ia
abotulinum tox
3 0391
6 58
6 34
6 90
7 18
o urinary
s ign
z nox
Ġ18 43
ur m
tr um
14 10
phen ol
li qu
Ġcomb ined
Ġk rill
ib uprofen
Ġ129 9
av ella
92 04
Ġpros thesis
Ġpeg ol
Ġop tive
bo ost
oy a
Ġflow sign
Ġbas ic
Ġsust iva
Ġgenit ourinary
Ġcert olizumab
Ġflowsign al
8 27
9 52
m od
s il
t s
10 43
ad roxil
ac erol
12 90
Ġn avicular
Ġ12 55
Ġ17 34
Ġ22 2
Ġst yloid
25 12
spec trum
Ġblock ed
ir regular
coc in
Ġcef adroxil
88 0
Ġde gen
64 003
72 141
296 20
614 11
Ġmalf unc
Ġ1057 7647
Ġincid ental
Ġzone gran
acerol a
7 11
g es
t iga
Ġb e
00 11
er ry
Ġc ev
Ġf ive
Ġf ilm
om atic
ep inephrine
Ġ18 53
Ġanti plate
Ġ13 35
ant ithrom
am aryl
ot ro
19 20
Ġambul ating
45 82
59 59
Ġ138 9
Ġdex ilant
Ġasc ensia
Ġprop ylene
av i
Ġhear ing
Ġgu ar
Ġ179 7
76 3
Ġtac hyp
Ġinc ision
64 093
813 05
sw elling
996 79
Ġpill s
proct ozone
Ġzy tiga
petrol atum
mac rodantin
antithrom b
c imzia
h ecoria
n asal
v oya
Ġ ric
Ġat om
Ġre tro
Ġh or
is om
Ġac ton
Ġmed ial
Ġ18 52
Ġ10 53
Ġ13 33
Ġ14 22
im eline
Ġselec t
ap riso
Ġgen voya
99 4
av odart
av iane
cos ide
612 10
meth otrexate
Ġlozen ges
Ġmenstr uation
Ġpur p
Ġcev imeline
Ġatom oxetine
Ġacton el
7 001
8 19
c onazole
e sev
l er
n i
n ak
n uvigil
Ġb olus
Ġdi fl
per c
et al
Ġ16 01
Ġ16 34
Ġ100 9
Ġ13 54
ur itis
25 462
Ġpro cardia
Ġor bit
Ġsu n
ex elon
Ġsh ower
un n
Ġtr u
79 81
Ġcol esev
786 39
ov onex
Ġpers ist
83 098
Ġnor co
iqu e
Ġap ical
Ġcyst s
612 13
022 11
Ġcep astat
816 01
mic rolet
030 12
Ġsoc cer
glycer n
Ġflav or
Ġtachyp nea
Ġcolesev elam
3 15
4 17
5 06
8 080
c r
g ace
j evity
s i
re me
Ġa mlactin
Ġf ine
an i
Ġ13 44
ly sine
Ġon abotulinumtox
Ġch amber
28 262
23 16
bul ar
100 3
ano ic
79 51
sc a
Ġ+ ,
Ġeval uation
959 4
open em
nit ure
80 12
Ġdo cosa
lac taid
Ġple uritic
hex anoic
Ġtin n
Ġfiber con
Ġmer openem
Ġosteo arthritis
imet asone
Ġunw itnessed
Ġfur niture
Ġdesox imetasone
Ġonabotulinumtox ina
Ġdocosa hexanoic
b ac
c risis
e lop
r ital
Ġf it
03 311
spec travite
27 60
Ġe pid
78 54
ig all
ou se
compl ete
Ġantif ib
Ġfo am
ometh olone
Ġfluor ometholone
Ġaminogly coside
Ġabdom en
618 18
Ġric e
Ġtinn itus
rital i
d ss
Ġdi m
Ġc f
Ġ19 64
ax one
21 00
38 19
786 07
Ġclass ic
uck s
Ġstri bil
847 9
cin namon
Ġrx n
Ġclean ser
Ġclom ipramine
Ġstribil d
3 47
6 67
e g
as perdrink
ol itis
Ġ13 78
Ġar mour
Ġ17 42
Ġ22 5
Ġ19 83
ut in
Ġmet ers
rom ium
iz ing
Ġhem ator
Ġfl intstones
68 21
Ġbis ac
lip se
calc itrate
Ġultras ound
276 52
508 11
Ġneur algia
Ġsafety glide
602 12
Ġplant ar
micro gestin
5 07
b otox
Ġ ast
Ġw or
on iva
Ġd oc
Ġre v
an sule
ro gen
ac i
Ġ10 459
Ġpre d
he ologic
hydro zoline
Ġsp ansule
Ġinj ection
Ġz enpep
69 30
97 529
Ġcontrol ler
Ġbehav rl
Ġstart er
Ġfeel s
Ġhemator heologic
6 06
8 55
8 44
c amila
o benz
p ads
v t
ic able
ar mour
ag ard
is one
ri an
Ġ10 54
Ġ12 54
Ġ22 12
Ġst ation
Ġi od
erol imus
Ġser oma
act ing
49 50
Ġlev itra
55 090
Ġ126 7
Ġcoll ar
Ġec lipse
Ġarter ies
Ġalk ylamines
255 22
pow er
508 12
Ġev erolimus
Ġatt em
Ġcram ping
jan umet
sev ere
Ġtb i
Ġtrimeth obenz
child ren
Ġtrimethobenz amide
5 070
8 03
c od
n eck
00 845
Ġf tt
ep hal
Ġ16 33
Ġ12 34
05 02
02 80
tr isone
28 419
Ġth ree
ex alate
37 272
88 101
Ġ126 9
dil t
Ġim atinib
019 0
Ġfl are
Ġ156 7
ay exalate
Ġhemorrh oids
Ġeye ball
Ġsev en
ior inal
Ġverteb ral
mel ena
Ġles ion
818 12
Ġfeel ing
Ġbas aglar
perc reme
Ġpersist ent
4 239
8 78
d ot
m estinon
Ġwas h
Ġt imoptic
no t
pi ates
Ġpulse less
Ġv iv
is thal
Ġ13 53
Ġ14 11
Ġu ric
Ġ15 22
if oam
Ġch ew
Ġinsulin x
32 12
32 019
Ġket ostix
Ġ169 7
con d
rel pax
carb amate
97 2
retin oin
518 82
923 11
Ġoccl usion
Ġfi re
Ġtw isthal
Ġpt ca
Ġthio carbamate
Ġbal ance
ason ique
Ġhumid ifiers
Ġsix th
benec id
Ġtwisthal er
6 200
8 392
b y
c as
w elchol
at tera
00 75
Ġc and
Ġt x
ar iva
Ġ16 42
Ġn ephro
am p
Ġ17 01
25 541
78 492
Ġph arynx
Ġx ray
Ġdy azide
Ġ107 14
Ġ156 9
lip ase
69 81
Ġstr attera
76 22
60 10
Ġbio flavon
924 0
2689 3
Ġent acapone
Ġpedest rian
Ġdislo dg
imm une
Ġincision al
Ġattem pt
5 48
6 07
8 17
b ismuth
g h
n eph
t am
00 05
st olic
em triva
ri ly
pl us
el b
Ġ19 54
Ġch lori
45 53
sy nov
46 46
di ance
Ġnec on
Ġper idex
Ġpr andin
Ġacet one
87 70
Ġ+ ],
Ġby stolic
Ġpalp at
724 4
bet ter
Ġdu oderm
97 3
97 4
Ġte a
Ġmax alt
Ġter conazole
807 03
pow ered
106 21
Ġpent oxif
itone um
test im
Ġ1666 2316
Ġjar diance
Ġpolym erase
Ġcand esartan
Ġpentoxif ylline
6 59
6 1011
8 488
c itrate
o trol
t reat
Ġw itch
Ġ2 30
00 88
per idex
Ġin vega
Ġcod ing
en atide
ad ay
ac ta
pl ex
Ġg ol
Ġ15 43
le ev
Ġcomb ination
ip ran
pro cardia
Ġex enatide
Ġthyro tox
Ġ119 9
Ġtran dol
Ġz anaflex
ithrom ax
729 92
Ġman ia
Ġte g
Ġter ipar
669 1
cit ric
Ġpack s
Ġureth ral
leev ec
Ġtrandol april
Ġteripar atide
8 391
d im
n aft
n alox
s mo
t imoptic
at osis
ic d
Ġa icd
Ġs oma
lo trimin
Ġb als
Ġc us
al azide
ing ual
is il
hi on
Ġ10 44
Ġ19 509
Ġi le
Ġlan olin
22 20
lu n
Ġsup ine
ev ista
Ġprot opic
qu il
88 60
Ġ109 9
Ġj tube
Ġhem ostatic
Ġprostagland ins
Ġsel eg
van z
400 11
Ġ1800 17
Ġperitone um
itrol ingual
Ġsac rum
Ġendothe lin
Ġtuberc ulin
Ġteg aderm
naft ate
Ġbals alazide
Ġcus hion
Ġseleg iline
9 114
h ot
Ġd oxylamine
Ġ18 34
Ġ18 82
Ġ14 34
09 81
Ġ22 8
29 570
Ġe ating
ta p
qu ick
89 4
Ġ145 08
gen erlac
92 231
Ġinc reased
van a
Ġec h
oxy metazoline
Ġbo ard
sust iva
816 02
Ġcholel ith
Ġteno synov
Ġleukocy te
Ġste am
dy sp
lun esta
* ,
2 18
2 27
6 32
c ath
s am
in fl
ic ide
ol ved
th ro
er ian
al er
id rosis
ep redn
Ġl t
pl nt
Ġn af
Ġ12 42
02 32
Ġ19 43
ab onate
Ġpro benecid
45 31
35 72
Ġnitro quick
Ġ149 9
Ġet abonate
96 0
794 39
Ġcalcul i
813 1
Ġpharm a
ulic ide
Ġlot epredn
Ġureth ritis
Ġtrimeth oprim
Ġscab icide
Ġtetra hydrozoline
Ġpedic ulicide
Ġendomet ri
Ġdegen eration
Ġlotepredn ol
6 56
7 089
9 50
h idrosis
n ep
s kin
os ur
Ġam nes
Ġi gg
21 12
oc on
Ġhyper hidrosis
Ġcef urox
Ġex tr
orb ital
Ġra dial
Ġ152 29
Ġext n
82 20
96 4
85 10
Ġly ing
ira x
fort eo
ze asorb
605 11
thor azine
Ġzov irax
Ġthomb os
Ġuric osur
Ġamnes ia
Ġcefurox ime
Ġuricosur ics
8 796
m al
m ylanta
p rec
t om
y es
z ent
z yr
Ġt ro
ul is
em pl
ar ni
Ġ18 33
ph ic
Ġ13 475
02 415
Ġ11 34
hy oscy
19 23
Ġ110 9
Ġ116 9
rin olytic
Ġtran q
med s
ycl ic
Ġmel ano
con v
97 5
Ġmes y
94 29
Ġtrans verse
Ġfos inopril
345 3
024 16
Ġerythe ma
567 22
Ġgent eal
tt s
Ġadhes ion
analgesic s
cob ix
Ġrac epinephrine
Ġsmart view
Ġantifib rinolytic
Ġdislodg ed
rily sin
Ġpalpat ations
thro at
nep rilysin
prec ision
ulis ine
empl ar
3 42
5 43
6 99
6 68
7 35
n ormal
p d
s o
Ġ ept
ati o
Ġd ur
er ness
st ung
Ġdi benz
an fac
ep zicom
ad ron
ad melog
Ġ19 85
ab ri
27 52
Ġe u
eta phil
li ght
Ġambul atory
oc ean
ip rep
Ġpl asmin
48 01
Ġcl idinium
Ġhe ating
79 099
Ġinf erior
medi ated
Ġgl ulisine
Ġcor p
Ġsulfon amides
87 442
Ġgu anfac
Ġsub trochanteric
96 5
Ġthromb olytic
788 41
Ġactiv ators
813 0
Ġburn ing
Ġmc c
Ġmicro sp
852 01
abd ominal
726 33
Ġclar inex
Ġarthropod s
sol u
Ġitch ing
Ġperi orbital
nac ipran
Ġpurp ura
Ġ14508 231
Ġplasmin ogen
Ġguanfac ine
7 05
7 234
8 36
l arge
p uncture
z iagen
z cobix
Ġa rim
Ġs om
th ate
Ġd em
Ġd ka
an thate
Ġ16 52
ri q
Ġta ken
Ġ13 42
Ġpre zcobix
Ġ22 6
Ġen anthate
27 400
ifi b
78 062
Ġib and
88 102
Ġro caltrol
83 09
73 03
oph lebitis
Ġvent ed
Ġactiv ase
adal at
518 12
pel v
Ġmil nacipran
Ġcm plx
816 12
Ġax etil
801 00
mod erate
Ġendometri osis
Ġept ifib
Ġarim idex
Ġiband ronate
5 000
6 88
7 25
n izoral
r t
t ucks
Ġp erm
st rep
ro caps
Ġ10 32
ph rocaps
Ġpre hosp
Ġ15 34
Ġtri g
ot er
il etine
alc emia
14 71
Ġcalc et
oc ycl
oc alcemia
eth rin
af rin
he res
uro cit
ig amox
Ġ128 9
89 00
Ġhyp ocalcemia
sen ing
Ġro t
ector ol
bet riq
83 42
Ġconst a
Ġind uced
Ġpel v
Ġextremit ies
824 4
Ġtub eros
Ġsud afed
Ġmex iletine
diz zy
Ġmc g
309 0
stim ulation
Ġinternal ly
prev ifem
7200 2
Ġcarot ene
Ġunilat eral
Ġmyr betriq
amp ral
Ġmelano ma
Ġmicrosp heres
Ġperm ethrin
2 232
6 79
7 12
f inacea
s avella
t en
v istaril
y nt
z in
Ġs at
al k
Ġm g
per iph
ra dex
Ġcom m
11 00
Ġ15 42
ur ts
20 11
Ġbl urred
sel le
Ġinfection s
ucle osis
Ġmeth azolam
Ġherpes viral
Ġmonon ucleosis
76 21
85 221
72 092
Ġdopamin ergic
Ġpy lori
824 12
Ġlymph oid
trex all
525 02
Ġcat apres
acton el
Ġ1913 3405
643 03
Ġmethazolam ide
6 268
7 02
c d
n acl
u ted
v en
as ia
Ġs or
Ġb ro
Ġb rom
Ġt urm
Ġres olved
om eta
en ulose
Ġ18 35
Ġn asacort
03 032
ch ond
Ġ19 63
Ġ19 73
Ġch oice
Ġcomb ivir
Ġbenz odiazepine
Ġr ate
ren ol
57 18
Ġex elon
Ġtra ff
Ġj evity
tin ib
Ġoil s
Ġval erian
97 519
kal etra
Ġmov e
rh inocort
aw ay
Ġveno m
Ġsensit ive
525 71
Ġdro peridol
Ġtarget ed
Ġdar ifenacin
512 89
ĠĠĠĠ ĠĠĠĠ
dig ox
Ġmob ility
Ġfec al
Ġwor sening
Ġturm eric
3 06
6 47
a ke
a plegia
b r
f s
u racil
ic ture
Ġt en
no us
ast e
min uted
Ġin v
10 82
Ġl ialda
Ġ10 42
Ġcom minuted
Ġta pe
Ġ12 22
Ġ15 44
29 67
sy m
37 63
oster ior
Ġmon urol
Ġ116 48
Ġinf atabs
med ium
Ġz e
Ġstr icture
Ġpar aplegia
458 50
Ġly me
Ġ196 100
80 11
Ġ195 286
Ġtis sues
796 01
Ġmoisturiz ing
536 2
Ġprim rose
304 70
918 40
969 09
Ġaff ective
Ġgr and
fer rex
Ġunder pads
postpart um
9 063
c af
c eva
i i
p n
u it
Ġc ycle
al a
ia pis
Ġ18 32
Ġn ck
Ġ13 43
up ent
Ġ19 75
15 81
gl ut
oc olitis
78 061
Ġhyper nat
45 02
Ġsu sp
54 42
Ġtr usopt
100 6
pon i
benz ocaine
Ġpr iapis
Ġpar aly
Ġ172 04
83 104
Ġdiff use
Ġbd y
Ġdt p
924 3
Ġtend erness
612 12
topen ic
Ġrob axin
bio tin
Ġincid ents
Ġacromiocl avic
Ġdifl ucan
tam iflu
Ġpriapis m
2 17
6 53
e asy
f em
l s
v iaz
Ġp osterior
Ġs antyl
Ġd ens
al us
Ġin teg
et oh
el ara
02 11
Ġ11 54
uc odyl
25 461
Ġacid oph
Ġnon powered
Ġsu spected
un ithroid
hydro x
ig are
Ġpoly myxin
fl ush
cal an
Ġglycol ax
amm agard
Ġthromb ophlebitis
van cocin
Ġpancre atic
70 11
796 51
Ġtend initis
Ġenter ocolitis
Ġbase ball
Ġcoc cyx
172 10
605 12
Ġstar ch
Ġadm ission
Ġdislo cat
Ġcop axone
ephal us
Ġhypernat remia
3 43
4 789
5 56
5 272
b un
k cl
s uc
Ġb p
Ġt y
is c
10 51
Ġan oro
ac lot
Ġn ight
uc ynt
Ġam s
19 52
29 60
Ġco stimulation
oc ate
cl ar
57 28
Ġfall s
itr al
Ġtest im
Ġlevo bun
Ġsp ond
Ġ119 65
Ġhydroc ephalus
Ġhem oper
car nitine
Ġ149 7
67 2
Ġpen ic
86 89
Ġform oterol
82 101
812 01
dep end
Ġlin aclot
847 1
845 10
Ġsupp ort
Ġniacin amide
Ġuter i
525 72
sal onpas
Ġpas ngr
Ġachiev e
Ġtol naftate
Ġamput at
Ġzy g
imet idine
Ġproct osol
Ġ18112 598
infl m
Ġ196100 16
ucynt a
Ġlevobun olol
Ġlinaclot ide
2 231
5 441
7 50
8 791
9 29
a pidra
p rist
v ap
x e
Ġp na
res to
Ġb ar
00 80
Ġc igare
Ġad ap
Ġh urts
an umet
Ġfol lic
en na
Ġag g
02 81
Ġst elara
25 002
est ran
20 12
Ġth ickening
49 88
Ġsk l
89 30
Ġj anumet
Ġz aditor
Ġob esity
oqu inol
ras h
83 20
Ġinc r
197 2
459 81
Ġnex planon
95 04
824 32
Ġstool s
pyrid oxine
tt es
dextr ometh
Ġsust enna
Ġgre ater
Ġfoc alin
via ctiv
tom el
Ġeptifib atide
Ġinv ok
Ġzyg omatic
Ġcigare ttes
6 52
d tap
f all
n as
p ap
s ion
s oline
Ġh o
Ġ16 124
Ġn epro
78 29
58 55
ex tra
46 31
Ġmon one
Ġem p
asc orbic
Ġmy fortic
Ġpalp s
719 42
dec adron
Ġnor gestrel
94 78
303 01
845 6
813 99
sh ot
525 92
Ġcarboxymethyl cell
Ġmast itis
Ġent resto
lot emax
443 09
Ġgun shot
Ġseven th
by etta
treat ment
Ġgol imumab
prist iq
7 45
8 06
9 383
b rom
b aker
c ir
Ġw ork
Ġa pidra
th ickening
Ġdi aph
Ġc imetidine
Ġ- .
Ġh ered
Ġg aviscon
04 89
if f
Ġ19 42
15 39
78 30
Ġ111 7
Ġhem othorax
ins ic
Ġcomplic ating
Ġeff ient
428 3
Ġmu ch
men orrhea
409 01
796 42
with out
Ġbur st
400 12
923 10
Ġdys menorrhea
Ġpow der
Ġchem o
Ġfr uit
Ġ11965 254
dextrometh o
cir ca
% -
5 34
6 54
6 092
8 66
o iet
r rh
in vanz
on az
er of
st ric
Ġc ry
Ġm ek
Ġin take
low er
Ġ16 22
Ġ18 44
Ġ10 22
11 52
Ġg on
op oiet
Ġam b
Ġcomb ins
act igall
Ġnon rheumatic
me gace
au gm
Ġtr olamine
89 82
Ġhem rrh
ath er
cup ril
val ve
Ġfibrom atosis
Ġbre o
112 3
Ġenter ostomy
Ġday s
Ġtib ial
602 21
Ġ1026 4646
616 10
Ġiod oquinol
ocon stric
Ġincr use
Ġinvok ana
augm entin
Ġhemrrh oid
8 782
9 194
a a
b iol
f in
g ay
t il
as percreme
Ġb arth
Ġv el
ion ex
Ġ14 029
02 82
Ġu rox
Ġ11 52
Ġ19 62
Ġdis l
22 089
ta vera
Ġr u
Ġsup r
78 49
Ġdermat o
79 06
int el
Ġle aking
Ġz ostavax
sim vastatin
non therm
Ġro se
Ġhip s
Ġfin acea
Ġny st
Ġorganism s
96 2
Ġsore throat
lid ocream
Ġmyelo id
Ġlock flush
Ġpolyc y
vas oconstric
8289 8
Ġantepart um
Ġretro per
Ġthyrotox ic
Ġ195286 17
Ġ16124 481
Ġurox atral
nontherm al
6 89
8 250
a uc
i atus
n ar
p sis
w rist
Ġs acral
ed ex
ent an
Ġo ptic
em la
Ġm itral
Ġres tor
ar vy
Ġv y
Ġn imod
Ġn izoral
Ġ12 468
Ġar gin
Ġcompl x
15 88
Ġx y
te gra
100 2
Ġ117 7
Ġ123 37
Ġbi kt
Ġhyp om
Ġangio pathy
rol ene
Ġphen ol
mo v
Ġlac erat
69 82
Ġde brox
Ġhypot ens
rot um
927 3
259 1
807 2
Ġmc p
614 9
358 00
cort ifoam
afen ib
Ġ1689 3819
818 11
Ġcc r
Ġgre en
Ġcorp us
Ġbarth olin
iatus s
Ġnimod ipine
Ġbikt arvy
0 12
5 126
8 781
c rom
c illin
c umin
c etaphil
Ġp ass
Ġa id
Ġs vt
Ġ2 40
pi ration
per io
ag ing
mit ate
Ġg ain
03 031
am amide
Ġ17 52
Ġ19 82
Ġen ablex
Ġcomb os
Ġcalc itrate
78 08
dia bet
all er
79 44
Ġprost atitis
Ġdex edrine
786 8
Ġinfec ted
Ġmod ifier
Ġgastro crom
ard ium
mo zyme
Ġ159 738
Ġpal mitate
85 40
Ġthromb opoiet
adv ocate
lid in
Ġsc rotum
Ġremo ver
924 00
Ġcyst ostomy
Ġtrans mit
202 19
814 1
469 11
519 9
alco h
Ġprem ature
Ġtrem ors
832 09
Ġmag ox
Ġatrio vent
Ġintr insic
cob amamide
Ġappl icable
Ġnonrupt ured
smo othe
Ġnaf cillin
Ġ15229 574
Ġ13475 033
Ġsor afenib
Ġrestor il
mov iprep
Ġthrombopoiet in
3 44
5 44
5 001
9 25
b ic
e ze
f sh
m ol
s up
s af
x erof
in vega
ic y
Ġd x
ast om
Ġac iphex
os ul
Ġ13 32
Ġ15 32
Ġ19 22
Ġ19 78
Ġen thes
25 013
30 11
ir is
ox ac
Ġglu cos
48 89
57 92
au d
Ġmusc ulo
Ġim aging
Ġheal ing
99 75
Ġultra fine
Ġey es
179 83
427 0
Ġ174 47
Ġman ag
459 89
414 4
Ġbio tene
Ġintra hep
612 15
acetamin op
sk eletal
Ġthrombocy topenic
Ġglut amine
Ġ1229 8456
Ġfoc al
Ġfit ting
Ġhemoper itoneum
onaz orb
Ġdermato phy
lidin ium
Ġmusculo skeletal
6 24
6 37
6 991
m i
n ul
t ar
t onic
ic alc
od ex
00 01
Ġd ulera
Ġc yp
Ġre le
Ġo ce
Ġf iss
en ish
en ablex
Ġant inflammatory
Ġn itrolingual
Ġg an
05 12
Ġtri brom
Ġ22 9
Ġal prost
15 19
gu loid
14 20
phen e
43 10
ib u
Ġ105 78
Ġ119 7
Ġrepl enish
Ġcont us
ycl ist
asm anex
su d
col l
Ġ163 58
Ġpar icalc
aph ris
72 14
Ġpy ogen
612 17
Ġprol apse
Ġfrequ ent
304 00
fiber con
Ġcram ps
Ġ1910 6010
646 63
Ġtrnsp hal
Ġscab ies
pet ro
row ing
Ġdim ethicone
Ġile us
Ġargin ine
Ġmanag ement
Ġrele as
Ġoce an
Ġfiss ure
Ġalprost adil
Ġreplenish er
Ġparicalc itol
2 119
b id
f ro
g olytely
m atic
Ġ um
Ġa ft
ol ax
th an
the ra
Ġb oniva
em inal
Ġf ell
Ġ10 52
Ġ12 32
ly ase
Ġy asmin
ch ym
Ġ22 7
Ġ19 32
hy pro
il med
Ġbl eph
but ol
Ġhe av
33 50
Ġ128 7
ak in
89 91
fl intstones
ub icin
Ġro zerem
Ġ168 09
Ġbic yclist
Ġ177 162
85 32
70 12
dex t
796 52
Ġing rowing
923 21
828 31
Ġhalluc in
Ġcan asa
635 02
Ġclean s
do wn
Ġhor se
Ġbioflavon oid
zent ry
Ġtrig eminal
hydrox ylase
auc oma
Ġ159738 05
than um
Ġ177162 10
6 17
f lor
h s
i se
j eo
p str
p ace
r oderm
r tn
u xan
od c
st rat
Ġc ort
Ġm i
an z
Ġv ite
Ġan arth
ro caltrol
Ġ18 42
ac iphex
12 100
08 16
ef t
Ġar formoterol
18 09
Ġlan thanum
Ġor nithine
ne utral
agnes emia
Ġ116 7
Ġ127 7
Ġ127 60212
Ġle ak
Ġtra y
Ġ137 7
med icin
Ġvas otec
Ġz iagen
Ġz ometa
Ġpoly neuropathy
786 0
99 16
mo ving
Ġmono ject
rit uxan
Ġstr nous
Ġde ath
rex rtn
Ġpar xy
Ġse b
Ġ179 03
92 232
Ġov rexrtn
Ġdo e
Ġdec arboxylase
828 32
2689 9
Ġmac rodantin
Ġmc i
219 2
Ġneuro genic
783 21
386 11
Ġrh inocort
Ġfer rex
cher atussin
Ġ10459 551
conv ert
intel lix
strat tera
Ġanarth ria
Ġparxy smal
9 11
h om
h and
o z
Ġ orsythia
00 12
Ġc it
Ġt elm
Ġm epron
ord il
is artan
en ic
Ġl ib
Ġl arynx
Ġic aps
co q
os ource
12 10
12 59
Ġn ip
Ġg ing
09 20
am butol
Ġst ing
18 89
Ġch romium
26 45
Ġsal mon
Ġcar til
Ġr y
Ġrel pax
56 01
Ġflu vastatin
ram une
art if
Ġcy stic
Ġdy st
Ġ139 7
Ġurin ation
Ġcor ros
Ġ? ,
az as
Ġet co
Ġlac er
ov id
Ġdig it
pept idase
Ġeth ambutol
83 101
Ġdehydro peptidase
Ġec chym
ob esity
athi es
788 30
924 21
824 6
828 41
996 42
832 01
Ġmot or
727 51
615 12
204 10
Ġil iac
Ġpath ological
viv elle
zar re
Ġ1992 1471
Ġful l
nexa var
Ġextr m
Ġsusp ension
Ġvy torin
Ġhypom agnesemia
Ġreleas ing
Ġtelm isartan
Ġcartil age
8 79
b ite
f idine
g aly
k ast
l eft
m v
p ovid
t iet
y tel
z er
Ġw elchol
Ġp aste
th b
ed arone
Ġt ine
Ġt ou
ul fidine
min ipress
Ġv alcyte
Ġv oice
en care
Ġac hil
Ġ16 675
Ġ18 22
ac r
ac en
Ġn ev
Ġn uvigil
11 90
ant age
Ġu an
il ube
19 09
19 76
Ġlo trimin
22 09
lu kast
oc arditis
ir lukast
af irlukast
47 52
Ġsh unt
ost asis
ano phen
88 42
Ġbi zarre
Ġz afirlukast
Ġnic orette
Ġest er
97 02
Ġ186 558
65 20
Ġ182 03
Ġdron edarone
Ġadv antage
Ġandrogen ic
ach es
824 2
805 6
Ġvi ii
828 51
424 0
357 68
prop an
ket ostix
iq a
Ġvaric ose
xx d
834 02
Ġhic cough
Ġmonone uritis
vasoconstric tor
nul ytel
Ġ16358 341
tiet ze
Ġtine a
Ġtou jeo
Ġachil les
nulytel y
4 260
6 78
a zodone
d an
o g
y ram
Ġp im
Ġp rom
on yl
lo tinib
no p
Ġh v
Ġh exa
an astom
Ġin otro
10 42
Ġadminist ration
ec rin
ec lidinium
Ġta pent
11 43
Ġg sw
03 00
op el
ot ene
Ġch in
15 52
29 06
29 88
eta iris
Ġser um
47 00
Ġsh ake
57 33
33 14
Ġnic oderm
az ilect
87 00
chol ec
Ġtria zole
Ġtors ion
Ġ* ,
Ġer lotinib
Ġuncl ear
77 74
yn ic
96 02
Ġeth acr
Ġpyrid ium
628 5
500 4
Ġgro ss
Ġtrans m
707 14
nic otrol
Ġdisop yram
des itin
Ġret ained
mal ig
Ġ11648 387
diabet es
Ġdermatophy tosis
Ġum eclidinium
Ġhexa vitamin
Ġinotro pes
Ġtapent adol
Ġethacr ynic
Ġdisopyram ide
3 2591
6 55
7 101
7 062
7 235
7 581
8 000
9 032
9 031
d oxylamine
e um
j en
l ial
t em
00 131
st er
Ġdi men
Ġre no
Ġm orb
Ġh ouse
Ġin tegra
ec rol
pl ast
ant ig
am en
Ġ17 32
Ġdis rd
oc al
ris entan
Ġph ase
Ġchlor ine
Ġ104 27
88 43
ess a
med roxyprogest
Ġhyp ostasis
hydr inate
Ġmethyl dopa
Ġleg s
68 50
Ġ159 35768
sim poni
Ġcyclo phosph
Ġul ipr
509 19
Ġestro g
76 32
959 19
418 6
Ġfe osol
63 492
aryng eal
Ġmiscell an
589 8
814 9
Ġdel ta
tran sf
lut s
032 13
Ġprem pro
Ġcroh ns
Ġnov ofine
498 49
Ġperic ardium
Ġ1800 1923
mic onazole
contin uous
Ġlab or
fi rearm
Ġrid er
chil ls
Ġendothe lial
Ġroll ator
Ġborder line
Ġfast clix
Ġrev limid
neph ron
vap or
Ġamb risentan
Ġxy zal
sud afed
Ġpim ecrol
Ġdimen hydrinate
Ġmorb id
antig as
Ġcyclophosph amide
Ġulipr istal
Ġpimecrol imus
4 289
4 020
8 22
8 088
c ia
c ubicin
d iaz
g leevec
z or
lo estrin
ent acapone
ul fi
id ra
Ġan x
Ġmed rol
Ġl ec
amin ophen
12 38
12 600
11 31
11 32
ph con
ite k
25 040
17 85
Ġdis ulfi
Ġr unn
Ġk er
35 01
57 79
54 32
qu et
Ġinf x
alm ose
Ġ138 7
int o
89 92
ian al
Ġper ianal
Ġmod e
ard s
Ġ156 49
Ġpen ciclovir
Ġest ring
to b
250 12
ring ent
ment s
Ġse asonique
ace ous
82 142
Ġfe ed
syn cope
dex com
Ġsubst ances
94 13
186 51
828 38
Ġlute al
025 11
307 2
Ġrh initis
pt ine
Ġmuc us
comfort able
prem pro
Ġosteo arth
Ġret inal
Ġsex l
Ġemp ty
Ġnyst op
Ġ12337 553
xerof orm
Ġintrahep atic
Ġseb aceous
Ġtransm iss
aminophen ol
Ġdisulfi ram
almose ptine
3 441
7 002
9 352
b leed
d ucodyl
k ayexalate
l astic
n ase
w itch
Ġp tosis
ic inal
Ġa lot
ol essa
al away
Ġo ph
an ing
Ġ16 32
Ġ18 92
Ġ13 52
Ġ15 589
Ġ11 32
Ġtri p
Ġch f
31 12
Ġcar cin
78 451
ren cia
ith in
58 30
39 91
46 812
ht ub
41 10
glyc olax
79 05
osp asm
Ġhep at
med icinal
Ġfib r
sen g
Ġem bl
Ġtre e
77 43
Ġbre eze
inf ect
Ġ175 17983
85 04
acc ident
den avir
Ġcereb ro
Ġps or
Ġdor nase
ger id
805 01
Ġintrac aps
Ġerythromycin s
vad ene
ben ign
hes ive
brief s
024 11
825 94
023 44
602 22
them ia
832 02
ket ones
Ġbat htub
asp inal
acta zide
Ġrot ator
Ġ12468 016
cholec alciferol
Ġlec ithin
Ġrunn ing
Ġembl sm
Ġintracaps ular
8 200
a e
h p
l etairis
Ġw ell
od ar
per i
Ġno rel
Ġf ing
Ġf rost
Ġf elb
an s
sp ar
amin ated
os an
Ġn ef
06 03
Ġst iff
Ġnon verbal
Ġr ol
78 22
ou ble
Ġ112 7
Ġ106 99
Ġangio edema
Ġcont ain
Ġcont aminated
benz diaz
Ġtransf usion
Ġ147 7
Ġaz ilect
Ġ164 49849
Ġ& ,
427 9
85 598
sul fate
276 69
Ġcarbam ates
Ġger i
Ġ195 38
Ġlex iva
selt zer
de senex
Ġletharg ic
208 5
prop ecia
Ġintr aspinal
Ġpath ologic
Ġdur agesic
tar ceva
Ġ17903 094
povid on
propan olol
Ġnorel gest
Ġfrost bite
Ġnef azodone
6 30
8 57
f ole
g um
n k
n ash
n ucynta
s and
y lo
Ġb irth
00 82
00 73
Ġc ampral
pi lex
atu r
an ib
id ocycl
10 87
ep atitis
Ġ16 557
Ġl atex
Ġta zar
Ġu rose
Ġpre diabetes
Ġas piration
Ġ17 729
Ġst d
Ġst eat
Ġal afen
Ġthera pe
Ġcar pal
Ġnon alcoh
ortic al
47 76
me pilex
32 029
bal ance
88 21
Ġ135 45
Ġwe ather
Ġpoly sulfate
Ġnitro gen
87 57
Ġel ite
oh epatitis
otri ent
eptic s
Ġperipheral ly
Ġ178 00
Ġir idocycl
93 08
Ġirrit ation
569 89
Ġtransp arent
805 07
612 2
325 8
und er
609 1
Ġpent osan
033 17
Ġclear ance
Ġtric yclic
Ġ1604 0005
Ġech inacea
cath flo
Ġenthes opathy
Ġcleans ers
Ġ186558 30
Ġfeed ing
fole y
Ġtazar otene
Ġurose psis
Ġsteat ohepatitis
Ġtherape utic
Ġnonalcoh olic
Ġiridocycl itis
6 33
8 352
9 45
b ing
c ul
d ure
g ammagard
i ud
m ang
Ġ \
as ms
at me
Ġs a
Ġs x
00 86
Ġc all
ast epro
ar s
Ġan alg
ep hy
Ġ100 7
ad circa
pl ac
Ġinhib tr
Ġ14 799
04 19
ly te
ativ es
15 09
14 81
28 78
Ġsal ping
56 50
36 38
qu al
un ifine
isp orin
ulo sis
79 029
Ġ129 7
ian vi
Ġj antoven
Ġz ithromax
Ġ143 18651
av a
Ġfoot ball
Ġ167 7
Ġep olamine
Ġ189 02344
Ġir regular
414 01
mon o
Ġmu st
mult aq
osmol ite
845 09
612 14
ferrous ul
024 01
525 01
mic onazorb
5259 1
Ġ1828 4271
dial y
Ġunw ell
elm iron
Ġsex ual
lam isil
fem ara
Ġfollic ular
Ġglucos am
anz el
Ġuan ble
atme al
ephy ton
8 5011
b race
b ee
d t
f ol
s an
z z
as lo
as ome
Ġp seud
ic odone
00 32
00 70
Ġc osm
Ġc reat
or min
Ġo vul
id ipine
hi gh
Ġ16 479
mit t
Ġ10 119
Ġn atal
Ġn atur
Ġ13 786
ur so
Ġas perdrink
Ġ17 123
Ġam aryl
ot ion
Ġmar k
Ġi ph
atin ic
27 542
ort ress
Ġk erat
57 31
Ġ108 7
Ġ104 39
Ġ114 43
Ġ107 7
na il
fl ector
cur cumin
az ulfidine
Ġ164 39
Ġ176 39
97 01
Ġprote asome
den itis
72 091
612 16
813 44
hem atinic
Ġquin ine
pul mozyme
138 03
455 15
teg aderm
Ġpic ol
Ġmot ion
Ġ1546 4144
Ġ1155 3072
petrol eum
dig itek
pancre aze
cep acol
Ġtuberos ity
Ġ16675 371
Ġmust ards
dialy vite
aslo dex
Ġcosm etic
Ġovul ation
3 55
5 002
9 687
d ry
d hea
h lor
i rium
l c
m is
p ut
y sis
Ġp ck
ati d
Ġa erol
Ġs et
lo idal
nt c
od g
Ġc amila
Ġre ason
ul e
se s
se y
Ġf es
ar ava
Ġh idra
10 41
ia b
Ġl uter
Ġ18 019
01 10
Ġg yn
Ġ14 289
02 74
Ġ17 22
Ġpro vera
Ġ23 1
hyper tonic
78 19
56 52
32 29
37 992
43 11
43 22
un cle
Ġsk n
Ġ124 06
79 18
Ġim plnt
Ġ140 126
hyp ntc
66 03
729 82
76 34
Ġinter mitt
Ġsev ert
red uc
Ġinfar ct
Ġbronch ospasm
Ġpy ogenic
dic hlor
813 01
vis c
625 8
Ġimmun ization
278 01
Ġtam iflu
Ġgent le
flex all
acet yl
Ġsm all
7200 1
438 09
Ġbal anced
Ġrac ing
Ġmob ic
antid iab
Ġ10714 009
oter odine
perio cul
Ġ10578 325
Ġlib rax
Ġnatur ale
Ġpicol inate
Ġaerol izer
Ġfes oterodine
Ġhidra denitis
Ġluter a
periocul r
2 000
5 50
c ulin
d ovonex
s leep
t uber
as in
Ġp ri
lo trisone
it er
Ġc lev
Ġres ting
es n
et rium
Ġac q
Ġ18 84
Ġ100 27
Ġ10 189
Ġis ot
01 80
Ġ14 52
06 75
04 47
am pren
yl c
Ġst apl
ab utin
15 10
30 10
im planon
26 33
22 01
ck ey
78 052
af em
coc c
49 91
48 00
37 311
air y
Ġhydroc ele
orb ate
compl ic
Ġgl aucoma
Ġhem i
Ġ147 29
chlor ite
Ġ158 69
Ġhypo chlorite
Ġ167 15
Ġintox icated
Ġgu ide
Ġrif abutin
Ġ186 18
812 09
70 10
93 09
029 1
102 30
oph n
bis colax
Ġchemic al
796 44
838 9
600 00
Ġref using
Ġincontin ent
785 50
Ġtub ing
nor co
fic ial
Ġdel irium
Ġbu il
ange al
807 04
126 37
hr rea
bro vana
Ġ1878 4631
864 05
Ġgin seng
pancre lipase
Ġliqu i
Ġstation ary
Ġho ckey
Ġdiaph rag
Ġ16809 525
mono ject
dichlor al
tuber culin
Ġclev idipine
ampren avir
4 373
f ilm
i ence
i phene
k ionex
n ol
t c
Ġp azop
in ulin
Ġd as
st oma
Ġt ik
Ġo atmeal
iv asc
Ġin complete
Ġv t
et te
et igo
Ġ18 305
Ġ5 30
Ġ10 289
01 00
08 881
02 414
yl itis
Ġst a
Ġst able
Ġal ve
Ġlo x
28 84
26 39
ax olol
31 10
ox azepine
cop ene
ne uro
Ġopioid s
coc cyx
Ġk ariva
tens ion
35 48
51 00
di gest
Ġcon ven
Ġ118 88
88 80
Ġ138 13803
Ġ136 7
olar ization
chlor pheniramine
cal ator
Ġ153 25
67 03
Ġswell ng
Ġdef ect
Ġher bal
Ġes calator
Ġ168 26
86 121
Ġgu iatuss
Ġcardio genic
Ġdu oden
Ġdev elop
nit ive
Ġly copene
Ġ188 38
Ġbet axolol
73 390
93 10
Ġ196 23
922 2
Ġ197 67
824 11
805 06
lant a
Ġrep ort
___ .
Ġfos amprenavir
Ġmem b
Ġcerv ix
024 12
Ġprol ia
elo con
014 12
Ġaqu aphor
lan olin
Ġforte o
Ġmach ine
Ġmandi b
Ġcog nitive
Ġimp etigo
Ġsynov itis
Ġclom iphene
Ġproblem s
Ġhic cup
Ġdibenz oxazepine
Ġ17204 468
Ġhypotens ive
Ġpass ed
coll agen
hom atropine
Ġisot retinoin
Ġstapl es
cocc us
Ġbuil ding
Ġpazop anib
Ġtik osyn
Ġconven ience
7 460
8 509
d av
g eva
o piates
p etic
z ortress
in ine
Ġs ax
od ial
Ġd ovonex
Ġm tor
Ġtem p
Ġad renoc
id ovudine
Ġv an
Ġan k
ac and
02 214
04 18
am idine
op rofen
Ġun ithroid
py ra
Ġ19 84
pir agen
27 90
alo t
oc ript
59 95
56 02
55 31
Ġantip sych
ram amine
Ġsk i
88 31
Ġ126 48
79 21
Ġfuro ate
ak ene
Ġle af
Ġz idovudine
Ġhem odial
vent r
ard is
Ġ155 24
Ġvomit ting
tab s
sc re
itin ib
Ġhip rex
cer v
724 1
77 47
Ġmis sed
92 28
Ġinc dt
Ġ185 56
Ġ184 46
73 027
vit d
dex edrine
80 101
74 08
74 37
bl m
Ġcr blm
Ġpenicillin s
nia cin
de ep
518 11
my soline
Ġmem ory
elid el
614 51
024 02
tri phrocaps
7967 4
Ġaneury m
Ġpent amidine
Ġca used
Ġev ening
Ġnod ule
Ġ1435 1952
Ġsupra ventr
bio tene
Ġritu xan
Ġproct ozone
448 84
Ġsoc ial
Ġbrom ocript
glut amine
Ġsupr ficial
Ġtransmit ter
transf er
Ġanalg es
esn ap
stoma hesive
Ġhiccup s
Ġhemodial ysis
Ġbromocript ine
4 50
6 084
7 300
9 150
m uro
m anex
r id
v otrient
x ia
Ġ it
lo s
00 48
Ġd ouble
it ears
ress ive
Ġc aff
al ene
ast ringent
et on
Ġan p
ate ars
12 31
12 76
Ġg inger
Ġ14 32
03 92
ef sey
ml t
Ġ11 42
Ġas manex
Ġ19 72
Ġal s
hy zaar
Ġen ulose
il ast
il et
17 13
28 66
26 09
Ġbenz athi
49 81
ost eo
54 01
un isom
bal anced
Ġ108 24
Ġri lu
Ġ133 23
Ġang le
ect in
benz one
Ġ148 7
trim eton
90 10
Ġ159 7
69 64
Ġmy elop
Ġod efsey
Ġdepress ed
959 6
719 49
85 42
Ġcer amides
Ġ186 14
Ġnifed iac
812 21
300 9
75 44
93 14
93 31
845 19
pat aday
6489 4
469 12
7967 5
Ġfi rearm
Ġquin idine
Ġ1256 3258
Ġ1511 4531
Ġrup t
Ġjt s
Ġchel ating
fer osul
Ġsequel s
ave eno
Ġsun scre
Ġsom nol
Ġparaly tic
Ġadap alene
Ġhered itary
Ġosteoarth ros
Ġpsor iasis
Ġfelb amate
Ġ140126 09
Ġbenzathi azoles
3 32
6 019
7 102
9 82
b ard
f iorinal
g ron
g au
r ite
w ear
y x
on i
res p
00 16
Ġc ast
Ġm ira
Ġf rag
es rd
ere nt
ar v
an alg
ist at
Ġ18 179
Ġ18 136
co tic
mit y
12 500
Ġ10 109
Ġn ac
Ġ12 489
03 79
05 11
04 25
04 72
Ġ11 129
Ġol ig
ch on
18 31
Ġch erry
15 82
ther atears
31 00
oc ode
oc yst
59 780
Ġcl aud
47 22
57 400
43 014
Ġflu razepam
34 04
Ġ110 7
Ġsp asms
Ġ118 18
Ġ138 33
89 11
erg on
ycl ines
Ġphosph a
Ġ156 77
Ġferrous ul
68 111
Ġdet ach
76 89
92 09
iod oph
84 38
Ġ183 39
dr iv
Ġrem is
bl ack
796 22
796 45
785 59
Ġath let
Ġdilu ents
536 40
Ġoccl s
Ġaut ocode
itu tion
024 13
Ġ1305 0816
Ġinterphal angeal
Ġunder wear
be gron
antid epress
Ġ180017 62
Ġnight time
Ġcry selle
Ġbleph ar
Ġnip ple
zor ac
Ġ10027 100
Ġanalges c
Ġcaff eine
gau ze
Ġmira begron
Ġolig uria
iodoph ores
4 32
6 121
7 099
9 293
9 198
b etic
c ortisone
c ipr
d et
h ear
m an
m id
m ental
m ephyton
v est
w el
in ide
Ġa phth
ation al
Ġc imzia
Ġt ens
or mity
Ġo rencia
Ġm atern
Ġf iorinal
Ġpain s
Ġad nexa
Ġl aryngitis
ate gl
12 07
Ġn ategl
Ġ12 52
Ġ12 789
08 45
05 91
Ġ11 456
Ġun comfortable
Ġmar avi
ab normal
arg inine
23 41
alo se
li ef
Ġcalc io
Ġnon dis
Ġab sc
Ġhyper ventil
45 54
Ġne ilmed
56 20
36 51
35 58
57 39
di astat
ht n
qu va
Ġ110 12637
pro guan
pro par
Ġtr intellix
Ġib r
79 48
Ġangio plast
Ġsol itary
Ġqu estran
789 30
786 9
Ġ158 53
Ġ159 04
Ġem ul
to viaz
Ġgluc an
calc in
Ġ169 24
Ġer cp
lev sin
Ġ178 05
97 43
roc ream
Ġ189 29
rist alose
73 47
Ġpy loric
rop yl
824 0
338 3
625 3
728 71
828 52
707 19
823 02
aren ess
Ġmyelo dysp
Ġaqu acel
Ġ1623 5004
Ġvar ices
611 71
rev atio
Ġpt c
442 09
Ġsurg ilube
Ġ1702 84
avi lyte
plac ed
antidepress nt
Ġaphth ae
Ġnategl inide
Ġmaravi roc
Ġnondis placed
proguan il
Ġangioplast y
Ġmyelodysp lastic
/ ?
6 235
9 55
? .
c rit
f id
i red
p os
s ide
v u
w om
Ġd risdol
Ġf ab
Ġh arv
Ġac qu
Ġl ar
Ġl ap
Ġ18 056
Ġis ordil
01 60
06 82
ant isp
op con
18 90
19 19
Ġlo be
alc ion
28 45
27 541
29 95
26 71
ut on
ev encare
Ġhydro active
58 81
56 07
47 79
57 38
57 62
51 10
lor nithine
37 47
43 015
44 36
54 17
Ġ105 05
Ġ127 12
Ġ135 03
89 51
Ġ137 14
Ġ144 12
Ġleg al
Ġ155 28
Ġglyc inate
hyp not
non traumatic
Ġdef ormity
Ġdep r
Ġleuk orrhea
729 2
129 3
Ġ178 223
418 3
iness a
Ġear ache
aqu acel
Ġgra pe
80 120
Ġnoninf ect
828 42
823 3
lum a
Ġef lornithine
Ġ1500 2645
155 78
635 01
Ġ1138 9314
hydroc odone
Ġclean sing
Ġgo iter
Ġacromiocl avicular
liqu e
Ġepid ural
Ġpolycy stic
Ġdyst onia
azas an
Ġ16557 374
Ġnatal izumab
Ġlox apine
Ġharv oni
Ġacqu ired
antisp as
3 22
7 469
8 794
g avilyte
m nt
o king
s abri
v o
z emplar
Ġp g
in oc
the nes
Ġd ried
Ġdi ac
al ight
Ġt ec
Ġv lt
om ist
Ġ16 179
co py
11 81
ph ere
Ġ13 299
Ġ13 0310
07 88
Ġ17 724
Ġun isom
Ġhy zaar
25 89
yc el
15 60
Ġred i
16 87
Ġ23 8
78 48
vul us
vast in
Ġmin ipress
49 92
dia beta
46 63
Ġlev sin
Ġlev ora
Ġelec tric
35 32
37 168
Ġ116 197
ter b
Ġ129 45
for omist
Ġra d
Ġ145 38
Ġ152 14
neb upent
yn odiol
ty sabri
Ġeth ynodiol
459 1
73 36
Ġ193 03
Ġ193 24
Ġsc rat
men in
Ġdes og
Ġvi ramune
xan thenes
Ġlymph ocy
hr m
Ġgau cher
derm a
376 01
mel atonin
fos renol
Ġvol vulus
Ġaw areness
test opel
808 12
Ġthio xanthenes
Ġepid erm
Ġaft cr
Ġrilu zole
Ġ18136 887
fid era
Ġ178223 70
Ġtec fidera
5 283
6 31
6 389
6 992
7 048
7 122
8 1012
b lue
c ere
i ly
k it
m uc
m ox
m orphone
m osis
n iaspan
o statin
s itu
t pn
u et
w ist
z anaflex
Ġa ury
Ġb le
it retin
Ġo piates
Ġm estinon
Ġad melog
Ġh n
Ġin ulin
is osource
ist ik
en se
Ġac itretin
Ġl ft
ad enitis
ac cupril
Ġn g
Ġn as
Ġ12 089
05 011
09 04
04 81
ant ip
Ġ15 52
Ġtri quet
ot wist
14 90
14 84
Ġfem ara
26 23
26 32
ap sed
Ġr ub
Ġmult aq
39 82
dia betic
48 54
Ġsh ot
57 21
Ġ110 79
Ġ118 77
Ġ112 76
Ġ116 19
Ġ126 04
Ġ126 58
Ġ114 13
Ġ136 15
Ġ137 18
Ġ139 17
Ġ144 39
789 9
Ġper it
Ġob lique
Ġ156 16
68 51
beta pace
87 200
orr h
Ġul c
Ġhypo kit
cer ave
77 71
305 5
Ġoxy morphone
82 120
418 1
aph osol
clo zaril
Ġ186 56
Ġir rig
red ness
kin in
van iqa
64 083
Ġarter itis
927 9
Ġtis s
Ġlin agliptin
Ġvertebra e
Ġapp arent
Ġapp ears
nov otwist
518 1
923 51
Ġhour s
ben azine
339 20
Ġlymph edema
hem e
488 17
era heme
Ġton sil
444 22
853 01
etra ck
congest ive
Ġ1600 7214
Ġ1504 8951
senex on
vy torin
Ġful vest
Ġtru etrack
Ġviv elle
Ġtro chanteric
Ġgan gl
Ġging iv
Ġcreat ine
Ġ12406 461
Ġdiaphrag matic
Ġvt ach
Ġhyperventil ation
terb inafine
Ġepiderm al
situ ational
Ġaury xia
Ġapparent ly
Ġfulvest rant
3 080
6 42
9 589
e u
f aslodex
n et
n ort
p ant
v eh
as eptic
Ġp sychotic
Ġp seudo
00 93
er atussin
Ġblood y
Ġt ip
Ġm ep
Ġh ectorol
Ġv oid
ri ght
pl asia
01 49
03 84
05 90
Ġst ra
Ġch eratussin
Ġlo trisone
Ġe qu
Ġ23 3
oc ella
50 12
Ġpl acement
78 85
Ġhyper plasia
45 55
45 52
45 88
45 90
39 12
39 49
46 02
43 02
43 23
43 401
41 12
Ġ118 757
Ġ57 5
Ġ112 43
Ġ109 12
Ġ117 14
Ġ136 08
sel zentry
Ġ137 636
Ġj oh
gar lic
and ins
Ġgl as
na phcon
Ġ147 44884
789 2
Ġfl um
Ġ158 66
ran il
nat al
val sartan
lip sen
69 26
to piragen
phosph or
Ġ169 88
Ġ176 10
96 41
719 0
62 28
Ġ182 12
72 20
Ġconf used
ech inoc
Ġ___ /
Ġfunction s
1012 0
224 3
afin itor
015 12
unk nown
Ġgranulo ma
9967 2
Ġev ra
Ġosteomyel it
Ġax illary
depress ion
Ġ1539 2906
808 11
hydroc ortison
anec ream
Ġ1158 2633
Ġstation ry
dim ethicone
complic at
dav p
Ġski ing
Ġ18446 519
Ġblephar itis
cipr odex
crit ic
Ġ130310 24
antip sychotic
Ġequ ina
echinoc andins
6 164
7 682
8 37
b el
f am
g o
h erb
i gluc
j olessa
k ariva
p rim
p hillips
t retinoin
x geva
Ġw ord
Ġw art
th io
nt ct
od isc
Ġb ear
00 92
Ġd ha
er ine
Ġc ntct
Ġt unn
or itis
ul ed
em p
Ġthe rag
Ġv igamox
10 89
ra z
os copy
11 55
04 95
ale vo
Ġ17 289
tr id
ome galy
Ġ19 52
Ġ19 419
28 30
30 12
24 26
26 92
li ke
oc apro
Ġr uled
78 729
78 064
49 41
58 53
Ġph ot
Ġx eloda
Ġsp in
Ġ125 47
Ġ115 45
Ġim igluc
Ġ129 34
uss ide
Ġ138 77
Ġto o
com pressor
Ġ145 13
Ġ147 17
Ġnitro pr
Ġ154 26
079 6
az enil
Ġmono benzone
Ġ159 64
Ġamin ocapro
to bo
119 6
Ġren in
Ġpat aday
Ġend ocarditis
82 141
96 90
ond ritis
Ġoc cip
Ġthromb os
Ġ186 37
hil l
65 11
Ġ188 23
Ġpost inflammatory
Ġ185 08
ira pine
vit s
Ġ197 23
oph oritis
Ġ194 38
Ġ192 19
Ġav onex
873 49
nia c
Ġlymph adenitis
Ġaut odisc
Ġcau da
996 44
pros thetic
663 43
Ġzy dis
Ġ1786 04
Ġ1225 1785
otrop in
Ġcop per
Ġtetra benazine
Ġfec es
Ġnev irapine
sand immune
Ġintermitt ent
cere zyme
muc us
eu thyrox
nort rel
Ġ137636 48
Ġglas pak
Ġflum azenil
Ġtunn el
Ġtherag ran
Ġimigluc erase
Ġnitropr usside
Ġaminocapro ic
5 2100
6 262
8 51
8 580
9 300
c iclo
d ef
d airy
o pium
s ut
v igamox
y ax
y az
Ġw ort
lo d
ed ding
Ġb acter
Ġdi flu
se iz
Ġv en
is op
is oc
Ġant isoc
ro tec
Ġmed i
Ġ16 119
Ġ18 248
ac ne
ac onazole
12 18
Ġ10 595
Ġanti epl
Ġta p
ph ron
Ġ13 22
Ġ13 129
Ġ13 279
07 59
04 79
Ġ15 084
Ġ17 889
19 01
Ġwalk ed
15 41
13 69
bul bar
thm ol
45 16
45 382
58 19
36 29
37 98
Ġ110 216
Ġx olair
Ġ102 25
Ġtest ing
Ġcy tomel
Ġ108 66343
Ġ116 13
Ġ106 14
Ġ106 59
Ġ103 18
Ġ119 22
Ġ129 02
Ġ136 204
Ġ133 06
Ġz emplar
and rogen
Ġso ap
Ġspir al
Ġhypertro phic
Ġ149 97
fl ax
Ġ152 28
Ġprop yl
68 01
ct v
av il
Ġem triva
87 48
Ġmal n
69 20
Ġde senex
Ġul nar
Ġ169 579
86 02
ff erin
mb yax
Ġ187 15578
Ġbr u
Ġpost surgical
Ġ183 36
63 591
414 9
Ġdiff erent
796 21
del sym
Ġthr u
346 80
022 12
011 90
Ġster oid
707 03
hem orrh
tri ple
823 01
flu id
Ġstab bing
pt c
374 30
295 30
969 3
flex pen
Ġ1899 7544
635 12
nis al
422 11
811 00
378 34
urox atral
Ġboard ing
Ġtenosynov itis
Ġtraff ic
Ġty mp
Ġagg ressive
Ġheav iness
tem odar
Ġanx ious
tob radex
hp m
neuro kinin
hear t
Ġ170284 37
ciclo dan
Ġdiflu nisal
Ġantisoc ial
Ġantiepl ptc
+ ],
5 22
a ult
c ran
g ative
h au
h ectorol
s ult
w a
th ix
th itis
th ick
ed ecrin
the l
Ġb anophen
Ġc rash
Ġat tn
ul ane
Ġf unct
Ġv ault
om er
Ġmedic ine
Ġ18 427
Ġ18 269
um ent
ad otropin
12 52
Ġ12 119
07 36
el axin
05 27
04 10
Ġacu dial
Ġ19 786
il d
18 11
18 79
Ġlo pid
gu ard
17 36
alc rom
28 89
27 57
24 24
24 29
26 58
Ġ23 2
Ġcomb ative
bul gar
act inal
59 93
58 54
Ġne gative
46 89
55 79
Ġsp ot
Ġsk ating
Ġsk elaxin
Ġ118 26
Ġ103 03
Ġcholec ys
Ġ124 16
Ġ126 02
Ġ114 02
Ġ107 02
Ġ107 66
Ġ119 6
Ġ119 29
Ġ127 59
Ġim planon
Ġ133 13
and roderm
Ġ144 48
Ġ143 18
Ġoral balance
fl ank
Ġ156 06
Ġ153 45
Ġver bal
salicyl at
gen graf
109 6
87 72
Ġmeth icillin
cos itis
Ġlip s
Ġ165 36
77 18
Ġ179 37834
Ġ177 13
92 12
Ġsl edding
Ġ175 12
719 07
Ġcond yle
419 3
Ġ199 07
Ġ199 86
60 11
Ġ196 12
Ġmu cositis
Ġ197 13
Ġdo k
Ġap riso
itch ing
Ġactiv ated
sh ower
Ġdisplac mnt
Ġdia hrrea
852 06
Ġdro wn
429 5
Ġauto haler
Ġclear lax
Ġ1604 36
Ġ1617 7747
Ġcle ocin
dem erol
sl s
Ġthio uracil
Ġthio thix
Ġ1912 7408
348 89
Ġ1358 2085
Ġstom atitis
Ġsac ro
Ġinteg ument
suc rose
Ġhemi plegia
Ġstra ps
phosphor ous
thio uracil
Ġ110216 43
Ġpropyl thiouracil
hau st
Ġthiothix ene
. )
4 35
9 46
d x
g gan
h b
i itis
n ight
o retic
p ure
p ac
r ycel
x tra
Ġ <
in ternal
Ġs ome
al pine
Ġt ys
Ġt alus
Ġo k
Ġrec ept
se cond
min tic
Ġh unt
Ġan thel
Ġl uv
12 00
12 01
Ġ10 129
Ġ12 784
Ġinhibit r
Ġ13 269
08 97
el ess
02 48
02 69
yl in
tr n
Ġst ep
Ġun qual
Ġ19 545
Ġal tavera
15 20
23 96
alo ri
Ġ23 5
li b
lu tera
Ġco q
Ġcar mol
45 10
45 48
45 77
hal dol
49 28
ex omer
Ġbl ind
48 06
46 90
Ġsh aking
42 001
57 34
37 62
54 00
Ġsyn c
Ġsyr up
Ġcon sult
ement s
Ġex haust
Ġ128 38
Ġ127 16
olar aze
Ġto ilet
Ġ146 99
Ġ148 77
Ġ143 37
Ġhem arth
phy lo
Ġcoll apsed
Ġ152 27
Ġde aminase
250 10
Ġdep olarization
Ġ163 39
Ġ162 28
Ġ165 13
Ġse a
Ġdic arbam
489 7
179 3
Ġ178 66
92 19
ang ing
Ġsl ctv
Ġ186 13
83 50
63 491
Ġpancre lipase
adv anced
75 48
rob amate
rob axin
Ġsubst itution
methyl testosterone
Ġcad exomer
Ġmax zide
999 12
999 11
ald actazide
umet za
824 42
824 91
845 4
Ġdel ay
923 52
ben gay
325 92
Ġresid ence
826 22
826 21
005 11
388 30
Ġmandi bular
reas ing
Ġtob radex
Ġ1329 7743
Ġlot rel
Ġ1338 3991
rag alus
Ġ1189 0447
des covy
Ġroll er
gin kgo
otro phic
Ġ1797 0081
Ġast ragalus
Ġ180017 60
pd esterase
Ġten ormin
Ġgon adotropin
down hill
nop ran
Ġ10427 568
Ġstiff ness
Ġcontain ing
Ġ16479 007
Ġpri or
Ġsta phylo
Ġ15325 143
Ġemul sion
Ġlymphocy tic
Ġmep robamate
tobo ggan
Ġ169579 52
dx trn
Ġtys abri
Ġhunt ing
Ġanthel mintic
Ġluv ox
Ġunqual ified
Ġhemarth rosis
Ġdicarbam ate
toboggan ing
4 168
5 0311
6 179
8 43
8 351
9 120
9 884
9 895
c hi
c au
d ist
h orm
n u
p ump
r or
s ml
y otrophic
Ġs and
Ġs aphris
Ġb ee
00 30
Ġd ark
it abs
min s
iv ate
Ġv io
en ital
hi eld
hi mosis
ep tion
Ġ16 289
Ġ100 15
ad ate
ac lin
Ġ10 589
Ġ12 459
11 69
ph sal
08 49
Ġ14 189
05 43
02 612
Ġu e
Ġins ertion
Ġam yotrophic
Ġ19 812
hy o
Ġon etouch
25 041
18 20
17 67
17 70
16 25
13 79
28 58
24 200
29 79
23 92
pid ine
78 52
ne uritis
af ung
59 76
49 01
48 37
Ġwith in
36 039
35 43
42 11
42 002
44 00
34 00
Ġ110 98
hydro q
Ġ102 07
Ġ118 65
ement al
Ġnec rot
Ġ112 77
ib ry
Ġ128 97
Ġ126 19
Ġ119 48
Ġket oprofen
Ġ136 39
ak wa
ycl in
vir t
079 7
Ġalt ace
68 12
Ġmal ate
Ġel emental
Ġ169 49
Ġ167 59
Ġ167 36
Ġ165 14
Ġ165 33
Ġey el
andi bular
pept amen
olog y
418 7
Ġ173 25
Ġ173 36
97 78
97 79
84 020
545 1
Ġ186 79
Ġcond yl
Ġmo aning
vers ion
Ġbet ter
Ġmic afung
Ġ196 89
Ġ198 13
bl astic
600 9
emi as
Ġdes loratadine
Ġanal eptics
Ġau ra
ros int
Ġglo bal
707 8
049 00
cardio vasc
304 1
Ġauto immune
Ġproduc ing
602 11
ves co
care fine
Ġ1026 77
hydroc erin
Ġ1545 9743
301 83
205 00
Ġzov ia
sil vadene
Ġinteg rin
Ġ16715 999
Ġdas atinib
Ġsax agliptin
Ġ16924 675
Ġ18056 245
Ġirrig ants
seiz ure
second ary
Ġhunting ton
cau stic
Ġnecrot izing
ibry d
Ġmicafung in
5 1011
9 068
b ia
c aphosol
g al
g ro
l b
n c
n er
o perazine
s op
v ilant
at ane
Ġp ector
in stit
ic il
Ġb ug
00 60
00 98
Ġc re
Ġt ick
an xiety
Ġv esic
Ġ8 00
Ġ16 399
ine um
ac yclin
12 21
12 000
Ġ12 399
ph ine
el a
09 62
06 300
06 370
02 30
Ġtri flu
ur yl
Ġst av
Ġun ab
Ġam ik
Ġon gly
25 50
15 05
15 28
17 11
28 85
im ist
21 10
Ġ23 4
Ġof fic
Ġantihyper tensive
78 05
ev oxac
Ġhyper act
Ġk ayexalate
39 19
46 95
46 91
he al
Ġcl imb
36 43
42 292
57 90
32 039
37 36
qu inol
xa icin
inal is
Ġcon n
Ġ112 58
Ġ112 96
Ġ128 77
Ġ116 04900
Ġ124 15
Ġ124 26
Ġ126 55
Ġ126 77
Ġ117 56
Ġ127 00
Ġ127 04
Ġ127 26
Ġprost acyclin
Ġj unction
Ġdysp h
019 3
Ġ147 02
789 39
Ġper ineum
Ġ156 89
ithrom y
trim o
ran e
Ġem otion
zo via
66 62
Ġ163 59
Ġ165 38
Ġart if
77 23
129 5
Ġsub cond
76 38
Ġ177 67
Ġoxy t
Ġoxy quinol
Ġ172 07
Ġ173 19
Ġ174 05
Ġamox icil
97 528
85 02
ash es
part ment
Ġsens imist
329 6
Ġ188 58
Ġ188 66
Ġ188 479
Ġmo re
Ġ196 24
Ġ197 35
Ġ193 46
Ġsc an
74 01
805 08
Ġfasc iitis
Ġradi ological
Ġvi ibryd
Ġdel ayed
Ġsupp ur
288 50
pr ivate
424 8
825 24
zing iber
035 30
lan sop
434 02
815 1
Ġgel atin
acet one
Ġaff ect
715 96
Ġ1639 2878
pb a
Ġ1400 4436
Ġclob ex
Ġ1238 58
bio t
Ġil ium
xx xd
bor on
913 11
viv itrol
856 28
Ġrev atio
Ġviv itrol
dim eth
Ġbro vana
clar ithromy
fin amide
Ġru finamide
Ġecchym osis
Ġcarcin oma
Ġfing ers
Ġ14799 353
Ġsomnol ence
Ġgangl ion
Ġpseudo bulbar
Ġstaphylo coccus
pump kin
instit ut
Ġtriflu operazine
Ġamik acin
Ġongly za
Ġoffic inalis
Ġclimb ing
Ġsubcond ylar
Ġoxyquinol ine
lansop raz
. ],
2 089
7 098
9 09
9 42
9 002
9 175
i rex
n zn
t ears
z ithromax
as ar
Ġp it
on ce
od es
Ġd ul
or om
Ġm uro
per foromist
ast in
Ġsy m
Ġv ra
ist alol
ist irex
10 49
Ġant itus
Ġac he
amin o
ri b
os ing
12 24
pl ements
03 62
05 49
09 18
09 93
02 84
Ġ11 588
ab use
25 96
19 889
Ġred itabs
14 32
28 19
28 54
29 81
23 28
22 03
Ġcar trid
ir ing
ir ub
78 59
45 30
45 71
59 89
49 19
olo phine
39 88
Ġne oral
46 49
38 82
51 12
lor y
33 12
34 11
34 09
52 122
Ġ110 68
Ġcarb atrol
Ġ118 7
ano xin
ix ela
Ġ104 13
88 003
of oam
79 52
Ġ114 06
Ġ135 18
Ġ139 03530
Ġhydrox id
Ġ142 13
Ġ146 36
Ġ144 15
99 813
079 0
Ġ159 38
109 2
Ġem la
Ġel m
Ġ+ ),
119 7
66 14
flo ra
Ġ166 10
Ġ169 07
Ġ167 79
ov ate
729 6
724 00
787 4
Ġ179 59
Ġ170 118
96 561
carb atrol
Ġ174 38
Ġ186 25
83 00
onat a
Ġ189 17
ole ic
Ġbr d
039 5
Ġ183 44
Ġur inate
93 23
Ġvit ron
569 8
itrac nzn
Ġdipro p
98 52
Ġtub es
Ġagit ated
Ġmac ular
Ġinh ub
269 03
304 4
Ġsed at
918 0
307 5
823 22
816 11
468 11
Ġmyelo blastic
Ġpol istirex
Ġ1705 1420
Ġtw itching
503 12
Ġ1977 4
Ġlot emax
ultic are
Ġ1012 3949
Ġrox icodone
997 49
Ġ1897 0086
asp az
Ġbil irub
Ġbe low
bac itracnzn
rt pa
Ġcomm un
nas cobal
Ġthyrotoxic osis
edex ta
saf esnap
mis oprostol
odg kin
Ġantipsych ot
Ġ116197 14
Ġ178604 97
Ġtap azole
Ġspot ting
Ġexhaust ion
dist ention
vilant erol
asar ra
Ġvra ylar
Ġcartrid ge
Ġbilirub in
, ___.
3 289
8 54
8 1003
9 31
9 663
9 053
b t
b erb
b anzel
d on
h otic
m yn
p rin
p rome
s oma
Ġ rom
at ol
re guloid
on y
Ġa ve
the gan
Ġb es
Ġb evac
Ġb erry
00 79
Ġd alf
st ream
Ġc rinone
Ġat opic
al it
al top
Ġt ack
Ġt alk
Ġpul led
Ġv ad
sp inal
ri er
um es
Ġ10 249
Ġ10 599
Ġ12 246
11 35
11 42
11 77
Ġg ram
Ġ13 194
Ġ13 575
05 30
06 31
06 40
02 42
02 92
ml in
Ġ11 459
am pr
ch em
Ġam ylin
Ġ19 100
25 79
25 84
25 070
18 88
15 63
17 78
28 72
27 53
27 86
Ġe pididy
im plnt
23 875
ta zorac
Ġhyper tric
af lo
59 35
55 04
55 21
Ġcl av
36 50
35 42
37 00
33 31
54 40
54 37
pyr idium
pro x
pro gram
Ġ108 23
Ġfac es
Ġ104 04
Ġ109 87
Ġ119 04
Ġsim plex
Ġ123 43
Ġ129 78
Ġ113 03
ow en
Ġ136 59
Ġ134 23
Ġ139 19
Ġz osyn
Ġ142 14
Ġint cr
Ġ146 14
Ġ148 00
Ġ145 29
99 25
99 762
99 662
Ġ156 56
90 121
109 4
mpath olytics
cy tomel
69 23
Ġ166 39
Ġby dure
Ġ169 17
Ġ165 15
Ġ165 28
305 7
Ġ179 00
Ġ179 08
Ġ179 89
Ġ178 26
Ġ177 07
antic onvul
97 12
sa w
dec ongest
Ġ187 5
Ġ187 38
Ġtetrac yclines
63 441
72 10
mon th
80 126
Ġ198 01
Ġ193 39
Ġcycl ical
569 83
228 1
Ġinvol v
110 5
95 29
98 01
824 31
Ġfos renol
vis ine
436 0
gluc agen
449 59
Ġlu e
Ġfron tal
153 56
Ġprep atell
Ġ1058 2192
Ġcomt an
Ġ1424 4279
Ġ1915 7548
Ġ1923 1238
Ġ1867 6703
733 13
Ġcong enital
wh ite
Ġbe es
utin ib
Ġ14029 474
Ġru e
Ġker atitis
Ġ15649 581
cerv ical
Ġredi haler
Ġeyel ashes
Ġdysph onia
flora jen
prome thegan
Ġbevac izumab
Ġdalf ampr
altop rev
Ġhypertric hotic
program med
Ġintcr bl
Ġbydure on
Ġprepatell ar
Ġdalfampr idine
+ ,
, .
0 1011
3 31
7 32
7 000
8 40
9 001
b ec
b icar
g am
h op
i atane
u ated
w asp
Ġ >
in ul
Ġa ra
ure us
Ġb ron
00 52
00 72
Ġd ra
st om
st och
Ġat yp
al az
al ka
Ġt igan
se asonique
Ġf al
is phere
Ġant ivert
ep ing
Ġ18 419
us a
um oxy
Ġn ature
Ġcom partment
Ġ12 156
ph oro
Ġ13 385
Ġ14 789
09 46
09 82
06 72
Ġ15 119
Ġ15 179
Ġ15 287
ch romium
tr omb
op ag
Ġ19 396
ot ine
Ġmar row
18 16
18 54
19 90
19 384
Ġch alaz
15 30
gu ai
17 72
est rogen
gl argine
16 30
28 48
26 85
li gh
Ġco stoch
ox epin
78 09
78 25
78 093
59 71
Ġprot ective
Ġsu rest
49 33
39 02
but olol
55 70
47 75
57 30
57 78
32 059
37 10
37 92
44 13
34 23
un able
Ġace butolol
100 1
Ġcon version
Ġ125 15
Ġ125 17
Ġneb upent
Ġ106 10
Ġ104 49
Ġ126 78
Ġ126 88
Ġ115 39
Ġim br
for ge
Ġ113 78
Ġ135 59
Ġ139 09
Ġdex methyl
Ġ148 28
Ġ148 35
Ġ145 17
Ġ143 19
Ġhem isphere
Ġ147 619
Ġ149 36
Ġ153 46
68 38
Ġ158 48
Ġbis colax
Ġlac s
Ġem bol
Ġel tromb
cos up
66 66
uv ica
Ġ168 39
Ġ166 09
Ġer ror
Ġdep akene
Ġ164 28
Ġpyrrol es
Ġ173 18
Ġsens or
Ġ189 44959
Ġ187 08
uri bel
Ġ188 26
Ġ188 185
Ġbr uton
Ġ185 49
62 03
71 106
73 06
73 48
vit c
93 49
cry selle
ob id
799 1
110 8
ore lief
Ġpeg asy
sh o
Ġdel zic
807 05
339 7
224 9
Ġmc a
poly myx
Ġobstruct iv
852 26
ge al
703 6
Ġlump s
prev ident
Ġerythemat ous
Ġ1705 5995
Ġstruct ure
Ġ1205 3638
cle ver
Ġtrache itis
426 13
dif f
Ġbit s
Ġtuberc ulosis
Ġfer umoxy
537 29
Ġspl enic
Ġhor net
Ġdibenz o
Ġmuch o
Ġvel phoro
Ġhallucin ogen
Ġ10699 400
dry sol
Ġ10289 279
Ġ11888 614
Ġtemp orom
Ġibr utinib
side stream
Ġ15528 228
Ġ136204 46
hemorrh oid
Ġ13269 859
Ġpector is
Ġelm iron
bt k
berb erine
Ġclav icl
bicar sim
hop s
Ġchalaz ion
Ġcostoch ondritis
oxepin o
Ġsurest ep
Ġimbr uvica
Ġdexmethyl phenidate
Ġ147619 41
Ġeltromb opag
Ġpegasy s
Ġdelzic ol
Ġferumoxy tol
Ġtemporom andibular
5 1012
5 127
7 040
7 2012
8 7820
9 35
9 68
c almoseptine
d ness
e z
i osis
t ary
v ital
Ġw l
Ġw itnessed
Ġa ly
Ġa ureus
Ġs ick
Ġb all
Ġb alm
00 50
it ant
Ġc ellu
al tavera
Ġre guloid
Ġo yst
pi ll
iv il
iv ora
ar ix
Ġh ole
id or
10 69
Ġan emias
ro min
Ġ16 876
Ġ16 137
ion ine
Ġl if
Ġ18 786
Ġ18 812
Ġ18 569
Ġ100 25
us able
Ġ10 569
Ġis sues
01 53
Ġg ianvi
Ġ14 497
07 06
el s
05 63
06 86
04 35
Ġu roc
Ġpre na
Ġ15 063
Ġ11 109
Ġtri phrocaps
ch y
Ġ17 288
Ġ17 882
Ġun ivasc
Ġ19 119
Ġ19 112
25 85
18 03
18 28
15 16
15 38
16 70
28 57
27 71
24 46
29 10
29 23
Ġsal onpas
Ġ23 7
ut i
oc are
Ġox id
Ġr heumatic
Ġpl an
78 35
78 89
45 50
45 78
45 35
af on
hyd rea
48 11
48 17
48 69
46 08
46 14
46 22
46 57
38 43
38 88
Ġgen erlac
55 46
55 42
Ġsh in
36 61
36 94
Ġdermat ologic
37 46
43 26
53 58
41 00
Ġ110 26
Ġ118 55
88 53
Ġ126 87
Ġ126 97
79 22
nos um
Ġ114 26
Ġ107 47
Ġ119 68
Ġ119 95
Ġ111 58
Ġ123 12
Ġ129 17
Ġ129 64
Ġ136 16
Ġ134 15
Ġint cran
Ġpoly uria
Ġ144 49
ose s
Ġ147 33
Ġ147 66
99 93
67 37
Ġ158 59
Ġ158 77
Ġ159 14
Ġvis cosup
87 20
87 49
87 42
87 60
der iv
Ġread ing
asc orbate
69 18
69 59
Ġstr idor
119 1
calc et
Ġ169 28
Ġ163 36
Ġ165 26
86 503
Ġnar cotic
Ġdig e
76 09
76 43
Ġ178 25
61 121
rel in
85 01
85 50
85 38
112 8
84 021
Ġ186 28
Ġ186 53
83 30
Ġ189 19
311 4
Ġ183 18
Ġ182 14
64 13
bu spar
Ġ196 36
Ġ198 00
Ġ198 18
Ġ198 15
94 04
Ġ193 14
Ġ194 01
Ġvit s
Ġneopl m
796 31
838 3
859 1
824 9
805 05
612 3
Ġbarbitur ate
Ġdialy vite
296 50
296 33
head ache
614 2
707 20
icl ens
Ġthrombocy themia
304 01
387 36
derm asarra
Ġswal low
sub q
Ġles col
Ġbump s
526 11
Ġ1510 7347
Ġpolys acch
Ġ1135 5855
Ġ1967 0384
718 31
ĠĠĠĠĠĠĠĠ ĠĠĠĠĠĠĠĠ
Ġze asorb
Ġretroper iton
Ġleak age
Ġry tary
Ġprom etrium
Ġ19538 920
Ġnorelgest romin
Ġ17800 278
Ġsalping itis
Ġkerat oplastic
Ġ19324 169
Ġ15084 163
heart burn
Ġ11826 927
Ġblind ness
Ġsym phy
don natal
Ġtack le
bec onase
Ġaly acen
Ġuroc it
Ġviscosup plements
Ġnarcotic s
' t
2 103
3 017
3 485
6 4193
7 51
7 121
8 789
8 589
8 785
a vastatin
b ree
b oniva
c inate
d ried
d ramamine
f umes
j u
l imb
m usc
t an
v ision
w rap
Ġp ind
Ġa er
Ġs phy
00 33
Ġd hea
st ix
it izing
al i
em ra
ing les
Ġres istant
Ġad renal
om ano
ist ix
Ġan th
Ġan apl
ro tic
sp ra
sp rycel
Ġl am
Ġ18 289
Ġ18 568
Ġ5 28
12 17
Ġ10 795
Ġ12 574
Ġis ometh
ph or
01 61
Ġg leevec
Ġ13 109
Ġ13 365
08 08
03 45
03 54
03 99
03 85
05 42
04 54
Ġ15 255
am ist
ale x
ativ a
Ġ17 239
Ġ19 019
Ġ19 789
Ġ19 797
oid itis
19 97
19 80
Ġch or
17 99
17 65
16 67
27 88
27 93
24 65
24 91
29 24
29 80
Ġsal agen
23 95
22 24
oc rine
oc inonide
45 49
45 99
45 64
59 971
58 39
39 11
Ġne oplastic
48 30
56 53
56 99
56 881
46 69
38 12
47 54
57 23
37 18
43 45
Ġcarb uncle
Ġ112 86
Ġ112 667
Ġ116 99
Ġ106 04
Ġ103 16
rep itant
88 45
88 32
88 96
79 28
Ġ105 02
Ġ105 13
Ġ107 45
Ġ111 15
Ġ111 55
Ġ123 27
Ġ129 536
Ġ113 07
Ġ113 25
Ġ113 15
Ġ113 36
Ġ138 19
Ġ138 96
Ġ133 09
Ġ139 00
Ġ139 99
gm omano
Ġcont ents
pre x
ose ns
786 7
99 50
99 48
Ġ153 07
68 28
Ġ158 05011
val ide
87 73
Ġall er
Ġdef ic
cap sa
uv afem
Ġ166 49
305 51
76 49
Ġ178 48
Ġ177 59
con c
92 11
82 022
Ġ173 29
Ġ173 37
96 23
Ġsl f
Ġ175 13
Ġano m
97 518
zy vox
84 31
Ġ186 58
83 06
329 2
300 1
Ġpost part
Ġ185 05
Ġ183 02
Ġ182 17
Ġ184 26
Ġ199 10
63 390
Ġbet optic
oxy gen
Ġ196 26
Ġ196 99
649 4
Ġ197 06
Ġ197 02
Ġbra f
Ġ198 55
Ġ195 48
Ġ195 36
Ġ193 38
74 42
569 1
Ġap repitant
796 32
mag ox
Ġdes itin
cler osis
Ġover wrap
Ġcolon oscopy
Ġath eros
Ġbarbitur at
Ġben gay
Ġeffect s
022 13
acetamin ophn
ze gerid
Ġglo b
998 22
meth adone
025 12
Ġrestl ess
met er
307 72
flu ocinonide
033 13
Ġtam pon
Ġcomfort able
Ġev oxac
553 20
595 24
608 86
727 05
Ġ1058 0201
dip rolene
526 12
cle an
Ġ1837 1155
936 02
411 89
phenad oz
xy zal
Ġappl i
Ġ1467 1276
Ġhumid ifier
dysp nea
Ġrol ling
fol bic
Ġ12648 465
Ġ11818 101
Ġ11456 260
wom en
Ġ10505 380
Ġ15616 719
Ġphot osens
Ġdrown ing
alori e
lib rax
Ġsuppur ativa
astin um
Ġ170118 46
Ġara va
Ġbron chi
ligh theaded
arix tra
deriv atives
bree ze
Ġpind olol
Ġsphy gmomano
Ġanapl astic
capsa ic
Ġatheros clerosis
Ġphotosens itizing
Ġsphygmomano meter
5 089
6 883
7 269
9 32
9 509
d s
d akin
e a
k ristalose
m x
n b
o coccal
p g
t actinal
re le
re va
Ġw il
Ġp ta
on s
Ġs le
00 15
00 61
00 84
ent ocort
Ġdi amox
Ġc et
Ġrec t
Ġf a
id er
ist or
10 55
Ġ18 486
Ġ18 796
Ġ18 597
co ag
co stal
ac co
12 05
Ġ12 487
11 36
01 83
01 311
07 31
03 67
03 80
06 09
02 04
02 68
02 65
04 21
ly za
Ġ15 567
am yst
Ġ17 509
Ġ17 169
Ġ19 109
Ġ19 724
Ġ19 311
Ġ19 467
18 43
19 06
19 17
17 24
17 38
14 06
13 97
28 81
28 64
27 401
im ara
23 85
22 22
Ġ23 9
Ġcalc ific
Ġhyd r
78 55
ev al
45 75
Ġor gn
59 96
coc cy
49 35
49 90
58 86
Ġne ulasta
Ġne upogen
48 04
48 061
56 51
46 40
55 03
55 17
55 38
55 33
47 09
47 65
47 91
47 031
36 24
36 21
32 10
32 14
33 29
33 44
34 78
Ġ110 28
Ġ102 15
Ġ118 45
Ġ112 87
Ġ108 33
Ġ108 89
Ġ125 25
Ġ128 35
Ġ122 08
Ġ116 00
Ġ116 56
Ġ103 45
Ġ103 35
88 52
Ġ126 18
79 62
Ġ117 61121
Ġ114 38
Ġ114 37
Ġ107 23
Ġ119 348
Ġ127 07
Ġ129 38
ocus il
Ġ136 00
Ġ133 12
Ġ133 17
Ġto viaz
Ġ137 09
Ġ139 318
arr y
Ġ146 38
Ġ146 89
Ġ148 59
Ġ148 49
Ġ145 00
Ġ143 46
ath or
Ġper for
Ġ152 01
Ġpr iv
Ġ153 14
Ġ155 14
Ġver y
Ġ157 13
Ġ157 326
Ġ159 06
sen no
neum othorax
Ġ166 15356
Ġ169 09
Ġ163 48
lev yn
86 54
orp ace
129 29
Ġbre ak
Ġ179 48
Ġ176 18
ns aid
Ġsi lod
96 78
486 5
85 18
85 28
84 39
Ġepis odes
Ġ189 04
Ġ189 77
Ġ183 10
Ġ184 45
Ġ199 03
Ġur ology
Ġpancre aze
73 04
414 5
93 12
Ġ196 06
Ġsynd rom
Ġ197 59
Ġ197 592
Ġ198 24
Ġ198 26
Ġ195 16
94 03
lid ocare
tum eric
Ġsc re
oph lb
Ġind ocin
Ġ194 04
069 5
924 1
Ġbur ns
98 79
aly acen
202 7
sh ort
omet er
Ġfasc ial
Ġdel sym
518 0
449 9
nic orelief
urol ept
pren atabs
825 1
Ġcub oid
Ġdisc olo
996 59
114 04
Ġresult s
Ġatt en
Ġchondro costal
Ġtob acco
lub e
408 12
995 23
842 10
Ġwip e
Ġintr caps
bor a
Ġbeat s
Ġ1643 0675
Ġ1577 4211
Ġthomb ophlb
liqu itears
Ġspond ylo
Ġbar aclude
Ġ18203 000
Ġcerebro spinal
8200 9
550 10
Ġduoden um
Ġdevelop ment
Ġrupt ured
Ġ118757 73
Ġ14513 439
Ġ15964 158
Ġbru is
Ġsacro coccy
Ġ12619 139
Ġpit avastatin
Ġ11588 493
musc le
Ġsilod osin
Ġsacrococcy geal
7 580
8 1002
9 164
a yr
a vastin
b umin
f ab
f atigue
g entin
h air
m ec
s co
s aphris
z la
at orvastatin
Ġp aren
in line
the o
Ġb oth
00 10
00 07
st ear
Ġt pn
Ġo te
em othor
em sam
Ġf lor
an aspaz
Ġv h
Ġv ap
Ġv esta
en apine
10 35
Ġan i
Ġ16 099
Ġl anoxin
Ġ18 509
Ġ18 329
co gentin
Ġ100 14
Ġ10 246
Ġ12 046
ph yl
Ġg ard
Ġ13 036
Ġ13 294
08 12
08 02
08 82
Ġ14 458
el itis
05 86
05 92
05 94
09 99
09 65
09 94
06 35
02 66
Ġ11 486
am pyra
Ġtri ple
Ġas enapine
Ġ17 305
tr usopt
if erex
Ġun istik
ot al
ot if
25 63
19 89
15 02
15 51
17 23
gl ect
Ġpro phyl
Ġaspir at
24 50
24 93
26 02
22 07
22 30
lu ses
Ġmet rocream
Ġox apro
yp to
oly s
45 47
45 97
eth ine
ne urolept
58 79
Ġbl ur
Ġne glect
48 31
56 79
46 26
46 92
olyt c
36 113
35 22
35 40
42 291
57 24
32 049
37 45
ron yx
43 08
44 37
33 32
au vi
54 30
52 20
ong lyza
Ġ110 38
Ġlid ocream
Ġtr inessa
100 72
ig m
Ġcon cer
Ġ118 15
Ġ118 87
Ġ112 73
hol d
Ġ116 5867
Ġ116 01011
Ġ104 05
Ġ104 36
88 00
Ġ109 96
Ġ109 93
Ġ109 336
Ġ111 99
Ġ127 02
Ġ127 57
Ġ123 29
Ġ123 23
Ġ129 59
Ġ129 83
Ġ121 12
Ġ138 729
Ġ136 12
Ġ136 58
Ġ133 46
Ġ139 01
Ġ139 86
gar ment
oth ing
Ġ142 268
Ġso othing
Ġra il
Ġ146 17
Ġaz o
786 1
99 89
99 66
Ġ156 36
Ġcoll es
079 5
Ġpr aster
68 05
68 09
68 44
Ġnic otrol
Ġ157 12
Ġ157 64
hyp ot
109 3
Ġdr unk
87 43
Ġpneum oh
Ġhypo glyc
66 07
Ġgluc ometer
Ġ166 12
Ġ166 59
Ġ169 01
Ġ167 77
Ġhand s
289 3
289 59
724 91
77 49
76 01
Ġinfl amm
Ġ178 45
Ġ176 49
96 30
85 43
84 10
Ġ186 69
Ġme gace
83 39
Ġ189 5
Ġ189 05
65 19
Ġ188 24
300 3
Ġ183 42
Ġ184 06
Ġ199 66
002 11
Ġ196 22
Ġ196 78
Ġ196 44
276 50
Ġcal luses
Ġsubst it
Ġ193 43
Ġla uryl
569 43
Ġ192 14
802 20
838 4
600 4
Ġappen d
536 42
Ġaf rin
prom acta
lin oleic
Ġneuro tic
309 1
519 09
825 21
304 20
met adate
379 21
739 4
Ġxt andi
Ġtrache a
Ġ1204 4530
Ġ1926 5652
Ġsic ca
Ġ1239 0082
nifed iac
Ġ1245 3404
Ġitch y
422 12
835 12
lact ase
Ġskateboard ing
cep tin
Ġcomm nt
Ġparaly sis
Ġdens ity
Ġhouse hold
Ġlabor atory
Ġmemb rane
Ġadrenoc ortical
prim rose
Ġ10225 793
Ġ12784 119
Ġsand ostatin
Ġvesic ular
Ġ11406 274
Ġ1875 4359
stom atitis
polymyx nb
chy ma
Ġlam isil
Ġpostpart um
Ġhydr olys
Ġ119348 43
Ġ139318 15
Ġsyndrom es
Ġ197592 25
fab b
mec lizine
Ġparen chyma
Ġote zla
Ġoxapro zin
Ġ142268 08
Ġpraster one
Ġpneumoh emothor
/ .
5 282
6 163
7 222
8 1011
8 5898
9 58
9 019
c ong
c ns
f end
f inger
g ing
g et
g aine
l iv
m er
o yst
o renal
r and
x l
x ulane
Ġ rim
Ġp om
ic ted
ic ond
Ġs ph
lo stim
th y
Ġb odies
00 62
st ance
Ġc ortisone
Ġat acand
Ġt alc
Ġt arry
Ġrec lipsen
iv et
ere t
Ġv on
Ġv sl
om ax
Ġac cupril
Ġ16 036
Ġl p
Ġ18 129
Ġ18 259
us al
Ġ10 789
Ġ10 146
Ġ13 068
Ġ14 286
07 48
07 60
03 74
05 10
05 71
09 29
09 21
09 34
09 92
06 48
06 47
02 08
02 24
Ġ15 299
Ġ15 586
Ġ11 468
Ġ17 079
Ġ17 119
Ġder ma
Ġ19 787
Ġ19 108
ines ia
25 03
19 50
15 06
15 75
gu n
17 10
17 62
16 10
13 58
27 17
27 30
26 60
23 84
22 069
Ġ23 6
Ġsulf ates
ip lostim
Ġpl etal
cop ic
gre en
45 38
45 72
cl ass
cl av
ne ut
59 50
59 32
49 82
58 16
39 27
48 56
48 57
56 41
56 67
56 83
56 64
46 20
38 10
38 16
38 39
38 48
55 40
35 21
42 17
42 252
57 72
37 07
37 993
43 12
34 45
54 07
52 121
all ergic
Ġ110 52
Ġ110 848
Ġ102 24
Ġ102 11404
100 7
ig el
Ġ118 33
Ġ118 847
Ġ112 26
Ġ112 53
Ġ112 79
Ġ112 815
Ġ108 77
Ġ116 04
Ġ116 68
Ġ106 08
Ġ106 53
Ġ106 92
Ġ103 06
Ġ103 04
Ġ109 02
Ġ109 17
Ġ109 55
Ġ109 57
Ġ109 79
Ġ109 86
Ġ126 13
79 33
Ġ117 03
Ġdy sk
Ġ107 58
Ġ111 79
Ġ123 49
Ġ123 38
Ġ132 08
Ġ132 19
Ġ129 58
Ġ129 43
Ġ129 89
Ġ121 10
Ġ113 17
Ġ133 25
Ġ134 28
Ġcol loidal
019 5
Ġgl nd
Ġmethyl sulf
iz one
Ġos mol
press e
Ġ149 12
Ġ149 01
Ġ149 38
Ġ149 316
99 60
Ġgastro ent
Ġlact inex
Ġ154 05
Ġ154 16
Ġ154 46
Ġ153 35
Ġ159 58
109 7
Ġcell ul
87 52
Ġacc olate
ver atrol
69 88
Ġmv a
Ġmv i
66 02
66 21
Ġ167 28
Ġ167 33
Ġ162 23
Ġ165 19
Ġep icond
86 42
729 7
724 02
77 72
77 70
Ġse e
305 0
305 40
Ġ179 33
Ġcause s
76 07
76 31
Ġinfl icted
959 0
Ġ177 39
iod osorb
418 8
Ġ172 26
96 19
Ġoc c
Ġ174 29
97 429
85 19
84 04
Ġ186 16
Ġ186 36
Ġ186 99523
83 26
83 090
812 03
Ġ187 5489
Ġaspart ate
329 5
419 0
419 6
311 8
Ġ183 09
Ġ199 13
72 30
73 028
Ġ196 49
Ġ195 46
%)* ,
Ġact igall
Ġalk a
Ġurs o
74 38
255 42
bas ic
319 6
110 4
518 5
poly vinyl
dis charge
358 4
499 30
546 6
meth ane
meth ionine
oy sco
ps gr
003 21
proct ofoam
013 12
133 28
Ġleukocy topenia
Ġ1388 9180
Ġ1449 67
leb rand
Ġ1356 7401
526 91
615 11
995 28
Ġ1203 7437
Ġ1999 2875
Ġ1729 0849
Ġ1326 4941
Ġ1855 3055
Ġ1316 6511
404 09
Ġstern al
913 12
Ġcop d
liqu acel
Ġech o
Ġdem erol
Ġ17447 691
Ġcort isporin
Ġry thmol
onyl methane
Ġ19767 492
Ġvan cocin
Ġsunscre ens
Ġmatern al
Ġ15853 169
Ġscrat ch
pant ethine
herb s
Ġ14717 765
Ġ12897 175
Ġoxyt ocin
Ġ188479 56
Ġrom iplostim
Ġbes ylate
sho ulder
Ġ12964 119
Ġwil lebrand
Ġspondylo sis
Ġbruis ing
Ġ13036 599
Ġ1165867 5
Ġ138729 97
Ġsubstit ute
class ic
Ġdysk inesia
Ġmethylsulf onylmethane
Ġosmol ite
' .
4 189
6 073
8 583
b up
c ord
c ade
f eraheme
g inger
h ct
h amber
h odgkin
i er
i os
j ade
l uc
l db
n ut
x s
at ac
at erone
re pl
Ġp rin
Ġp ouch
Ġp lex
in o
Ġa valide
th arg
Ġb otox
Ġd wel
er min
ent rant
Ġc almoseptine
al ur
Ġt ime
Ġre entrant
em brace
Ġf etal
ast rin
Ġdiast at
iv ary
ere al
Ġin trc
ag l
ist ance
10 29
10 22
10 40
10 76
Ġan akin
hi prex
Ġ16 100
Ġ18 119
Ġ100 02
Ġ100 39
os h
os itol
ad ose
12 50
12 56
Ġ10 144
pl ants
Ġn f
Ġn ode
Ġ12 486
Ġ12 1011
ph oid
Ġg b
Ġ13 789
08 42
08 87
Ġ14 064
07 25
07 34
07 70
03 64
el p
el zine
05 00
09 19
09 86
06 79
02 10
04 55
io t
Ġ15 100
Ġ15 489
Ġ15 999
Ġ15 467
Ġ15 293
Ġsco oter
Ġ17 009
Ġ17 579
Ġ17 007
le tharg
op athies
Ġst re
Ġst orm
Ġun det
Ġ19 793
alg ias
Ġon set
25 30
25 45
18 05
19 07
yc amine
atin ine
15 43
15 93
17 05
17 50
17 43
17 68
17 75
est oretic
gl umetza
16 97
14 68
13 45
28 42
27 33
24 40
29 29
29 40
Ġe asy
26 30
23 26
23 22
23 94
ap t
ir aterone
Ġab iraterone
Ġpl aqu
Ġsup rc
ting ling
78 36
45 92
45 73
45 381
59 19
59 80
Ġmin astrin
hal luc
49 24
58 68
39 16
48 79
56 85
46 12
46 81
46 73
Ġsh ingles
36 04
35 00
35 70
42 032
32 018
37 38
37 73
43 27
44 09
53 05
qu estran
ong es
rat or
Ġ110 11
Ġ102 05
Ġtest is
Ġsp onges
Ġ112 06
Ġ112 13
Ġ112 24
Ġ108 29
Ġ106 73
Ġ103 10
Ġ103 05
Ġ104 07
Ġ124 12
88 39
Ġ109 00
Ġ109 285
Ġ126 00
Ġ126 99
Ġ115 27
Ġ115 33
79 19
Ġ114 23
Ġ107 12
Ġ107 38
Ġ119 62
Ġ111 48
Ġ127 46
Ġ123 01
Ġ123 03
Ġ123 17
Ġ129 214
Ġ129 059
Ġ138 3
Ġ138 00
Ġbi ological
Ġ133 43
Ġ133 26903
Ġ135 28
Ġ134 36
89 49
Ġle w
Ġ137 02
Ġ137 17
Ġ137 46
Ġ139 77
Ġ139 558
Ġ139 56943
Ġj ug
ect asis
019 7
Ġ146 06
Ġ148 66
Ġ148 64
Ġ145 58
pre gn
Ġ147 39
Ġ149 56
Ġ149 46
Ġ149 938
Ġinfec tive
Ġper pet
99 639
Ġphen elzine
Ġlact ones
Ġ156 69
Ġ152 293
Ġ154 48
Ġ153 47
ub ated
Ġ151 10
67 02
67 23
68 31
68 32
68 53
Ġest azolam
Ġ159 11
Ġem brace
Ġmid line
Ġfor adil
Ġher petic
66 26
Ġ168 23
Ġ166 58
Ġ166 55
Ġ169 06
Ġ169 76
Ġ167 12
Ġ167 39
Ġ165 78
77 51
129 1
Ġsub clav
Ġ179 18
inf ectives
inf ected
179 1
179 4
Ġ178 07
Ġ176 19
par as
Ġ177 17
Ġ177 37168
92 10
92 13
82 17
Ġ174 02
Ġ175 23
97 26
Ġ186 89
Ġ189 35
Ġ187 79
Ġflex or
419 4
Ġ184 14
Ġ184 48
Ġ199 19
Ġ199 38
Ġpo or
414 6
Ġnort rel
Ġ197 12
long um
Ġcal amine
Ġcad uet
Ġ192 13
303 8
birth control
Ġcath flo
98 11
824 92
814 01
Ġlig mt
923 22
Ġhemop neumothorax
Ġdisloc ated
Ġop t
325 1
Ġmacroc yclic
alt amist
ze axan
998 21
sk is
424 4
309 9
116 31
Ġden avir
mot abs
134 07
307 81
Ġpos aconazole
arox olyn
383 32
005 05
597 59
estra d
Ġram us
196 32
485 58
Ġethyl suc
sub stance
cort isporin
Ġ1688 2192
Ġcav er
Ġout put
Ġ1435 3044
Ġrequest s
Ġ1969 3912
Ġ1613 1197
Ġ1517 0418
tril afon
314 01
vas otec
thor n
Ġbef ore
lact ate
fac ial
bac itracin
Ġbioflavon oids
Ġze gerid
Ġty phoid
sup rep
Ġecchym oses
Ġhepat orenal
Ġcerebro vasc
gum mi
Ġ11443 044
Ġ16439 884
Ġ14729 395
Ġ15869 025
Ġ15524 760
Ġfrag ments
Ġtriquet rum
Ġ18656 167
Ġtonsil s
Ġ11865 363
Ġ12399 776
Ġ19346 228
Ġcommun icable
mlin pen
Ġ188185 35
alex ate
Ġ129536 93
Ġbronchi ectasis
Ġbreak down
liv alo
Ġ118847 76
Ġ112815 68
Ġ149316 16
Ġ1875489 5
atac ept
Ġintrc ndl
Ġanakin ra
Ġsuprc ndl
Ġjug ular
Ġperpet rator
Ġsubclav ian
Ġethylsuc cinate
+ .
6 079
7 389
8 190
9 12
9 33
9 89
9 305
9 156
9 283
a co
c ampral
d in
d om
f etal
f elb
h osh
i ative
i rox
m ocycl
p c
p ovidone
s r
t igan
y uvafem
z r
z im
Ġ itrac
as irox
Ġw ants
ati s
ati ram
Ġs am
Ġ2 42
00 71
00 74
Ġd ss
Ġd davp
Ġd ali
it ter
Ġc w
Ġc am
Ġt iclo
Ġre na
Ġm urm
Ġf elon
Ġres veratrol
Ġres istance
an ac
om ib
10 21
Ġ16 079
Ġ16 266
Ġ16 196
Ġ18 097
Ġ18 197
Ġ18 799
Ġ18 237
Ġ18 553
ec ting
ac ities
12 43
Ġ10 255
Ġta xan
Ġ12 100
Ġ12 479
Ġ12 006
11 44
11 68
Ġ13 199
Ġ14 794
Ġ14 063
07 35
07 82
07 84
07 80
03 43
el ing
05 19
06 53
06 87
06 61
06 97
02 57
02 51
02 33
04 78
ef olate
Ġ15 789
Ġ15 499
Ġ11 786
yl methionine
Ġ17 200
Ġ17 069
Ġ17 399
if loz
Ġ19 729
Ġ19 305
Ġ19 427
Ġ19 596
Ġal avert
ab ility
25 52
25 61
19 60
Ġch loro
15 90
Ġred dness
17 07
16 66
13 84
13 75
13 74
28 09
28 02
28 31
Ġthera put
27 44
24 09
24 61
29 46
29 011
Ġe ve
im ia
Ġsal ivary
23 33
23 53
22 28
Ġco oking
Ġco hosh
oc iative
ip ex
ip enem
78 87
78 199
45 12
45 29
45 32
Ġsing les
59 09
49 78
49 63
49 64
48 26
48 47
56 37
56 88
46 86
38 02
38 35
38 80
55 06
55 18
55 16
47 33
36 19
35 76
35 74
37 99
43 09
44 30
33 43
34 01
54 02
all erg
53 44
100 4
Ġ118 27
Ġ112 39
Ġ112 924
Ġ112 356
Ġ108 47
Ġ108 59759
Ġ122 17
Ġ116 88
Ġ106 8
Ġ106 55
Ġ106 77
Ġ106 96
Ġ109 19
Ġ126 83
Ġ115 10
79 50
79 37
79 79
Ġ117 27
nos ylmethionine
Ġ107 46
Ġ107 37
Ġ111 12
Ġ111 17
Ġ111 54
Ġ127 49
Ġ127 38736
Ġ132 27
for adil
Ġ138 59
Ġ135 26
89 02
Ġ139 88
Ġ139 73
Ġgl atiram
Ġso res
Ġ146 59
Ġ146 53
Ġ146 597
Ġ148 14
Ġ148 67
Ġ145 35
Ġ143 38
99 92
99 61
Ġ156 86
Ġ156 96
Ġ154 49
Ġ154 47
end ocrine
Ġ153 36
Ġ155 26
67 16
68 101
Ġ157 19632
Ġext ent
av ik
sen ce
Ġlac ri
cy tra
Ġel ast
chol edochol
69 13
Ġdef er
Ġdef ib
119 3
Ġtre x
66 67
Ġ168 11
Ġ168 53729
Ġ166 03
Ġ166 89
Ġ169 16
Ġ169 59
Ġ169 54
Ġ167 45
Ġ163 04
ov i
Ġ161 12
787 1
Ġ179 428
390 11
76 51
Ġ178 09
Ġ178 24
Ġ178 323
Ġ178 47031
Ġ177 05
Ġ177 18
Ġ177 169
92 06
Ġflora jen
82 020
rel ated
Ġ173 02
Ġ175 39
719 16
97 11
97 13
83 14
Ġflush ing
Ġir reg
Ġ188 18
039 3
Ġ185 19
Ġ182 07
Ġ199 05
63 15
93 30
Ġ196 258
428 1
Ġ181 10
Ġ197 07
Ġ198 49930
Ġcal an
Ġ195 07
Ġ195 47
Ġ194 23
569 81
802 1
069 1
Ġestrogen ic
824 1
338 4
ech inacea
ade nosylmethionine
chant er
439 4
011 4
tran quil
614 32
519 11
sal agen
Ġprem ier
433 10
307 50
194 17
014 11
033 14
996 31
287 31
Ġ1549 7
Ġseed s
815 04
Ġ1889 5
Ġ1889 6
Ġaff ecting
Ġ1449 8233
Ġpack et
Ġ1239 0274
Ġ1404 5504
Ġ1348 2757
Ġ1207 09
Ġ1207 7819
Ġ1710 7885
643 13
831 00
Ġ1743 4499
Ġ1778 4248
lact inex
Ġ1610 8772
Ġdiss ociative
pal ps
Ġsun burn
Ġ19509 694
Ġtro chanter
aller clear
ster ile
Ġ18556 017
Ġ11877 319
Ġ11413 236
Ġgingiv itis
Ġjoh n
Ġ13877 234
Ġoccip ut
Ġ18248 250
Ġ13313 123
Ġ19713 100
Ġcre atinine
Ġstav udine
Ġconn ect
Ġ17438 385
myn ephrocaps
hemorrhoid al
Ġcellu visc
Ġ15201 393
Ġ18342 284
Ġplaqu e
Ġ129059 85
Ġ139558 24
Ġ152293 55
felb atol
Ġitrac onazole
Ġdali resp
Ġticlo pidine
Ġmurm ur
Ġtaxan es
ifloz in
Ġtheraput c
Ġ112356 66
Ġglatiram er
choledochol ith
tranquil zr
3 158
7 2011
9 134
d l
d vt
d olophine
f r
l ittle
n f
n ate
n umb
n plate
t ac
t ura
v d
w ixela
y a
y ne
z tia
as ense
Ġa pra
Ġs avella
Ġb s
Ġb erna
00 08
00 35
00 89
00 014
er ci
Ġt ek
no hum
Ġf ix
10 45
10 64
ia calcin
Ġ16 459
Ġ16 089
Ġ16 287
Ġ16 086
Ġ18 100
ec lam
ine f
ra py
ri asis
Ġ100 379
12 06
12 89
Ġ10 296
Ġ10 266
Ġ10 444
Ġn one
Ġta urine
Ġ12 259
Ġ12 476
11 13
ph anol
01 12
01 59
01 79
01 64
01 74
Ġ13 049
Ġ13 387
Ġ13 247
08 46
Ġ14 786
Ġ14 129
Ġ14 469
Ġ14 027
Ġ14 887
07 08
03 03
03 65
el avil
05 17
06 51
06 85
02 77
04 06
04 58
Ġ15 019
Ġ15 197
Ġ15 087
Ġ15 353
anc h
anc tura
Ġ11 579
Ġas phy
Ġ17 596
Ġst uck
Ġ19 023
Ġ19 246
ial yte
25 29
25 62
18 25
18 81
19 04
19 55
Ġlo ry
ric eps
15 01
15 25
15 76
17 21
17 79
17 60
16 71
16 98
14 57
14 82
14 91
13 19
13 48
13 37
28 44
27 04
24 36
29 49
29 86
26 06
26 28
22 17
22 14
tor phanol
Ġcalc i
Ġco al
Ġnon med
ox i
78 34
ren acl
45 56
45 36
Ġor acea
af i
59 60
49 49
58 77
58 92
58 96
39 78
39 70
but in
48 19
48 22
56 87
46 35
46 65
38 46
38 38
38 55
38 74
55 07
47 19
47 44
36 23
36 98
35 17
32 18
32 16
37 05
37 39
37 77
rof ine
43 04
43 30
44 11
44 45
44 41
44 102
44 101
33 25
33 41
34 19
52 14
53 03
53 21
aid s
Ġ110 36
Ġ110 57
Ġ110 88
Ġ110 347
Ġ102 28
Ġcarb onyl
Ġsk is
Ġ118 99
Ġ112 66
Ġ112 97
Ġ112 969
Ġ108 84
Ġex forge
Ġex erci
Ġ125 04
Ġ128 45
Ġ116 15
Ġ106 03
Ġ103 25
Ġ103 38
Ġ103 47
Ġ104 29
Ġ104 38
Ġhead aches
88 05
88 50
Ġ109 10
Ġ109 03
Ġ109 77
79 03
79 77
79 63
79 75
Ġ105 06
osp orin
Ġ117 78
Ġ117 49
Ġ117 458
Ġ107 05
Ġ119 14
Ġ119 58
Ġ119 85
Ġ127 77
Ġ132 06
Ġ129 07
Ġ129 24
Ġ138 02
Ġ138 99
Ġ138 69
Ġ138 798
Ġ133 07
Ġ133 35
Ġ133 254
Ġ134 39
Ġtran ylc
ak afi
89 01
Ġ137 05
Ġ139 6
Ġ139 23
Ġ139 22
Ġ139 998
Ġ139 769
Ġj akafi
Ġ142 12
Ġ146 05
Ġ143 00
Ġhem m
Ġ147 37
Ġ147 67
Ġ149 28
Ġ149 87
Ġ149 13407
Ġlact oper
Ġ156 59
Ġ156 34
Ġ154 39
ub i
67 61
Ġ158 14
Ġ157 49
les col
Ġ159 39
av er
109 5
87 50
87 46
lop rim
69 21
sc p
Ġmy oclon
119 4
Ġul nohum
col loidal
66 35
Ġ168 56
Ġ169 08
Ġ169 39
Ġ169 69
Ġ163 45
Ġ162 09
Ġ165 29
509 6
86 04
86 13
86 29
289 4
289 6
724 6
Ġquad riceps
77 39
77 65
Ġdonnat al
129 4
erb b
305 9
305 54
Ġbul imia
Ġmyco sis
Ġ179 79
Ġ179 68
489 6
Ġ178 28
Ġ176 56
Ġ176 89
Ġ177 25
Ġ177 35
Ġny amyc
427 8
Ġ173 28
97 39
Ġ186 15
Ġ186 99
83 32
Ġcereb ell
Ġfat s
812 40
65 28
Ġ187 48
Ġ180 12
Ġ180 11
oderm a
Ġ188 09
Ġ188 15
Ġ188 16
Ġ188 69
Ġ185 37
311 5
Ġ182 29
Ġ199 01
Ġ199 17
Ġ199 68
Ġ199 69
459 3
459 4
63 46
Ġmic rolet
Ġmic ardis
Ġmic rofine
Ġcervic itis
73 46
Ġ196 18
Ġ196 35
Ġ196 43
94 39
847 6
Ġabs orb
Ġ192 25
538 6
Ġnail s
Ġap py
259 5
805 04
Ġadal at
625 4
ypro mine
728 19
my co
Ġbu spar
Ġbu fferin
Ġbu torphanol
828 0
536 4
536 5
Ġneuro endocrine
Ġglo ss
707 05
Ġtestic le
stim ulant
519 19
009 18
Ġnut s
825 4
823 92
Ġdisc itis
057 22
Ġev o
itone al
052 26
Ġpa pill
mic ardis
Ġ1688 4602
Ġcos amin
611 72
Ġ1689 7
othe rapy
1084 35
Ġ1137 5664
348 30
Ġ1307 1041
936 01
Ġorg anic
Ġ1235 1481
quin idine
tur na
Ġ1802 6603
viv otif
ave lox
827 54
Ġ19509 298
Ġbro ad
Ġagg it
Ġpolycy themia
saf ety
bleed ing
Ġhepat omegaly
Ġnorelgest rom
Ġ10439 110
Ġalve olar
Ġ13323 674
Ġ13615 149
Ġ13279 093
Ġ10614 625
Ġ17866 685
horm ones
Ġ16533 299
Ġave lox
Ġ10823 188
Ġfal lop
Ġ14319 319
Ġ18549 459
ju ana
Ġanom aly
Ġblur ry
Ġconcer n
Ġ109336 09
Ġ10692 064
hct z
agl iflozin
Ġ121011 42
Ġelast ase
Ġdefer asirox
Ġtek turna
Ġlory na
renacl ick
Ġ138798 53
Ġtranylc ypromine
Ġ139769 07
Ġlactoper oxi
Ġmyoclon us
Ġulnohum eral
3 369
6 160
7 43
9 392
e em
m us
n altrexone
o then
p rep
p ectin
r hea
s d
v fend
ic idin
Ġs ad
Ġb ev
00 18
00 49
00 53
er ing
Ġc plx
Ġm and
se ep
Ġnot e
is y
is ovi
10 83
Ġan ucort
ro om
Ġ18 079
Ġ18 311
Ġ18 249
Ġ18 277
Ġ18 793
Ġ100 76
12 400
Ġ10 108435
Ġ12 179
Ġ12 788
Ġ12 009
Ġ12 059
Ġ12 249
Ġ12 557
11 79
01 42
Ġg reas
Ġ13 179
Ġ13 566
Ġ13 107
Ġ13 063
08 15
08 26
08 44
08 99
Ġ14 119
Ġ14 787
07 19
07 42
07 030
03 72
05 24
06 24
06 89
06 64
02 05
04 27
04 24
04 37
04 65
ml int
Ġ15 259
Ġ15 057
am ed
Ġas percreme
Ġand roderm
Ġ17 179
up ro
up redn
Ġ19 079
Ġ19 586
Ġ19 143
Ġal seep
hy os
25 70
18 36
18 74
19 05
15 17
15 26
15 68
17 59
17 33
17 73
est eem
16 01
16 04
16 21
16 45
16 34
16 85
13 239
28 11
28 04
28 39
28 35
28 34
28 73
27 11
29 28
26 07
26 55
23 05
23 38
23 52
23 72
22 13
22 079
Ġblock age
Ġab c
78 17
78 27
78 551
ev ing
45 19
59 02
59 31
49 10
49 23
49 61
49 73
Ġk a
39 15
39 31
56 21
56 46
56 43
38 13
38 99
55 50
55 51
47 61
47 72
36 55
35 09
42 10
42 19
57 13
57 58
32 11
43 17
43 46
44 08
44 06
44 23
33 19
33 49
33 182
34 30
34 43
34 290
53 18
Ġsuc rose
hydro col
Ġ102 09
Ġ102 13
100 9
Ġ118 24
Ġ118 46
Ġ118 97
Ġ118 83
Ġ112 09
Ġ112 36
Ġ108 96
usc eption
Ġ125 28
Ġ125 00505
Ġ128 57
Ġ116 14
Ġ106 35
Ġ106 37
Ġ106 13328
88 11
88 22
Ġ109 08
Ġ109 25
Ġ126 79
Ġ126 72
Ġ105 09
Ġ105 15
Ġ105 28
Ġ117 229
Ġ114 16
Ġ114 27
Ġ119 05
Ġ119 36
Ġ119 76
Ġ119 73
Ġ127 03
Ġ123 04
Ġ129 27
Ġ129 96
uss usception
Ġ113 19
Ġ113 49
Ġ138 17
Ġ136 24
Ġ136 86
Ġ136 94
Ġ133 04
Ġ133 16
Ġ133 14
Ġpant othen
Ġ135 25
Ġ135 49
Ġ137 13
med y
Ġ139 615
Ġhyp erem
Ġint ussusception
Ġphosph atid
Ġ146 28
Ġ146 48
Ġ146 87
Ġ146 73
Ġmethyl naltrexone
Ġ148 17
Ġ144 19
Ġ145 03
Ġ145 19
Ġ143 28
Ġhem olytic
Ġ149 19
Ġ149 76
Ġ156 08
Ġ156 139
Ġ152 03
Ġ153 08
Ġ155 47
Ġpra mlint
67 27
67 35
67 68
67 69
68 42
az al
Ġ157 19
Ġ159 57
87 44
sc ap
Ġde h
Ġmy soline
col d
66 64
Ġro of
Ġ168 64
Ġ166 24
Ġ166 48
Ġ169 26
Ġ169 58
Ġ169 89
Ġ167 46
Ġ167 68
Ġdep lin
Ġ163 46
Ġ164 04
Ġ164 119
fen ac
Ġdepress v
86 32
86 79
86 509
lex iva
77 06
Ġbody aches
Ġsub lux
Ġ179 36
Ġ179 44
Ġ179 212
76 11
76 04
Ġ176 05
Ġ176 13
Ġ176 69
Ġ177 38
Ġ177 43
427 69
82 251
418 0
Ġ172 19
Ġ175 03
97 419
486 3
85 13
Ġ186 03
Ġ186 04
Ġ186 24
Ġ186 49
ti rosint
Ġ189 02
Ġ189 13
Ġ189 56
Ġ189 66
Ġ187 00
Ġ187 04
Ġ187 05722
Ġ188 06
Ġ188 55
Ġ185 39
Ġ185 596
Ġ183 48
Ġ182 15
Ġ182 24
kin eret
Ġ199 56
aqu a
63 20
63 58
75 32
93 20
Ġ196 05
428 5
Ġvacc ination
Ġ197 17
Ġ197 47
Ġadv rs
029 4
Ġ198 48
Ġ198 59524
799 12
Ġdec reasing
Ġ194 10
Ġ192 09
Ġ192 29
538 7
Ġcr b
Ġap nea
95 30
462 11
824 41
349 5
639 6
pa usal
436 8
nov a
518 52
Ġdv rt
728 4
022 15
614 31
gel s
sk ates
ah f
nic a
epl us
Ġwom an
128 06
159 31
816 00
skel axin
Ġent yv
033 12
026 11
veno us
366 46
784 42
acet at
Ġ1617 2396
Ġ1617 3911
Ġgr p
Ġ1747 7304
Ġ1513 1736
Ġ1707 2793
Ġ1203 2671
Ġ1315 8454
Ġ1745 1713
Ġ1036 7718
Ġ1245 1629
402 12
Ġ1511 7030
Ġ1706 0897
Ġstud ies
Ġmening es
Ġ1679 1831
Ġpleur isy
800 10
511 81
Ġfr nt
Ġ1654 4722
9200 2
Ġpenet rating
Ġdifl upredn
Ġast epro
817 03
Ġ1652 2884
zin amide
Ġten ex
nas alcrom
Ġcorros ion
Ġ10189 889
Ġmyelop athy
Ġ13608 861
Ġ16988 043
isop ropyl
Ġ11922 120
Ġtymp anic
ild ess
Ġ14337 110
Ġdelay s
Ġ102677 73
Ġ10249 080
Ġ10599 373
Ġ12246 674
Ġ14800 294
Ġdra w
guai atussin
Ġ112667 71
Ġcet yl
Ġ13317 579
Ġ157326 50
Ġplex us
Ġ109285 11
Ġ117458 20
Ġpapill edema
Ġgreas eless
hydrocol loid
Ġpantothen ic
Ġpramlint ide
Ġdvrt clos
Ġentyv io
Ġdiflupredn ate
0 102
2 0190
3 482
5 040
6 889
7 221
9 10
9 673
b anophen
c ilast
e utic
f il
g ianvi
h l
h ou
h alcion
i olytc
l ive
m u
m eric
n itrolingual
o ices
o ophoritis
t asone
x ene
z i
z ivir
at ten
Ġp ir
Ġp himosis
ic les
Ġs tic
lo sartan
lo con
00 47
Ġd ant
st ore
Ġc um
Ġc icles
Ġt oc
Ġt ig
ul ative
ul line
Ġo z
Ġm sm
ing osine
Ġh bp
Ġh alcion
id azine
Ġv ine
Ġv ac
Ġv oices
et est
10 78
10 54
10 75
Ġac ap
sp ouse
ion ic
Ġl c
Ġl mx
Ġ18 545
Ġ18 998
Ġ18 046
Ġ18 477
Ġ18 454
ra d
ra zinamide
um or
12 300
12 80
Ġ10 489
Ġ10 5861
Ġ10 788
Ġ10 259
Ġ10 598
Ġ10 196
Ġ12 002
Ġ12 299
Ġ12 588
Ġ12 263
Ġis op
11 19
11 61
11 82
ph aryngeal
01 87
01 82
01 772
Ġ13 557
Ġ13 177
Ġ14 186
Ġ14 187
Ġ14 494
07 10
07 09
07 18
07 21
03 14
03 37
03 53
03 221
el ev
05 06
05 47
05 37
05 81
09 58
06 309
06 360
02 79
02 85
04 00
04 12
04 50
04 32
04 52
04 69
04 82
io phen
Ġu cer
Ġ15 486
Ġ15 459
Ġ15 239
Ġ15 103
Ġ11 387
Ġy ester
Ġed ent
Ġprev ident
Ġ17 427
Ġ17 197
uc e
Ġst ones
Ġ19 179
Ġ19 367
ot umor
25 35
25 41
25 71
25 472
18 85
19 13
19 45
Ġlo tion
17 88
17 69
17 66
16 32
14 05
14 24
13 29
28 01
28 24
28 53
28 69
28 63
27 26
ther petic
24 05
24 89
24 66
29 25
Ġe vent
Ġe quip
Ġe locon
26 26
23 02
22 26
22 088
22 005
ut ane
Ġth ior
Ġpl ants
78 262
78 099
45 03
45 58
45 41
45 385
cl onidine
59 48
49 18
49 47
ex tension
39 92
56 18
56 90
46 32
38 84
47 71
40 12
36 59
36 79
35 11
35 45
42 29
57 16
32 01
32 19
32 13
37 40
37 68
37 70
43 20
ht p
44 48
44 42
33 24
34 12
52 124
Ġ110 800
Ġcef din
Ġpiper idine
Ġ118 34
Ġ112 04
Ġ112 14
Ġ112 993
Ġ108 28
Ġ108 38
Ġsur guard
Ġ125 39
Ġ128 09
Ġ128 47
Ġ122 26
Ġ116 16
Ġ106 12
Ġ106 24
Ġ104 11
Ġ104 47
Ġhead bleed
Ġ124 38
88 63
Ġ109 23
Ġ126 05
Ġ126 89
Ġ126 914
Ġ115 15
Ġ115 16
Ġ115 14
Ġ115 26
79 20
79 311
Ġ105 08
Ġ105 12806
Ġ117 23
Ġ114 15
Ġ114 78
Ġ119 45
Ġ111 19
Ġ111 88
Ġ127 13
Ġim ipenem
Ġ123 00
Ġ123 25
Ġ123 15
Ġ123 13
Ġ123 47
Ġ129 03
Ġ113 05
Ġ113 48
Ġ138 06
Ġ138 92
Ġ136 28
Ġ136 89
Ġ136 203
Ġ135 07
Ġ134 07
Ġ134 04
89 78
89 96
Ġ137 00
Ġ137 19
Ġ139 89
Ġ139 69
Ġ140 12
Ġz mt
Ġcent ury
Ġcor ns
Ġso y
Ġ146 12
Ġ148 56
Ġ148 68
Ġ148 411
Ġ144 11
Ġ144 24
Ġ147 44
200 2
Ġ149 03
99 01
99 96
99 72
Ġ156 388
Ġ156 328
Ġ154 09
Ġ154 14
Ġ154 37
Ġ153 78
Ġ155 59
68 11
68 17
68 56
Ġ158 08
az o
Ġ157 67
Ġet c
Ġmal form
69 08
66 01
Ġ168 14
Ġ168 608
Ġ166 46
Ġ169 34
Ġ169 68
Ġ167 57
Ġ163 35
Ġ163 37
ov ite
Ġexp sr
289 5
77 48
Ġsil hou
Ġ179 24
76 27
Ġ178 18
Ġ178 49
Ġ176 07
427 2
Ġreli eving
96 509
xen azine
Ġ174 36646
Ġsel zentry
Ġ175 47
Ġdu ple
097 1
097 4
097 5
84 29
part ner
Ġ186 08
Ġ186 55
Ġcereb ri
Ġ189 359
65 22
197 5
Ġ187 59
cent any
Ġ188 79099
300 6
Ġ185 29
62 08
62 09
459 66
arth rotec
75 50
93 04
Ġ196 46
iliz umab
Ġ197 48
Ġ198 27
Ġcal los
Ġpy razinamide
Ġ195 02
Ġ195 78
Ġgallst ones
Ġ192 07
400 22
202 0
Ġscler osing
nov um
Ġrecur r
Ġop acities
415 1
415 4
325 2
439 1
439 8
614 52
508 4
309 28
106 24
anx iolytc
Ġlute um
254 12
Ġpos therpetic
823 32
Ġsnow board
026 08
267 54
293 06
Ġ1439 5
626 33
815 02
539 09
Ġ1747 3651
Ġ1747 5607
Ġ1902 3118
Ġ1413 0048
Ġ1616 4188
Ġ1813 1667
Ġ1855 1091
Ġintr athor
Ġ1300 9233
Ġ1510 8590
bri um
post par
Ġ1655 3329
Ġpuer p
tur meric
Ġ1110 7643
psych stimulant
Ġ1885 3762
Ġ1754 2848
Ġgland s
Ġpedic le
Ġpolym yalgia
Ġspl itter
Ġretro pharyngeal
Ġtru etest
Ġbrom fenac
Ġspond ylitis
Ġker lix
ylo sing
under garment
Ġsalping o
Ġpseud otumor
Ġank ylosing
Ġdetach ment
Ġ12789 108
Ġ19786 784
Ġ14448 385
Ġ15345 462
nu edexta
Ġ17325 614
Ġ16399 025
Ġ17207 245
Ġ11068 569
Ġsedat v
Ġ12343 035
Ġ15656 571
Ġinvolv ement
Ġrheumatic a
Ġ10747 238
Ġchor ionic
Ġtampon ade
clean sing
ons yl
Ġsph ingosine
Ġepicond ylitis
ino gens
Ġstre et
halluc inogens
Ġ149938 54
pc sk
atis se
Ġ179428 17
Ġmurmur s
numb ness
tac hy
Ġapra clonidine
Ġasphy x
myco butin
Ġsad dle
Ġsublux ation
cilast atin
atten uated
Ġstic k
Ġcum ulative
Ġcicles onide
Ġtoc ilizumab
Ġacap ella
Ġ105861 12
Ġucer is
Ġyester day
Ġthior idazine
Ġcefdin ir
Ġ112993 26
Ġsilhou ette
Ġcallos ities
3 20
9 189
9 298
9 363
b es
c ert
f re
i ation
j unct
m ix
m igr
m ycamine
n ing
n asa
n orpace
o as
p seud
s z
t w
v io
w he
Ġ '
at ch
at acand
re medy
in r
Ġa uric
ol mesartan
ol enic
Ġs d
Ġs scp
the rap
00 09
00 85
Ġd ome
st ar
Ġc as
Ġc el
Ġre q
Ġf t
Ġsy mbyax
Ġh anging
an emia
Ġv est
Ġv ocal
is ometh
is ocor
ist ic
Ġan isocor
Ġ16 019
Ġ16 789
Ġ16 200
Ġ16 787
Ġ16 097
Ġ16 392
Ġ16 269
Ġ16 386
Ġ16 169
Ġ16 286
Ġ16 237
Ġ16 027
Ġ16 285
Ġ16 256
Ġ16 095
Ġl aby
Ġ18 418
Ġ18 300
Ġ18 039
Ġ18 005
Ġ18 148
Ġ18 393
Ġ100 29
Ġ100 45
Ġ100 48
Ġ100 562
12 48
12 99
12 84
Ġ12 079
Ġ12 799
Ġ12 569
Ġ12 1010
Ġ12 137
Ġ12 279
ph an
01 48
01 51
01 43
Ġg ammagard
Ġ13 799
Ġ13 159
Ġ13 266
Ġ14 199
Ġ14 147
Ġ14 464
07 14
07 13
07 38
03 05
el ex
el astic
el nor
05 51
05 54
05 79
05 76
09 01
09 25
09 33
06 21
06 59
06 42
02 15
02 20
04 67
04 71
04 73
Ġ15 002
Ġ15 557
Ġ15 587
Ġ15 474
Ġed ecrin
Ġ17 787
Ġ17 139
Ġ17 059
Ġ17 046
Ġ17 374
Ġ17 886
Ġst alevo
Ġ19 414
Ġ19 1011
Ġ19 299
Ġ19 038
Ġ19 093
Ġ19 575
Ġal kal
Ġal away
Ġal bumin
25 27
25 24
25 48
18 12
18 50
18 34
18 99
18 64
18 80
19 26
19 47
19 82
15 04
15 23
15 56
15 92
15 64
Ġwh en
17 00
17 12
17 20
17 32
16 12
16 08
16 15
16 43
16 74
14 00
13 20
13 80
28 49
28 83
27 16
27 28
27 38
27 82
24 41
29 31
29 35
im ent
26 20
26 50
26 44
26 62
23 80
22 02
li brium
Ġab sence
Ġr idd
78 14
78 57
cop axone
45 788
vul sion
59 26
59 54
Ġprot amine
sy mlinpen
49 13
49 62
58 13
58 27
58 22
58 44
58 52
58 89
ex jade
Ġbl dg
39 20
39 32
39 81
39 87
39 98
48 05
48 21
56 13
56 69
56 66
56 600
46 11
46 03
46 93
38 45
38 49
38 36
38 63
55 25
55 29
Ġsh ov
36 15
36 58
36 34
36 76
36 72
36 80
35 78
42 06
37 923
37 673
43 25
43 47
43 35
43 004
54 03
54 25
52 109
53 23
Ġ110 24
Ġ110 55
Ġ110 69
Ġ59 1
100 71
Ġsuper ior
Ġ118 93
Ġ112 17
Ġ112 55
Ġ112 89
Ġ108 19
Ġ108 79
Ġ108 829
Ġ128 49
Ġ128 829
Ġ122 11
Ġ116 05
Ġ106 57
Ġ106 88
Ġ106 89
Ġ106 858
Ġ106 11631
Ġ104 46
Ġ109 15
Ġ109 16
Ġ109 817
Ġ109 647
Ġ126 23
Ġ126 92
Ġ115 11
Ġ115 28
Ġ115 46
79 35
Ġ105 14
Ġ117 00
Ġ117 37430
Ġ114 07
Ġ114 242
Ġ119 00
Ġ119 17
Ġ119 86
Ġ111 57
Ġ127 06
Ġ127 39
Ġ123 07
Ġ123 16
Ġ123 44
Ġ132 09
Ġ129 53
Ġ129 82754
Ġ113 47
int ubated
Ġ136 03
Ġ133 24
rin thitis
Ġ134 14
89 63
89 71
Ġto es
Ġ137 01
Ġ137 59
Ġ137 76
Ġ139 08
Ġ139 44
Ġ139 33
Ġ139 96
019 1
019 8
Ġ142 10
Ġ142 07
Ġ142 15
Ġ142 16
Ġ142 24
Ġra king
Ġ146 26
Ġpoly substance
Ġ148 09
Ġ148 19
Ġ148 26
Ġ148 47
Ġ144 13
Ġ144 45
Ġ145 02
Ġ145 23
Ġ145 36
Ġ143 03
Ġ143 05
Ġ143 23
Ġ143 35
pre g
press ive
Ġ147 14
Ġ147 78
Ġ147 45
chlor aseptic
Ġ149 04
Ġ149 18
vir us
99 09
99 46
ins uln
Ġ156 29
Ġ155 06
Ġ155 02
Ġ158 12
Ġ158 37
Ġ158 203
Ġadult s
az inc
Ġ157 26
Ġ157 45
Ġsw eat
Ġ159 26
Ġ159 59
Ġ159 37
Ġ159 43
Ġ159 86
109 8
usion s
87 04
cy st
69 53
Ġcyclo pent
Ġstr k
dio x
Ġ* *
azol ine
66 29
66 56
66 51
66 63
Ġgluc agen
Ġ166 05
Ġ166 04
Ġ169 05
Ġ169 66
Ġ167 03
Ġ167 09
Ġ167 510
Ġ163 56
Ġ162 24
Ġ165 17
77 31
129 7
Ġbul gar
Ġdig ging
Ġ179 09
Ġ179 45
Ġ179 38
Ġ179 67
osin ophil
76 12
76 78
76 57
179 8
Ġ178 04
Ġ178 219
Ġ176 35
Ġ176 79
Ġ177 09
Ġ177 69
92 27
antic onvulsant
Ġ173 59
Ġ174 45
Ġ174 42
Ġ175 46
Ġ175 45966
719 2
85 48
Ġ186 07
Ġ186 02
Ġ186 26
Ġ189 18
Ġ189 26
Ġ189 39
Ġ189 36
812 5
max zide
Ġ187 11
Ġ187 34
enter itis
Ġ188 04
Ġ185 02
Ġ185 04
tra ff
Ġ183 24
Ġ183 59
62 05
62 15
Ġ184 35
Ġ199 36
63 45
Ġconst ric
64 25
72 09
73 50
414 7
93 19
428 4
Ġoverexertion s
Ġarter io
Ġ197 26
Ġ198 23
Ġmes enteritis
Ġlevonor g
Ġ195 24
Ġ193 17
Ġps oas
Ġ194 00
Ġ194 08
Ġ194 37
569 5
569 49
Ġmax air
thes ias
121 10
999 21
del yn
Ġdes owen
108 11
612 31
518 51
529 2
828 2
828 72
Ġthr ush
536 9
325 35
439 9
pel vic
Ġaut istic
dextro se
hem orrhag
Ġvehic le
Ġpac erone
Ġms l
519 3
825 22
Ġovar ies
sor iatane
139 19
823 91
Ġantipsoriatic s
816 2
Ġorig in
flu oxetine
567 23
rap aflo
Ġ1623 3
626 17
294 11
Ġergot amine
Ġ1229 4892
Ġ1058 3763
Ġchondro calcin
Ġ1809 2465
Ġ1339 2866
Ġ1817 0845
Ġ1200 6801
Ġ1524 8757
Ġ1137 2027
842 13
Ġ1827 4437
Ġ1502 2658
423 02
Ġ1405 1432
Ġ1458 8689
Ġ1997 2786
Ġ1429 5224
Ġfam ily
Ġ1906 8326
Ġ1896 5721
Ġ1806 5731
324 92
Ġ1735 3548
Ġneph plex
Ġ143949 62
Ġ1854 0052
Ġ1734 0686
Ġtru eplus
Ġdim er
Ġnephro pathy
705 83
Ġdem adex
Ġretroper itoneum
Ġgan gre
Ġ1232 1369
Ġcarcin oid
Ġ18618 203
Ġdefect s
rid r
Ġ13833 237
Ġ18339 865
Ġathlet e
Ġabsc s
emp ic
Ġ19438 264
Ġ10659 023
Ġ13306 568
Ġ14997 223
Ġ11948 145
Ġ17405 009
Ġdul aglutide
lory na
gam olenic
Ġ14835 486
Ġ17882 272
Ġ18653 563
Ġ19855 099
Ġrect os
Ġdiscolo ration
Ġani ml
Ġprophyl actic
ypto phan
Ġhypoglyc emi
Ġinflamm ation
Ġ1895 7860
Ġ110848 12
bup roban
Ġlew ey
pregn ant
Ġcerebrovasc ular
Ġ178323 11
Ġ177169 53
Ġ112969 36
Ġ133254 02
Ġ179212 62
Ġoz empic
Ġvine gar
therap eutic
Ġanisocor ia
Ġlaby rinthitis
Ġ100562 23
Ġridd en
Ġshov eling
Ġ114242 23
Ġcyclopent olate
hemorrhag ic
4 476
6 1032
7 20
7 48
7 79
7 531
7 021
9 158
9 4321
b ad
c el
d iet
g i
i uria
k alexate
l en
o resis
t ag
x ult
Ġ istalol
as onale
Ġw and
in ated
in nopran
ic aps
Ġa yr
ol ing
ure acin
Ġb ph
Ġb ot
Ġb ab
Ġb ort
Ġb ond
Ġb ilb
Ġb anzel
00 29
00 59
00 36
00 43
Ġd alt
Ġdi f
Ġdi flor
Ġc ider
Ġre xult
no pausal
ul able
Ġf iring
es iosis
ar ms
om efolate
en alog
en ya
10 59
10 99
Ġant conv
ep arin
Ġ16 786
Ġ16 486
Ġ16 458
Ġ16 039
Ġ16 296
Ġ16 103
Ġ16 279
Ġ16 579
Ġ16 096
Ġ18 189
Ġ18 069
Ġ18 499
Ġ18 299
Ġ18 567
Ġ18 086
ec ycline
ra dipine
ri f
Ġ100 11
Ġ100 03
Ġ100 99
Ġ100 95
Ġ100 307
ac aine
Ġ5 25
12 15
12 27
12 42
12 53
12 120
Ġ10 786
Ġ10 488
Ġ10 476
Ġ10 248
pl etal
Ġta fin
Ġ12 097
Ġ12 136
Ġ12 036
Ġis radipine
Ġdispos al
11 41
11 66
11 83
11 75
11 80
hib iclens
01 77
Ġg ose
Ġ13 188
Ġ13 889
Ġ13 232
08 05
08 09
08 35
08 77
08 61
Ġ14 019
Ġ14 566
Ġ14 599
07 16
07 23
07 57
07 32
07 43
03 97
03 75
el ate
05 44
05 41
05 77
05 329
05 62
09 36
09 32
09 53
06 12
06 78
06 66
06 71
02 26
02 39
04 07
04 16
04 39
04 40
04 68
04 98
Ġ15 189
Ġ15 4659
Ġ15 998
Ġ15 389
Ġ15 286
Ġ15 273
Ġ11 392
Ġ11 797
Ġ11 599
Ġar f
Ġar nica
Ġ17 589
Ġ17 367
Ġ17 887
if orm
Ġ19 276
Ġ19 098
Ġ19 898
Ġ19 145
il enya
Ġi q
25 00
25 09
25 83
18 40
19 08
19 59
Ġch lam
atin um
15 40
15 53
15 61
15 71
15 70
15 91
17 04
Ġpro g
16 14
16 93
14 23
14 65
13 00
13 11
13 56
13 83
28 08
28 18
28 22
28 61
28 60
27 48
27 40
27 89
24 02
24 31
24 59
24 64
29 11
29 02
29 57
29 54
26 59
26 69
26 84
26 83
ax el
23 00
23 29
23 43
23 70
ult rac
22 06
Ġbeta pace
Ġbenz aclin
Ġhyd rol
tron ic
Ġnon tox
Ġmult istix
Ġpl atinum
ox in
ox sal
78 28
78 84
Ġhyper coag
45 20
45 42
45 37
45 182
59 03
59 30
59 68
59 87
sy mpatholytics
mat rol
49 29
49 21
Ġk enalog
39 04
39 56
39 67
but ex
Ġne urop
48 25
48 66
56 22
56 49
56 75
46 07
46 55
46 87
46 77
46 75
38 30
38 97
55 14
55 41
55 71
47 12
47 46
47 96
47 60
40 10
Ġelec tronic
36 11
36 26
36 45
36 53
35 08
me galy
me nopausal
42 021
57 57
57 490
32 15
37 22
37 32
37 33
37 52
37 96
di x
43 40
43 222
44 26
44 22
34 27
34 38
52 11
52 28
52 26
53 08
53 07
53 45
41 004
Ġtr ivora
ig otine
Ġ118 85
Ġchlor aseptic
Ġ112 02
Ġ108 12
Ġ108 57
Ġ128 89
Ġ116 07
Ġ116 59
Ġ116 55
Ġ106 13
Ġ106 79
Ġ106 69
Ġ106 86
Ġ103 24
Ġ104 15
Ġ124 19
Ġ124 29
88 17
88 36
Ġ109 52
Ġ109 89
Ġ126 06
Ġ126 45
Ġ126 41004
Ġ115 08
Ġ115 38
79 47
79 36
79 88
79 85
79 83
Ġ105 25
Ġ105 29
Ġ105 58
Ġ105 33
Ġ117 26
Ġ117 44
Ġ114 18
Ġ114 49
chloro xy
Ġ107 03
Ġ107 79
Ġ111 45
Ġ111 538
Ġ111 814
Ġ111 32535
Ġ127 28
Ġ127 22
Ġ127 45
Ġ130 10
Ġ132 05
Ġ132 13
Ġ129 28
Ġ129 39
Ġ129 93
Ġ113 27
Ġ138 14
Ġ138 28
Ġ138 45
Ġ138 48
Ġ138 64
Ġ136 46
Ġ136 81703
Ġ133 26
Ġ135 37
Ġ135 104
Ġcol azal
89 37
Ġ137 27
Ġ137 36
Ġ137 64
Ġ139 16
Ġ139 49
Ġ139 48
019 6
Ġtar ceva
Ġ146 58
Ġ146 39
Ġ146 56
eno megaly
Ġ148 15
Ġ148 27
Ġ144 46
Ġ143 17
Ġ143 29
Ġ143 48
Ġald ara
200 9
Ġ149 39
Ġ149 95
Ġ149 98
Ġ149 816
cal phron
99 20
99 99
99 64
81 12
Ġepi glo
Ġfl r
Ġfl acc
Ġmel atin
Ġ156 13
Ġ152 19
Ġ154 08
Ġ153 27
Ġ153 26
Ġ155 25
67 09
67 53
68 60
Ġ158 79
Ġ158 75
az elex
Ġver amyst
Ġ157 23
Ġ157 79
adrenoc pt
Ġ159 45
Ġvis ine
87 08
87 65
87 364
lop e
ver y
69 61
Ġmeth oxsal
Ġmy algias
66 49
66 47
calc io
uv e
Ġ168 3
Ġ168 657
Ġ166 4
Ġ166 17
Ġ166 26
Ġ166 35
Ġ169 2
Ġ169 48
Ġ162 18
Ġ164 25
Ġ164 27
Ġ165 24
Ġexp lo
86 55
289 81
724 92
gast roc
77 07
77 02
77 25
77 27
Ġsil vadene
787 6
129 2
Ġnar can
305 1
Ġ179 8
Ġ179 07
Ġ179 13
Ġ179 539
76 18
76 48
76 54
Ġ178 68
Ġ176 48
Ġ176 088
Ġ177 47
82 198
Ġ172 15
Ġ173 15
Ġ173 27
Ġ173 26
Ġ173 55
96 79
Ġ175 17
Ġ175 16
Ġ175 56
Ġ175 36
719 3
97 17
Ġlith obid
Ġ186 09
Ġ186 38
197 4
Ġ187 27
Ġ187 514
Ġ185 28
Ġ185 24
Ġ185 138
Ġ183 56
Ġ182 09
Ġ182 18
Ġ184 09
Ġ184 369
628 8
Ġ199 06
Ġ199 18
63 18
63 19
Ġpancre at
Ġconst ulose
Ġmic ros
414 0
414 1
75 00
75 06
75 19
75 15
75 14
Ġ196 00
Ġ196 15
Ġ196 48
Ġpept ide
dex ameth
80 106
Ġ197 00
Ġ197 57
Ġ197 48558
Ġ198 53
Ġsubst nc
927 5
Ġ195 17
Ġ195 27
94 09
94 22
methyl in
788 14
788 29
847 7
Ġazel ex
rop athy
802 25
802 21
589 5
Ġacetamin ophn
110 1
98 53
Ġlightheaded ness
Ġiud s
813 54
ped iatric
566 90
296 23
Ġve get
807 07
Ġop ana
Ġlymph angitis
Ġbo oster
Ġair go
116 10
Ġprof it
meth adose
049 50
Ġanorexia nt
Ġgran ise
429 1
Ġquin azoline
met oprolol
Ġent ocort
Ġacetyl carnitine
939 4
hr b
235 39
inter feron
Ġfort amet
Ġpol len
Ġrob afen
Ġ1889 7036
Ġ1899 5451
727 09
727 04
Ġ1356 1687
Ġ1789 6
Ġ1789 0530
Ġrid ge
Ġ1305 1530
Ġ1817 2623
Ġ1304 4775
Ġ1916 6723
Ġcord ran
Ġ1647 7848
Ġ1505 6964
842 19
Ġ1336 2925
423 01
402 11
Ġ1725 7394
966 51
966 52
Ġ1248 4308
Ġ1423 6258
Ġ1712 8602
Ġ1414 2424
Ġ1249 7922
Ġ1659 2995
Ġ1357 3314
Ġ1738 5589
868 12
Ġ1028 7348
Ġ1919 3882
Ġappl iance
Ġ1244 0965
apl ex
lact is
Ġfur uncle
Ġspl enomegaly
Ġliqu igel
cep astat
844 30
Ġile ostomy
Ġdur ing
Ġrot igotine
glut ose
Ġbar rier
Ġadap t
Ġcorros v
Ġlacer ations
dure zol
Ġ17123 392
Ġdevelop mental
Ġsunscre en
Ġfrag min
Ġ18929 366
Ġ11079 785
Ġ11276 090
Ġ11243 340
Ġ11714 071
Ġ15866 635
Ġ17610 192
fam vir
def ined
sut ures
Ġbacter iuria
Ġ10595 272
Ġ17889 551
Ġmaln utrition
Ġ19907 884
Ġ160436 37
Ġ16228 838
Ġvio k
Ġ19624 082
Ġ123858 57
Ġ15938 562
Ġ18344 237
Ġ11303 674
Ġ14214 341
Ġembol us
ez omib
Ġ12574 098
Ġ15255 487
Ġ12208 824
Ġ13901 573
Ġ19343 087
Ġprin ivil
Ġ10144 083
Ġ15293 444
Ġtrex all
Ġexerci se
Ġ139998 29
Ġmand elate
Ġ13063 188
Ġdeh isc
Ġtig ecycline
Ġedent ulous
Ġequip ment
Ġ148411 68
migr aine
pseud ocyst
Ġauric le
Ġ128829 85
Ġ109817 25
Ġ167510 19
Ġconstric tion
Ġbab esiosis
Ġbort ezomib
Ġbilb erry
Ġdalt eparin
Ġdiflor asone
Ġrexult i
Ġantconv l
Ġtafin lar
Ġgose relin
Ġchlam y
Ġhydrol atum
Ġhypercoag ulable
Ġ135104 13
Ġmethoxsal en
gastroc rom
Ġ185138 09
Ġgranise tron
' m
3 21
4 139
5 130
8 363
8 5698
9 483
9 051
? ,
b ag
i bular
k ins
m ex
m ies
m ycin
m ig
m ech
n al
n kinetic
s olaraze
s onata
t ose
t ty
t mt
x b
y t
y gestin
Ġp ep
in ist
Ġa ygestin
Ġs qu
Ġs anctura
res e
Ġ2 41
Ġb ath
00 56
00 51
00 44
00 67
st alevo
Ġdi ar
al b
al yn
al vesco
al levyn
al diox
or chitis
or azinc
no rethindrone
em inated
Ġm ul
Ġm ask
Ġf ergon
an olate
an apt
id el
Ġin tern
ag rel
10 25
10 44
Ġant abuse
Ġan agrel
hi zent
ia nt
Ġ16 045
Ġ18 724
Ġ18 106
Ġ18 049
Ġ18 889
Ġ18 399
Ġ18 366
Ġ18 377
Ġ18 898
Ġ100 18
Ġ100 89
us il
ad nx
12 14
12 35
12 62
12 60
12 75
Ġ10 100
Ġ10 188
Ġn u
Ġn iz
Ġn ucynta
Ġn vd
Ġ12 019
Ġ12 188
Ġ12 239
Ġ12 177
Ġ12 568
Ġ12 283
Ġis osource
01 38
01 36
01 41
01 71
Ġg rim
Ġg ood
Ġ13 189
Ġ13 458
Ġ13 098
Ġ13 297
Ġ13 473
08 01
08 07
08 39
08 88
08 84
08 93
Ġ14 269
Ġ14 127
Ġ14 222
Ġ14 257
07 69
03 09
03 49
03 41
03 77
05 78
05 35
05 69
05 82
05 73
02 29
02 58
02 56
02 35
02 89
04 22
04 112
04 93
Ġu ropathy
Ġ15 135
Ġ15 357
Ġ15 095
anc ing
Ġ11 489
Ġ11 597
am po
Ġy elling
Ġarr hythmias
Ġ17 489
Ġ17 112
Ġ17 029
Ġ17 569
Ġ17 166
Ġ17 397
le y
Ġam pyra
Ġ19 197
Ġ19 329
Ġ19 010
Ġ19 589
Ġ19 048
Ġ19 599
Ġ19 565
Ġ19 687
Ġ19 697
ot on
Ġen presse
Ġmar i
25 05
25 54
25 86
25 97
25 64
25 94
25 74
25 471
18 59
18 42
18 37
18 44
18 60
19 11
19 31
19 48
19 56
19 87
15 31
17 29
17 56
17 51
17 53
17 64
16 11
16 03
16 24
14 96
13 26
13 31
13 57
13 87
13 61
28 10
28 14
28 33
27 69
27 96
24 16
24 13
24 95
29 50
29 68
29 94
29 281
26 48
26 43
26 97
23 03
23 55
23 47
23 98
Ġlan d
oc ard
50 10
Ġab atacept
Ġth i
Ġth ick
yp t
45 21
45 34
iaz ac
ne o
59 78
49 80
58 15
58 58
58 47
Ġk ionex
39 25
39 13
39 26
39 39
39 47
39 89
dia mox
48 55
48 61
48 70
56 03
56 25
56 84
46 487
38 09
38 78
Ġlev omefolate
55 22
47 30
47 24
47 40
Ġsh ampo
40 11
36 08
36 73
36 70
42 13
42 031
57 02
57 04
57 48
57 93
57 91
37 25
37 31
37 53
37 91
43 05
43 14
43 13
43 49
44 12
44 19
44 47
33 11
34 03
54 29
54 43
52 021
53 02
53 04
53 47
Ġ110 12
Ġ110 23
Ġ110 63
hydro cort
Ġ102 03
Ġtr tmt
Ġcy t
Ġcarb onates
Ġ118 79
Ġ118 89
Ġ112 08
Ġ112 427
Ġ108 27
ones sa
Ġ125 27
Ġ128 67
Ġ128 96
Ġ122 24
Ġ116 24
Ġ116 69
Ġ106 11
Ġ106 39
Ġ104 10
Ġ104 17
Ġ124 05
Ġ124 14
Ġ124 78
88 54
Ġ109 29
Ġ109 48
Ġ126 29
Ġ126 38
Ġ126 065
Ġ115 29
79 16
79 319
Ġ105 00
Ġ105 07
Ġ105 59
Ġ117 08
Ġ117 16
Ġ117 28
Ġ117 24
Ġ107 49
Ġ119 26
Ġ111 68
Ġ127 54
Ġ123 06
Ġ123 58
Ġ123 46
Ġ123 32
Ġ132 00
Ġ132 15
Ġ129 09
Ġ129 88
Ġ113 18
Ġ138 6
Ġ138 97
Ġ136 69
Ġ136 02608
Ġ135 43
Ġ135 05226
Ġ134 10
Ġ134 45
89 19
89 94
Ġ137 78
Ġ139 26
Ġ139 78
Ġ139 54
Ġj ump
Ġz yv
Ġz estoretic
019 35
Ġsol id
Ġ146 11
Ġ146 07
Ġ146 13
Ġ146 47
Ġ146 77
Ġ148 79
Ġ148 303
Ġ144 00
Ġ144 26
Ġ144 47
Ġ145 12
Ġ143 12
Ġ143 09
Ġ143 44
Ġald actazide
Ġ147 4
Ġ147 11
Ġ147 58
Ġ147 13919
786 01
Ġ149 05
Ġ149 75
Ġsleep in
99 11
99 14
99 28
99 45
99 82
Ġ156 07
Ġ156 46
Ġ152 23
Ġasc orbate
Ġ154 03
Ġ154 06
Ġ154 24
Ġ154 065
umb ar
Ġ155 19
Ġ155 23
Ġ155 39
Ġ155 38
68 36
Ġ158 18
Ġ157 00
Ġ157 08
Ġpen nkinetic
sin us
Ġ159 29
Ġ159 74
Ġ159 579
Ġ159 245
av onex
87 37
87 33
Ġmal tose
Ġel idel
Ġdilt ia
Ġmy ocarditis
119 5
66 68
Ġro ut
Ġ168 2
Ġ168 00
Ġ168 07
Ġ168 25
Ġ168 45
Ġ168 79
Ġ166 06
Ġ166 02
Ġ166 79
Ġ169 37
Ġ169 79
Ġ169 67
Ġ167 04
Ġ163 14
lev ora
Ġ162 07
Ġ162 05
Ġ164 25412
Ġ165 23
Ġ165 46
Ġ165 47
Ġ165 00918
Ġep sd
86 30
86 35
729 9
724 42
77 69
77 62
77 64
77 75
Ġpar aph
Ġsil tussin
787 2
305 70
Ġbic eps
Ġ179 86
Ġ179 77
179 5
Ġ176 29
Ġ176 45
Ġ176 59
Ġ170 11
Ġ177 00
Ġ177 45
Ġ177 49
92 24
82 032
Ġdysf unct
418 4
Ġ172 02
Ġ173 47
Ġ173 43
96 14
96 24
Ġsl eping
carb amide
97 33
486 4
Ġeth anolate
84 35
Ġ186 00
Ġ186 327
83 028
Ġped is
Ġari xtra
Ġ189 16
Ġ189 48
Ġ189 69
Ġ189 498
Ġ189 043
812 7
197 3
Ġov a
max air
Ġ187 436
Ġ188 47
Ġ188 36
Ġ188 37
Ġ188 54
300 02
Ġpost menopausal
cell ulitis
Ġ183 78
62 29
Ġ182 23539
Ġ184 03
628 7
Ġ199 23
Ġ199 78
Ġ199 009
63 49
71 10
64 09
64 47
Ġq t
73 59
73 49
93 22
Ġ196 88
Ġ196 075
Ġvacc ines
029 5
Ġ198 08
Ġ198 58
Ġ198 47
Ġcal phron
Ġ195 06
Ġ195 19
74 11
74 06
Ġ194 03
Ġ194 25
Ġ194 057
589 1
319 1
del ta
del tasone
110 3
mag tab
95 20
Ġpeg interferon
Ġthor aco
845 2
349 8
Ġover night
Ġwhe y
345 2
728 18
ussion ex
346 4
346 5
Ġjaw s
lycop n
prom etrium
poly m
vag ina
208 00
525 8
Ġsut ent
519 8
519 23
299 80
009 87
825 2
703 8
488 31
mot or
Ġsed ation
501 3
137 06
ps ia
452 29
proct ocream
114 23
165 05
036 55
117 58
Ġduct s
evac or
Ġhaw thorn
384 25
244 48
abd om
cort izone
Ġ1688 3
tt itis
Ġ1899 4
Ġ1515 1778
chondroit n
886 43
Ġ1514 6009
Ġ1215 1259
503 96
808 41
Ġ1204 3836
Ġ1836 9403
Ġrt nop
sol id
Ġ1703 5637
Ġ1936 7303
Ġ1824 0149
422 01
arom asin
Ġ1753 5980
vas ive
antihyper ten
Ġcalcane al
804 34
317 09
9200 1
9200 9
Ġspl inter
Ġliqu acel
855 28
Ġfire arms
6200 2
Ġ1542 1879
br f
depend ent
Ġfollic le
Ġmek inist
flor anex
Ġging iva
mv c
Ġ13786 783
atid ine
Ġalve olus
Ġduoden al
Ġadrenoc eptor
propar acaine
Ġ13503 272
Ġ18212 177
fam ily
Ġ12934 024
Ġmedi astinum
Ġmaln utr
Ġ18679 418
chem o
Ġepididy mo
Ġ16639 088
Ġ15848 257
Ġ18826 698
Ġ10025 268
Ġ17825 043
Ġ10246 275
Ġ13294 123
hypot ension
Ġ14064 131
letharg y
Ġ12600 024
Ġ1383 1972
Ġchloro quine
Ġ196258 08
Ġ18895 472
Ġphosphatid yl
Ġ156139 28
Ġ164119 26
Ġdant rolene
Ġ168608 25
Ġasphyx iation
Ġcas odex
Ġcel iac
Ġvest ibular
Ġ121010 85
Ġ106858 94
Ġrectos igm
tag amet
Ġwand ering
Ġ111538 42
Ġ111814 60
Ġ184369 61
mech anical
Ġanagrel ide
hizent ra
Ġniz atidine
Ġ112427 42
Ġzyv ox
Ġparaph aryngeal
+ -
- .
2 113
3 000
3 2011
4 030
4 4321
5 566
6 001
6 0889
8 070
8 182
8 588
8 171
9 00
9 081
9 290
b ion
b ex
b rain
c ation
d riasis
f rm
f prin
i olytic
l asia
n itor
s oral
t as
z quil
z asin
as ox
re usable
in tron
Ġa ids
Ġa vulsion
ol ithiasis
Ġs g
Ġs ial
Ġs olaraze
lo prox
lo rad
res oft
od enitis
Ġ2 45
00 14
00 58
00 37
00 63
Ġd rink
Ġd ucodyl
Ġd ramamine
it ate
it ab
Ġdi phen
Ġdi asox
Ġat ra
no c
Ġo ophoritis
em end
Ġm orph
se al
Ġno x
Ġf u
ar se
Ġad ipex
Ġin spra
Ġin ositol
Ġin noc
ag ia
om fort
et er
10 36
10 81
10 63
10 71
Ġan im
Ġmedic ool
Ġ16 129
Ġ16 197
Ġ16 239
Ġ16 106
Ġ16 249
Ġ16 146
Ġ16 385
Ġ16 187
Ġ16 576
Ġ18 029
Ġ18 589
Ġ18 028
Ġ18 588
Ġrece iver
Ġ100 33
Ġ100 96
Ġ100 26754
ac zone
Ġ5 23
Ġ5 43
12 25
12 40
12 67
12 61
12 82
Ġ10 379
pl eflex
Ġ12 289
Ġ12 579
Ġ12 267
Ġ12 167
Ġ12 369
Ġ12 165
Ġ12 275
Ġ12 265
Ġ12 148
Ġ12 233
11 89
11 63
01 30
01 31
01 52
01 86
01 65
Ġ13 004
08 04
08 17
08 50
08 85
08 75
Ġ14 097
Ġ14 296
Ġ14 1110
Ġ14 389
Ġ14 126
Ġ14 586
Ġ14 454
Ġ14 094
07 12
07 30
07 45
07 65
03 19
03 78
03 56
03 76
05 05
05 16
05 87
09 50
09 47
06 05
06 16
06 20
06 58
06 37
06 63
02 06
02 17
02 14
02 36
02 99
04 09
04 31
04 75
ant ial
Ġ15 200
Ġ15 279
Ġ15 996
Ġ15 167
Ġ11 458
Ġ11 569
Ġ11 496
Ġ11 389
Ġ11 433
Ġ11 498
Ġ11 399
Ġ11 793
Ġ11 004
ur t
ur and
Ġchief ly
ch en
Ġ17 459
Ġ17 276
Ġ17 1012
Ġ17 116
Ġ17 159
Ġ17 287
Ġ17 277
Ġ17 196
Ġ17 396
Ġ17 466
uc tion
py ge
Ġhy omax
Ġ19 489
Ġ19 458
Ġ19 025
Ġ19 252
Ġ19 067
hy ophen
Ġen vir
ab l
25 04
25 58
25 38
25 88
25 87
25 82
25 003
18 55
18 52
19 30
19 41
19 69
15 11
15 37
15 73
15 80
gu iatuss
17 63
16 47
16 35
16 51
16 81
16 92
16 80
14 13
14 70
14 94
13 24
13 55
13 52
13 88
13 67
13 92
13 64
28 20
28 52
28 88
28 80
27 97
24 35
24 76
24 70
29 12
29 21
29 63
Ġe hl
Ġe osinophil
26 18
26 22
26 49
26 37
26 87
23 13
23 23
23 88
23 64
23 73
23 91
21 126
Ġsulf azine
lu er
ap rim
ox de
78 26
78 38
78 32
ren ium
ren olide
Ġmultiv ital
45 06
45 39
45 40
ne ilmed
59 11
59 14
Ġmin s
sy mbyax
hal fprin
Ġsu resoft
49 11
49 37
49 99
49 84
58 11
58 28
58 51
58 41
58 83
nd le
Ġbl end
but aline
Ġne urol
48 10
48 23
48 88
48 99
48 76
48 82
56 12
56 17
56 47
56 54
56 81
46 24
38 18
38 60
Ġgen graf
55 08
55 28
55 44
55 77
55 72
47 55
47 92
Ġsh lder
36 07
36 20
36 77
36 816
35 20
35 47
35 44
35 33
42 08
42 23
42 251
57 45
57 75
57 142
57 510
32 26
37 55
37 41
37 000
37 65
43 50
43 005
44 16
44 49
54 19
54 24
52 06
52 30
52 29
53 20
41 005
un ion
un ivasc
Ġ110 14
Ġ110 45
Ġ110 53
Ġ110 89
Ġ110 97
Ġ110 84
Ġ110 203
pro t
Ġ102 18
te k
Ġtr ct
100 62
Ġcarb on
Ġ118 69
bal mex
Ġ112 49
Ġ108 05
Ġ108 87
Ġ108 98
Ġ108 519
Ġ125 03
Ġ128 12
Ġ128 05
Ġ128 23
Ġ128 76
Ġ128 92
Ġ128 628
Ġ122 18
air s
Ġ116 45
Ġ116 79
Ġ116 97
Ġ106 06
Ġ106 815
Ġ106 24448
Ġ103 02
Ġ103 26
Ġ103 23
Ġ103 46
Ġ103 127
Ġ104 12
Ġ124 00
88 46
88 38
88 66
88 76
88 73
Ġ109 11
Ġ109 49
Ġ109 67
Ġ126 36
79 25
Ġ117 6
Ġ117 07
Ġ117 05
Ġ117 45
Ġ117 35
Ġ117 79
Ġ117 76
Ġ114 11
Ġ114 08
Ġ114 29
Ġ107 24
Ġ119 01
Ġ119 59
Ġ119 44
Ġ119 87
Ġ119 612
Ġ111 44
Ġ111 97
Ġ127 6
Ġ127 64
Ġ127 267
Ġ129 48
Ġ129 67
Ġ129 72442
Ġ113 00
Ġ113 09
Ġ113 37
Ġcyano sis
Ġ138 54
Ġ136 02
Ġ136 14
Ġ136 23
Ġ136 47
Ġ133 10
Ġ133 58
Ġ133 56
Ġ135 16
Ġ135 39
Ġ135 56
Ġhydroc erin
89 12
89 54
89 159
Ġhealth care
Ġ137 04
Ġ137 26
Ġ137 23
Ġ137 58
Ġ137 38
med ical
Ġ139 56
Ġ139 46
Ġ139 57
Ġ139 924
Ġz aroxolyn
Ġ142 08
Ġ142 26
Ġcor on
Ġ146 110
Ġ146 899
Ġ146 90121
Ġ145 568
Ġ143 08
Ġ143 06
erm ectin
Ġ147 19
Ġ147 26
Ġ147 68
Ġ147 69
Ġ147 207
786 4
Ġ149 29
Ġper vasive
99 23
99 649
Ġfl urand
Ġ156 25
Ġ156 79
Ġ156 68
Ġ156 95
Ġ154 23
Ġ154 04950
079 3
Ġ153 12
Ġ153 17
Ġ153 49
Ġ153 55
Ġ155 00
Ġ155 15
Ġ155 27
Ġ155 34
67 25
67 39
Ġ158 38
Ġ158 42
Ġ158 52
Ġ157 07
Ġ157 48
Ġ157 46
Ġ157 68
90 111
Ġsw imm
Ġ159 03
Ġ159 89
Ġ159 429
87 63
lip oxygenase
Ġmy elitis
Ġmy driasis
119 2
ame lor
Ġher ceptin
66 24
66 88
Ġ168 59
Ġ166 00
Ġ166 53
Ġ169 12
Ġ169 18
Ġ169 14
Ġ169 86
Ġ169 83
Ġ163 08
Ġ163 23
Ġ162 06
Ġ164 07
Ġ164 19
Ġ165 02
Ġ165 56
ov ine
509 01
Ġep a
86 05
86 37
86 69
hythm ia
724 79
77 46
77 098
Ġpar ab
129 6
Ġiv ermectin
ry st
Ġ179 10
Ġ179 16
Ġ179 88
Ġ179 32059
inf ec
76 44
Ġ178 19
Ġ178 13
Ġ178 46
Ġ176 14
Ġ176 37
189 7
Ġ177 08
Ġ177 16
427 41
82 25
82 13
Ġ172 06
Ġ173 09
Ġ173 16
Ġ173 39
po ise
Ġ174 04
Ġ174 17
Ġ174 24
Ġ174 007
sed atives
Ġ. .
Ġdu odenitis
85 33
85 180
butr ans
roc ryst
Ġ186 27
Ġ186 46
Ġped i
Ġ189 07
Ġ189 03
812 8
Ġcond ylar
65 10
65 01
65 18
197 1
Ġ187 05
Ġ187 49
Ġ188 17
Ġ188 28
Ġ188 59
Ġ188 49
Ġ188 023
vi ramune
Ġbr iv
419 9
039 8
Ġ185 36
Ġ184 28
Ġ199 08
Ġ199 02
Ġ199 28
Ġ199 37
Ġ199 43
459 5
64 50
72 06
002 12
60 12
rox icodone
93 56
Ġ196 42
Ġ197 09
Ġ197 58
Ġ198 59
Ġpy oderma
Ġ195 39
Ġintra ventricular
Ġdiff erin
94 20
010 7
Ġ193 07
74 31
ste a
Ġcycl in
ve y
409 1
Ġ194 48
Ġ194 15931
Ġ192 12
Ġ192 05
538 2
Ġkit chen
860 12
Ġdifficult ies
Ġter butaline
del usions
.. .
Ġpros ource
Ġarth rod
98 00
98 17
108 19
Ġbehav io
410 5
410 7
612 6
338 5
Ġscler itis
nov alog
sm all
625 22
214 77
Ġappen dix
Ġbu ndle
238 49
iss ia
Ġ% -
Ġpac er
126 13
tri xaicin
Ġgum mies
546 1
825 6
386 58
304 11
823 20
Ġmast oiditis
232 25
prev ail
prev pac
Ġgau ge
veno fer
Ġcat at
Ġbec onase
Ġchlordiazep oxde
195 05
297 26
Ġ1800 6
174 22
626 35
Ġpol yp
Ġtooth ache
omyel itis
Ġdip rolene
Ġhigh way
acet ate
Ġimp action
Ġ1388 6
608 11
Ġ1717 3041
Ġ1700 6856
Ġ1436 0114
Ġ1607 8742
Ġ1607 0047
Ġ1557 4516
443 24
Ġ1805 2788
Ġ1313 1177
Ġ1739 6346
Ġ1348 0812
Ġ1159 2242
Ġ1159 9852
Ġ1037 6494
966 41
Ġ1427 9228
Ġ1799 7
Ġ1823 0098
Ġ1100 6621
Ġ1758 5185
Ġ1319 2224
411 12
Ġ1447 3736
Ġ1347 0788
868 11
908 22
Ġ1078 1468
733 14
Ġ1953 0208
Ġ1467 5620
Ġ1555 0489
mac rocryst
Ġgenit l
flavon oid
row asa
Ġ1442 2845
do ver
Ġdiss eminated
Ġbe ano
Ġsun itinib
Ġ1567 5685
Ġsat s
cd k
Ġdiaph oresis
Ġoptic hamber
Ġtransmit ted
925 11
Ġheav y
dan los
Ġprom od
tem ovate
vapor izer
Ġanx iolytic
Ġ17729 814
Ġsexual ly
zz zquil
Ġ17123 250
Ġ14729 536
tc n
Ġvan iqa
Ġclaud ication
Ġng t
Ġulc ers
Ġ18823 151
sut ent
Ġven ereal
Ġ13129 329
Ġ10318 991
Ġ11402 257
Ġ16513 924
Ġ16949 991
gro in
Ġ17767 787
Ġ16610 148
Ġ18917 761
Ġ13194 024
Ġ12156 452
Ġsymphy sis
Ġappli anc
Ġ17618 022
Ġgard ening
Ġ10993 119
Ġ12702 546
Ġ12329 195
finger stix
Ġ13325 598
Ġ10673 457
Ġ129214 96
Ġ13343 002
Ġ18935 074
Ġ11154 185
Ġ146597 58
Ġ110347 13
Ġabsorb ent
scap ing
Ġ185596 33
fil ter
Ġpir buterol
elev ated
Ġ11834 165
Ġ189359 58
Ġ19578 341
bes ol
tw ocal
Ġ19093 092
Ġ108829 16
Ġ109647 02
Ġ178219 46
Ġchondrocalcin osis
Ġ100307 53
ultrac omfort
Ġ187514 19
Ġmicros copic
Ġdehisc ence
Ġland scaping
Ġ126065 43
Ġ159245 15
soral en
Ġsial olithiasis
lorad amed
Ġatra umatic
Ġmorph ologic
Ġ141110 50
Ġehl ers
Ġneurol eptics
Ġ127267 53
Ġflurand renolide
Ġarthrod esis
3 019
3 241
5 189
7 31
7 109
8 418
8 579
8 792
9 311
9 172
9 2512
b rin
c alorie
f x
f olate
k elp
l atisse
m pl
p na
q d
s anc
t ator
re ase
Ġp d
Ġp ean
in il
in haler
ic h
Ġs caff
Ġb b
Ġb el
Ġb lu
00 19
00 13
00 99
00 94
Ġd ocusil
ent ine
ent ra
Ġc ase
Ġre up
no repineph
Ġo ys
ain s
Ġm eno
Ġf et
Ġf ung
iv ers
Ġad sorb
Ġad circa
Ġh odg
id z
Ġin nopran
Ġin ability
ag ic
10 67
10 60
10 73
10 660
Ġac ular
Ġ16 083
Ġ16 109
Ġ16 276
Ġ16 066
Ġ16 116
Ġ16 299
Ġ16 076
Ġ18 719
Ġ18 238
Ġ18 038
Ġ18 279
Ġ18 057
Ġ18 096
Ġ18 887
Ġ100 05
Ġ100 16
Ġ100 28
Ġ100 34
Ġ100 79
us o
um ex
ad j
ad renaclick
ac lor
12 13
12 49
Ġ10 787
Ġ10 269
Ġ10 157
Ġn ilo
Ġanti allerg
Ġ12 109
Ġ12 458
Ġ12 796
Ġ12 069
Ġ12 037
Ġ12 139
Ġ12 166
Ġ12 017
Ġ12 463
11 15
11 49
11 56
11 51
01 84
Ġg rx
Ġg arden
Ġg ildess
Ġ13 079
Ġ13 022
Ġ13 287
08 55
08 80
Ġ14 197
Ġ14 039
Ġ14 459
Ġ14 589
Ġ14 066
Ġ14 125
Ġ14 137
Ġ14 467
Ġ14 256
Ġ14 485
Ġ14 2900
Ġ14 155
07 17
07 55
07 67
07 86
07 799
03 12
03 04
03 30
03 59
03 47
03 51
03 88
03 81
03 68
03 82
03 71
05 59
05 88
06 73
02 25
02 21
02 67
02 64
02 73
04 05
04 15
04 48
Ġ15 039
Ġ15 352
Ġ15 069
Ġ15 026
Ġ15 023
Ġ15 246
Ġ15 118
Ġ15 082
Ġ15 147
Ġ15 473
Ġ15 886
Ġ15 584
Ġ11 796
Ġ11 587
Ġ11 576
am n
Ġar omatic
Ġcompl ement
Ġtri xaicin
Ġ17 109
Ġ17 106
Ġ17 275
Ġ17 477
Ġ17 133
Ġ17 078
tr unk
le ol
Ġun ivers
Ġ19 300
Ġ19 788
Ġ19 998
Ġ19 889
Ġ19 387
Ġ19 886
Ġal vesco
alg al
ers ion
ers ource
25 19
25 15
25 14
25 20
25 40
25 93
18 02
18 14
18 75
19 12
19 36
19 42
19 57
19 79
19 81
19 66
19 65
15 08
15 22
15 59
15 55
15 98
17 45
17 58
17 42
17 76
16 00
16 13
16 23
16 56
16 36
16 53
16 90
16 69
16 60
14 19
14 40
14 34
14 83
13 17
13 16
13 49
13 54
13 66
13 76
13 94
13 95
28 00
28 07
28 17
28 16
28 36
28 86
28 71
onist at
27 10
27 08
27 35
27 51
27 92
27 74
zol adex
24 90
24 84
24 72
24 98
29 14
29 78
29 56
29 43
29 77
29 75
26 12
26 38
26 67
23 11
23 99
23 86
23 61
22 11
22 16
22 21
Ġser oton
ut s
act emra
rom atosis
78 33
cl imara
ne w
59 34
59 92
59 91
59 683
Ġmin or
coc ort
49 09
49 20
49 48
58 26
58 82
Ġglu cocort
39 79
dia per
48 72
56 04
56 56
56 36
56 73
46 18
46 37
46 61
46 80
46 74
46 400
38 11
38 51
38 76
38 96
38 85
38 83
55 24
47 31
47 41
47 68
47 66
47 77
47 62
Ġelec tr
36 09
36 86
35 30
35 59
35 49
57 95
37 09
37 17
37 300
ron idz
43 07
43 101
44 15
44 21
44 100
33 18
33 26
34 10
34 20
54 10
52 16
53 12
53 59
53 38
qu asense
Ġ110 17
Ġ110 13
Ġ110 49
Ġ110 39
Ġ110 48
Ġ110 84430
Ġcef aclor
Ġ102 04
Ġ102 19
Ġ102 29
Ġ102 29306
ou nt
Ġantib iot
Ġsp ur
Ġ118 03
Ġ118 23
Ġ118 786
Ġ118 76
Ġ118 96
Ġ112 05
Ġ112 65
Ġ112 416
Ġ112 30772
Ġ108 09
Ġ108 35
Ġ108 99
Ġ108 69
Ġ108 66
Ġ125 29
Ġ125 23
Ġ125 58
Ġ125 32
Ġ125 33
ano pos
Ġ128 06
Ġ128 04
Ġ128 18
Ġ128 15
Ġ128 59
Ġ128 48
Ġ122 03
Ġ122 29
Ġ116 25
Ġ116 47
Ġ116 87
Ġ116 31709
Ġ106 28
Ġ106 27
Ġ106 48
Ġ106 94
Ġ103 15
Ġ103 14
Ġ103 39
Ġcortic al
Ġ104 23
Ġ124 03
88 26
88 55
88 47
88 65
Ġ109 24
Ġ109 56
Ġ109 68
Ġ109 66
Ġ109 98
Ġ109 327
Ġ109 804
Ġsurf ace
Ġ126 15
Ġ126 68
Ġ126 66
Ġ126 96
Ġ126 375
Ġ115 12
Ġ115 17422
79 45
79 58
79 40
79 96
Ġ105 18
Ġ105 56
Ġ117 19
Ġ117 43
Ġ117 63
Ġ114 25
Ġ114 14
Ġ107 78
Ġ107 44
Ġ107 76
Ġ119 15
Ġ119 55
Ġ119 57
Ġ119 99
Ġ111 39
Ġ111 37
Ġ111 66
Ġ111 63
Ġ127 14
Ġsim ple
Ġsim poni
Ġ123 08
Ġ123 55
Ġ132 12
Ġ132 02
Ġ132 04
Ġ132 28
Ġ132 24
Ġ129 66
Ġ113 12
Ġ113 16
Ġ113 13
Ġ138 18
Ġ138 15
Ġ138 13
Ġ138 49
Ġ138 524
Ġ138 226
Ġ136 8
Ġ136 26
Ġ136 44
Ġ136 65
Ġ136 702
Ġ135 04
Ġ135 15
Ġ135 17
Ġ135 14
Ġ135 58
Ġ134 05
Ġ134 38658
ak es
89 58
89 154
com tan
Ġ137 07
Ġ137 06
Ġ137 28
Ġ137 79
Ġ137 66
Ġ137 63
Ġ139 39
Ġ139 186
Ġspec tator
ect ate
Ġlef ort
Ġhyp romellose
rol aids
Ġ146 72
Ġ146 23225
Ġ148 11
Ġ148 48
Ġ148 38
Ġ144 35
Ġ145 18
Ġ145 49
Ġ145 39
Ġqu ick
Ġ143 02
Ġ143 24
Ġ143 59
Ġ147 36
Ġ147 289
Ġ147 63
Ġaz as
Ġ149 4
Ġ149 17
Ġ149 33
Ġ149 92
Ġ149 62
Ġ149 398
vent s
99 581
Ġ156 45
Ġ156 57
Ġ156 33
Ġ156 85
Ġ152 25
Ġ152 18
Ġ152 26
mo ist
Ġ154 00
Ġ153 02
Ġ153 23
Ġ153 56
Ġ155 03
Ġ155 05
Ġ155 37
Ġ151 12
67 08
67 58
67 38
67 43
67 484
68 19
68 33
68 61
Ġ158 00
Ġ158 13
Ġ158 23
Ġ158 49
Ġ158 57
Ġ158 409
Ġ158 046
Ġ158 615
Ġ157 02
Ġ157 27
Ġ157 69
Ġ157 76
Ġmono basic
Ġ159 02
Ġ159 67
Ġ159 63
87 38
chol est
69 39
69 60
to e
Ġnucle os
Ġenc ephal
Ġtre prost
66 13
66 27
Ġ168 15
Ġ168 24
Ġ168 29
Ġ168 47
Ġ168 52
Ġ168 66
Ġ166 25
Ġ166 16
Ġ169 04
Ġ169 45
Ġ169 38
Ġ167 00
Ġ167 29
Ġ167 66
Ġ163 07
Ġ163 02
Ġ163 38
Ġ163 19384
Ġ164 49
Ġ164 47
Ġ165 00
Ġ165 088
86 25
86 26
86 59
289 22
Ġ38 0
729 4
77 50
77 67
787 5
787 49
Ġsub cit
gra pe
Ġ179 23
Ġ179 76
Ġ179 739
Ġeye bro
489 3
76 50
Ġ178 10
Ġ178 14
Ġ176 03
Ġ176 46
Ġ176 67
Ġ177 27
Ġ177 54
427 4
rel istor
Ġ172 12
Ġ172 17
Ġ172 238
Ġ173 45
96 40
Ġ174 19
Ġ175 05
Ġ175 18
Ġ175 27
85 56
112 7
458 3
458 22
84 00
84 21
545 61
Ġbac illi
Ġ186 23
Ġ186 214
Ġ186 226
Ġcereb rum
Ġ189 88
Ġinc mpl
65 08
Ġ187 78
Ġ187 67
Ġ187 302
Ġ188 03
Ġ188 67
Ġbr intellix
419 8
Ġ185 10
Ġ185 03
Ġ185 13
Ġ185 38
311 7
Ġ183 19
Ġ183 13
Ġ183 38
62 12
Ġ182 13
Ġ184 02
Ġ184 23
Ġ184 37673
Ġ199 15
Ġ199 29
Ġ199 89
63 10
63 23
64 28
64 39
64 40
72 29
73 39
syn th
anti emetic
anti emet
75 22
93 492
Ġ196 244
428 2
Ġarter iol
80 10
Ġ197 08
Ġ197 05
Ġ197 68
Ġ198 02
Ġ198 66
94 01
Ġ194 15
Ġ194 22
Ġ194 43
802 29
Ġfenofib ric
228 0
838 5
319 2
924 22
Ġref uses
95 02
Ġarth rotec
824 5
824 7
805 03
Ġrep air
813 43
338 7
089 1
814 6
2510 81
214 6
529 3
345 5
296 30
807 06
Ġop th
339 88
325 7
Ġaut os
358 3
707 13
508 5
424 2
525 2
519 5
825 20
088 16
386 30
122 06
met rocream
met ronidz
307 7
373 13
237 51
pul se
279 57
Ġcat aplex
005 20
Ġ1549 7609
275 23
195 32
552 20
178 17
969 1
174 35
396 51
626 34
872 01
075 78
144 21
726 60
608 12
Ġtw in
Ġ1359 5620
Ġ1786 2
Ġ1786 3
Ġ1339 8773
Ġ1747 9853
old ing
Ġ1327 3041
Ġ1915 0392
Ġ1999 7
Ġ1413 3196
Ġdehydr ated
426 05
Ġ1627 3050
Ġ1645 0946
Ġ1928 1042
Ġ1903 4608
Ġ1924 0268
Ġureth ra
Ġ1628 0495
Ġ1556 8805
Ġ1736 1720
Ġ1247 7739
Ġ1347 3495
Ġbal anopos
422 02
Ġ1507 2281
Ġ1418 4360
335 20
Ġvulv itis
lact m
Ġ1144 1201
Ġ1442 0248
Ġ1801 8996
Ġ1478 5819
Ġliqu itears
Ġast ring
Ġ1267 0153
clar avis
Ġho arse
Ġ14029 260
sup p
Ġbleph amide
Ġdyst ro
azas ite
Ġnev anac
tob i
sleep ing
Ġ15677 786
Ġ12658 542
ranil ic
Ġbacter ia
Ġ14318 581
rib ose
Ġ18625 115
Ġ13575 285
Ġ12978 382
Ġ11378 357
Ġ13909 465
Ġ17288 114
Ġanth ranilic
Ġ18568 661
Ġ11286 186
Ġ15567 127
Ġflor anex
Ġ18669 873
Ġ19644 467
Ġ16036 071
Ġ11253 475
Ġ11533 366
Ġ11962 176
Ġ112924 24
Ġhemm or
Ġ18277 239
Ġ19143 018
Ġ12588 043
Ġ14323 625
Ġsweat s
Ġgangre nosum
Ġnontox ic
Ġepiglo ttitis
Ġ179539 59
Ġviok ace
Ġsqu ir
Ġmari juana
Ġrout n
Ġ189498 19
antial lrg
Ġ171012 77
Ġ103127 15
Ġ146110 53
Ġ145568 09
Ġswimm ing
Ġ159429 34
sanc uso
Ġpean uts
Ġscaff olding
Ġoys co
Ġadsorb ent
Ġhodg kins
Ġnilo tinib
Ġunivers al
Ġ109327 83
Ġ136702 37
Ġ158046 69
Ġencephal itis
Ġtreprost inil
Ġeyebro w
Ġ196244 78
Ġarteriol es
Ġcataplex y
Ġbalanopos thitis
4 377
5 370
7 54
7 67
7 103
7 093
7 1111
9 161
9 0512
9 5830
9 4800
a ration
b ra
c ortic
d ed
d ine
d ox
d davp
f at
f usion
g old
h anging
k iren
l istat
o at
p se
s ia
s ome
s ite
t nd
w ing
as thm
at ers
Ġp are
in za
ic le
Ġa k
ol imod
Ġs eren
lo ver
od al
Ġ2 44
Ġb an
Ġb ia
Ġb oric
00 00
00 20
00 78
00 40
Ġd rip
er an
ent agel
it ril
Ġc lu
Ġc alm
al ypt
Ġt ucks
Ġt aste
Ġt otal
Ġm aint
Ġm avik
Ġf ug
Ġf eraheme
es can
min ocin
Ġtem ovate
ar x
ar act
Ġin vanz
is ordil
is kiren
ist ing
10 77
10 85
ro gaine
ep oint
Ġ16 489
Ġ16 469
Ġ16 026
Ġ16 366
Ġ16 592
Ġ16 147
Ġ16 677
Ġ16 2112
Ġl ife
Ġ18 787
Ġ18 0889
Ġ18 062
Ġ18 254
Ġ18 127
Ġ18 487
Ġ18 256
Ġ18 555
Ġ100 82
ad p
ad uet
ac col
Ġ5 20
12 16
12 23
12 81
12 68
12 77
12 72
12 590
Ġ10 567
Ġ10 383
Ġag e
Ġ12 786
Ġ12 129
Ġ12 197
Ġ12 469
Ġ12 269
Ġ12 047
Ġ12 107
Ġ12 586
Ġ12 157
Ġ12 477
Ġ12 793
Ġ12 494
11 33
11 88
11 84
11 60
11 74
01 58
01 35
Ġg ive
Ġg anciclovir
Ġ13 039
Ġ13 065
Ġ13 569
Ġ13 796
Ġ13 069
Ġ13 048
Ġ13 139
Ġ13 383
Ġ13 054
Ġ13 396
Ġ13 2011
08 18
08 23
08 31
08 43
08 86
08 62
Ġ14 249
Ġ14 598
Ġ14 166
Ġ14 476
Ġ14 886
Ġ14 3405
07 20
07 37
07 41
03 01
03 28
03 24
03 31
05 28
05 45
05 33
05 34
05 64
09 12
09 07
09 15
09 22
09 55
09 42
09 54
09 63
09 64
09 91
06 08
06 07
06 25
06 22
06 32
06 52
02 55
04 61
04 96
04 60
Ġu able
Ġ15 097
Ġ15 029
Ġ15 116
Ġ15 249
Ġ15 256
Ġ11 009
Ġar om
yl era
ch ing
Ġ17 189
Ġ17 108
Ġ17 469
Ġ17 063
Ġ17 452
Ġ17 366
Ġ17 377
Ġ17 266
Ġ17 182
Ġ17 056
Ġ17 113
Ġ17 673
tr inessa
uc aine
uc alypt
op ectate
Ġst ated
Ġun al
Ġam au
Ġ19 418
Ġ19 719
Ġ19 799
Ġ19 409
Ġ19 110
Ġ19 089
Ġ19 496
Ġ19 269
Ġ19 567
Ġ19 277
Ġ19 017
Ġ19 147
Ġ19 242
Ġal ter
Ġal iment
Ġal iskiren
ab les
ab reva
25 21
25 47
25 36
25 53
18 69
19 46
19 32
19 37
19 84
15 33
15 54
15 99
15 77
Ġred und
17 26
17 35
17 90
17 82
Ġdis sol
16 18
16 19
16 17
16 20
16 91
14 08
14 25
14 46
14 86
14 76
14 60
14 95
13 25
13 39
13 47
28 12
28 15
28 29
28 56
28 38
28 32
28 79
28 70
27 19
27 14
27 329
27 63
27 80
27 98
24 54
24 96
29 52
29 69
29 76
29 85
29 93
Ġe ight
26 10
26 03
26 36
26 41
26 77
26 82
26 96
26 65
26 63
26 75
26 74
23 19
23 57
23 54
23 89
23 90
23 74
Ġbenz ylamines
31 128
Ġcar pine
Ġmult if
78 07
78 15
45 05
45 63
Ġor listat
cl air
ne osporin
59 40
59 381
49 39
49 56
49 52
49 74
58 12
58 18
58 78
58 76
58 60
58 93
58 80
Ġk ristalose
39 08
39 21
39 45
39 97
39 83
39 93
but alb
48 12
48 29
48 44
48 67
48 68
48 90
56 11
56 30
56 77
56 61
46 10
46 05
46 23
46 48
46 47
46 96
38 26
38 72
38 420
55 02
55 48
47 18
47 29
47 50
47 42
47 99
36 17
36 68
36 90
36 74
36 95
35 06
35 04
35 24
35 71
me then
42 01
42 09
42 02
42 25
42 28
57 01
57 59
57 46
57 410
37 02
37 13
37 26
37 49
37 35
37 90
37 61
43 19
43 28
44 01
44 17
44 35
33 01
33 09
33 04
33 15
33 17
33 13
33 47
34 17
34 28
34 29
54 13
54 50
54 38
52 08
52 03
52 19
53 28
53 46
53 35
Ġsyn visc
Ġ110 59
Ġ110 58
Ġ110 35
Ġ110 193
Ġ110 646
Ġchol est
Ġmon oxide
ig na
Ġcon vey
Ġ118 13
Ġ118 67
Ġ118 686
Ġ118 213
Ġnec rotic
Ġ112 00
Ġ112 63
Ġ108 00
Ġ108 08
Ġ108 49
Ġ108 39
Ġ108 36
Ġ108 67
Ġex tran
Ġ125 08
Ġ125 19
Ġ125 13
Ġ125 37
Ġ128 00
Ġ128 99
Ġ128 969
Ġ122 02
Ġ116 57
Ġ116 100
Ġ106 07
Ġ106 68
Ġ103 054
Ġ104 06
Ġ104 18
Ġ104 26
88 92
Ġ109 05
Ġ109 14
Ġ109 38
Ġ109 47
Ġ109 56699
Ġ109 01772
Ġ109 88643
Ġ126 17
Ġ126 28
Ġ126 409
Ġ115 43
79 57
79 90
79 80
Ġ105 04
Ġ105 19
Ġ105 24
Ġ105 36
Ġ117 04
Ġ117 48
Ġ117 57
Ġ117 54
Ġ117 67
Ġ114 12
cose s
Ġ107 69
Ġ107 51923
Ġ119 25
Ġ119 54
Ġ119 88
Ġ119 414
Ġ111 38
Ġ111 33
Ġ111 439
Ġ127 29
Ġ127 38
Ġ127 699
Ġ123 45
Ġ132 10
Ġ132 18
Ġ132 17
Ġ129 00
Ġ129 47
Ġ129 97
Ġ113 28
Ġ113 129
Ġ138 10
Ġ138 08
Ġ138 07
Ġ138 16
Ġ138 39
Ġ138 63
Ġ138 16505
int estinal
Ġ136 06
Ġ136 25
Ġ136 38
Ġ136 36
Ġ136 54
Ġ136 67
Ġ136 63
Ġ136 595
Ġ135 00
Ġ135 363
Ġ134 06
Ġ134 17
Ġ134 49
Ġ134 78814
89 21
89 52
Ġ139 5
Ġ139 14
Ġ139 45
Ġ139 47
Ġ139 66
Ġ139 65
Ġ139 52691
Ġj umb
Ġj olessa
Ġ140 10624
Ġophth al
Ġ142 05
Ġint ent
rol ife
benz aclin
Ġneed l
Ġ146 09
Ġ146 04
Ġ146 57
Ġ146 37
Ġ146 97
Ġ146 85
Ġ148 34
Ġ148 65
Ġ148 73
Ġ144 29
Ġ143 10
Ġ143 14
Ġ143 58
Ġ141 10
Ġ147 24
Ġ147 49
Ġ147 55
Ġ147 47
Ġ147 136
Ġaz or
786 06
Ġ149 14
Ġ149 58
Ġ149 68
Ġ149 84
Ġ149 93
Ġ149 24200
Ġcip rod
Ġsleep gels
99 07
99 26
99 39
99 65
Ġ156 6
Ġ156 15
Ġ156 14
Ġ156 48
Ġ156 47
Ġ156 37
Ġ156 66
Ġ156 509
Ġ156 76
Ġ156 773
Ġ156 28922
Ġ152 15
mo re
Ġ154 19
Ġ154 27
Ġ154 29
Ġ154 38
Ġ153 13
Ġ153 31128
Ġ155 08
Ġ155 18
Ġ155 58
67 13
67 54
68 00
68 02
68 48
68 71
68 74
Ġ158 63
Ġ157 06
Ġ157 25
Ġ157 28
Ġ157 39
Ġ157 55
Ġ157 77
Ġ157 27523
Ġ159 17
Ġ159 13
Ġ159 27
Ġ159 56
Ġ159 54
Ġ159 88
Ġ159 87
Ġ159 82
av ar
87 22
Ġcough ing
Ġflo aters
Ġmal let
Ġmal aria
Ġ160 10
Ġpneum ococcal
cos anol
66 17
66 42
66 61
Ġ168 03
Ġ168 17
Ġ168 78
Ġ168 48
Ġ168 42605
Ġ166 07
Ġ166 28
Ġ166 43
lipi x
Ġ169 29
Ġ169 33
Ġ169 87
Ġ169 73
Ġ167 08
Ġ167 24
Ġ167 56
Ġ167 416
Ġ163 16
Ġ162 16
Ġ162 25551
Ġ162 13706
Ġ164 00
Ġ164 15
Ġ164 14
Ġ164 37
Ġ165 11
Ġ165 59
Ġ165 48
Ġna phcon
509 2
509 11
86 48
86 56
86 172
Ġhemorrh agic
724 0
724 7
77 03
77 45
77 59
77 36
77 79
787 31
Ġse asonale
Ġ179 15
Ġ179 849
Ġfin epoint
inf luenza
76 23
76 99
179 08
Ġ178 02
Ġ176 88
189 1
par p
Ġ177 26
61 12
427 6
82 12
82 03
82 16
82 27
Ġ172 09
Ġ173 07
96 21
96 50
96 69
96 502
clo bex
Ġ174 11
Ġ174 14
Ġ174 28
Ġ174 37
Ġ175 59
97 15
97 27
97 22
486 2
85 06
097 2
84 17
545 7
acc utane
Ġ186 19
Ġ186 67
Ġme g
83 10
83 03
83 45
Ġ189 14
Ġ189 78
Ġ189 38
Ġ189 47
Ġ189 84
65 39
Ġ187 14
Ġ187 23
Ġ187 47
Ġ187 789
Ġassa ul
Ġ188 066
Ġbr n
Ġ183 03
Ġ183 47
62 07
62 18
Ġ182 02
Ġ182 28
Ġ184 16
Ġ184 38
628 1
628 3
Ġ199 53
Ġ199 79
63 14
63 28
63 39
63 35
64 35
Ġmic rod
Ġmic rolife
73 28
73 30
73 23
73 22
73 58
75 08
75 36
vel ivet
93 15
93 27
Ġ196 45
Ġpept amen
649 3
rob afen
rob inul
Ġ197 49
Ġ197 36
Ġ197 33
Ġ197 79
Ġ197 119
Ġ198 09
Ġ198 28
Ġ198 22
Ġ198 49
Ġmes enteric
Ġ195 12
Ġ195 03
94 11
94 49
Ġ193 01
Ġ193 15
Ġ193 28
dep akene
Ġdo cosanol
men ing
409 2
nex t
Ġ194 07
Ġ194 17
Ġ194 16
Ġ194 49
Ġvit a
Ġ192 04
Ġ192 16
303 1
259 8
069 8
Ġmax idex
999 5
Ġgro aning
400 3
400 21
Ġarth r
824 22
805 5
805 9
de hydration
814 03
518 89
923 9
529 4
529 7
728 2
346 0
807 08
536 0
415 6
Ġdeplet ion
549 0
614 1
358 1
358 7
998 20
424 9
424 01
424 02
048 48
Ġrepet itive
Ġneur omyelitis
254 40
429 2
met asone
307 3
307 51
823 21
286 24
Ġspac er
104 01
Ġcat aract
036 29
Ġev encare
376 34
086 45
368 55
198 66
147 13
007 21
055 27
055 56
mel t
626 44
497 25
473 26
669 23
Ġprep uce
595 20
Ġcardi omegaly
726 65
Ġdelusion s
Ġ1689 2632
Ġ1435 0419
242 26
727 88
Ġ1215 9404
Ġ1717 65
Ġ1717 5688
Ġ1205 3621
Ġ1856 1128
Ġ1426 7880
Ġzy loprim
multiv it
Ġ1789 4
Ġ1436 1828
808 62
lot rel
Ġ1977 6663
Ġ1728 6918
Ġ1957 5525
Ġ1348 1293
Ġ1829 7847
Ġ1828 0519
Ġ1405 2394
936 92
936 91
Ġ1819 5430
Ġ1046 4871
Ġ1046 4640
Ġ1826 9439
Ġ1248 2584
Ġ1258 2857
Ġ1437 7197
Ġ1437 1035
Ġ1328 4345
prol ix
Ġ1905 3763
Ġ1788 6844
Ġ1412 0635
Ġ1558 3423
Ġ1314 8548
Ġ1506 4408
Ġ1986 5
Ġ1657 3705
symptom s
Ġ1235 4194
Ġ1768 4445
524 60
Ġ1311 5546
Ġ1033 2328
835 11
Ġpuerper al
Ġ1757 7830
const ipation
Ġ1119 4776
8289 2
do or
Ġpurp urea
Ġiod ide
Ġnephro tic
Ġ1342 1525
Ġtrig ger
clar inex
Ġvel cade
Ġretroper itoneal
Ġoptic a
Ġ17447 497
8200 2
Ġfing olimod
under pads
Ġ\ ,
Ġreason s
7300 7
rid er
Ġ17805 594
Ġ12712 259
Ġtriquet ral
veh icle
Ġjoh ns
isop to
Ġtymp an
Ġ11929 374
Ġ19986 589
Ġvio rele
Ġ11098 566
Ġ13639 034
Ġ17336 284
Ġ11756 467
Ġ10413 120
Ġ11459 120
Ġ10987 475
Ġ19396 070
Ġ16876 797
Ġlif escan
Ġ10569 231
Ġ14766 138
Ġ18214 395
Ġ10502 580
Ġ19536 290
Ġ13709 414
Ġperfor at
Ġ16909 197
Ġscre en
stear yl
Ġ12757 934
Ġ13658 097
Ġ15712 372
Ġ13068 065
Ġ10653 013
Ġ15335 760
Ġocc lu
Ġ13702 399
Ġopt ifoam
zeaxan thin
Ġ17718 683
Ġ120709 84
Ġ19618 591
Ġ16897 045
prep aration
Ġbev el
Ġ10213 338
Ġ12528 429
Ġ12672 071
mu ch
Ġ14494 263
fre edom
Ġ16392 279
Ġ18005 274
Ġ11055 094
Ġ158203 78
Ġexplo sive
Ġ18366 693
Ġ1682 0602
Ġ189043 44
Ġ18994 071
tas igna
Ġenvir on
Ġ106815 17
Ġ139924 86
Ġcoron oid
Ġ174007 16
Ġ188023 12
Ġbehavio ur
ount ain
Ġ147289 56
Ġazas an
Ġ165088 11
Ġ186226 00
Ġautos hield
Ġastring ents
Ġsquir rel
Ġseren ity
Ġclu ster
Ġmaint ena
Ġfug ax
accol ate
Ġ143405 05
Ġamau rosis
Ġaliment ary
Ġredund ant
Ġdissol ve
methen amine
Ġ110193 17
Ġ118686 67
Ġextran odal
Ġjumb o
Ġciprod ex
Ġ156773 28
Ġmicrod ot
/ +
2 109
2 102
3 591
4 263
5 21
6 0789
6 1031
6 071
7 022
7 265
8 160
8 271
9 02
9 48
b cl
b eat
b umex
c am
c alo
c all
c ortical
d op
d ev
e pid
e cotic
f b
f illed
f ergon
g avil
h usk
k er
l it
n ip
r th
s bo
t le
v ial
x id
y asmin
z ema
z umab
z ometa
Ġ us
Ġ ke
as ic
in tr
ic ulation
Ġs onata
ure ter
ure choline
ure tte
Ġb alan
00 25
00 26
00 69
00 66
00 77
00 65
Ġd an
Ġd ac
Ġd ancing
ent ora
Ġdi az
Ġc x
Ġc une
Ġc etaphil
al pram
al uminum
Ġt ypes
Ġre nova
ul ent
ul ate
Ġm itra
Ġm ouse
per ineal
Ġsy cope
Ġtem odar
an alpram
Ġfol gard
om nip
en dil
10 18
Ġan af
Ġac ou
Ġac ai
Ġ16 189
Ġ16 799
Ġ16 796
Ġ16 2699
Ġ16 136
Ġ16 127
Ġ16 467
Ġ16 244
Ġ16 074
Ġl arin
Ġ18 489
Ġ18 959
Ġ18 065
Ġ18 785
Ġ18 389
Ġ18 128
Ġ18 992
Ġ18 696
Ġ18 003
Ġ18 295
Ġ18 485
Ġ18 067
ra ft
ri th
ri omet
Ġ100 24
Ġ100 23
Ġ100 46
Ġ100 47
Ġ100 87
Ġ100 116
Ġ100 146
um n
12 32
12 65
12 70
12 001
12 490
Ġ10 458
Ġ10 116
Ġ10 128
Ġ10 124
Ġ10 498
Ġ10 267
Ġ10 597
Ġ10 477
Ġ10 395
Ġ10 154
Ġn aft
Ġn iferex
Ġta ztia
Ġ12 083
Ġ12 288
Ġ12 116
Ġ12 567
Ġ12 016
Ġ12 287
Ġ12 457
Ġ12 018
Ġ12 154
Ġ12 397
11 62
01 50
01 89
01 66
Ġ13 787
Ġ13 489
Ġ13 089
Ġ13 798
Ġ13 377
Ġ13 235
Ġ13 457
Ġ13 245
Ġ13 364
08 19
08 28
08 51
08 52
Ġ14 486
Ġ14 788
Ġ14 237
Ġ14 104
Ġ14 266
Ġ14 149
Ġ14 072
Ġ14 477
Ġ14 588
Ġ14 018
Ġ14 075
Ġ14 596
Ġ14 078
Ġ14 483
07 04
07 24
07 50
07 47
07 54
03 58
03 36
03 57
03 112
05 56
05 55
05 32
05 89
05 75
05 70
05 319
09 11
09 27
09 26
09 51
09 43
09 66
06 36
06 57
06 34
06 92
06 80
02 83
[...]
