{"<s>":0,"<pad>":1,"</s>":2,"<unk>":3,"<mask>":4,"!":5,"\"":6,"#":7,"$":8,"%":9,"&":10,"'":11,"(":12,")":13,"*":14,"+":15,",":16,"-":17,".":18,"/":19,"0":20,"1":21,"2":22,"3":23,"4":24,"5":25,"6":26,"7":27,"8":28,"9":29,":":30,";":31,"<":32,"=":33,">":34,"?":35,"@":36,"A":37,"B":38,"C":39,"D":40,"E":41,"F":42,"G":43,"H":44,"I":45,"J":46,"K":47,"L":48,"M":49,"N":50,"O":51,"P":52,"Q":53,"R":54,"S":55,"T":56,"U":57,"V":58,"W":59,"X":60,"Y":61,"Z":62,"[":63,"\\":64,"]":65,"^":66,"_":67,"`":68,"a":69,"b":70,"c":71,"d":72,"e":73,"f":74,"g":75,"h":76,"i":77,"j":78,"k":79,"l":80,"m":81,"n":82,"o":83,"p":84,"q":85,"r":86,"s":87,"t":88,"u":89,"v":90,"w":91,"x":92,"y":93,"z":94,"{":95,"|":96,"}":97,"~":98,"¡":99,"¢":100,"£":101,"¤":102,"¥":103,"¦":104,"§":105,"¨":106,"©":107,"ª":108,"«":109,"¬":110,"®":111,"¯":112,"°":113,"±":114,"²":115,"³":116,"´":117,"µ":118,"¶":119,"·":120,"¸":121,"¹":122,"º":123,"»":124,"¼":125,"½":126,"¾":127,"¿":128,"À":129,"Á":130,"Â":131,"Ã":132,"Ä":133,"Å":134,"Æ":135,"Ç":136,"È":137,"É":138,"Ê":139,"Ë":140,"Ì":141,"Í":142,"Î":143,"Ï":144,"Ð":145,"Ñ":146,"Ò":147,"Ó":148,"Ô":149,"Õ":150,"Ö":151,"×":152,"Ø":153,"Ù":154,"Ú":155,"Û":156,"Ü":157,"Ý":158,"Þ":159,"ß":160,"à":161,"á":162,"â":163,"ã":164,"ä":165,"å":166,"æ":167,"ç":168,"è":169,"é":170,"ê":171,"ë":172,"ì":173,"í":174,"î":175,"ï":176,"ð":177,"ñ":178,"ò":179,"ó":180,"ô":181,"õ":182,"ö":183,"÷":184,"ø":185,"ù":186,"ú":187,"û":188,"ü":189,"ý":190,"þ":191,"ÿ":192,"Ā":193,"ā":194,"Ă":195,"ă":196,"Ą":197,"ą":198,"Ć":199,"ć":200,"Ĉ":201,"ĉ":202,"Ċ":203,"ċ":204,"Č":205,"č":206,"Ď":207,"ď":208,"Đ":209,"đ":210,"Ē":211,"ē":212,"Ĕ":213,"ĕ":214,"Ė":215,"ė":216,"Ę":217,"ę":218,"Ě":219,"ě":220,"Ĝ":221,"ĝ":222,"Ğ":223,"ğ":224,"Ġ":225,"ġ":226,"Ģ":227,"ģ":228,"Ĥ":229,"ĥ":230,"Ħ":231,"ħ":232,"Ĩ":233,"ĩ":234,"Ī":235,"ī":236,"Ĭ":237,"ĭ":238,"Į":239,"į":240,"İ":241,"ı":242,"Ĳ":243,"ĳ":244,"Ĵ":245,"ĵ":246,"Ķ":247,"ķ":248,"ĸ":249,"Ĺ":250,"ĺ":251,"Ļ":252,"ļ":253,"Ľ":254,"ľ":255,"Ŀ":256,"ŀ":257,"Ł":258,"ł":259,"Ń":260,"as":261,"at":262,"re":263,"Ġw":264,"Ġwas":265,"Ġp":266,"in":267,"ati":268,"ic":269,"on":270,"Ġa":271,"ol":272,"Ġ1":273,"Ġs":274,"lo":275,"th":276,"res":277,"nt":278,"ure":279,"od":280,"ed":281,"the":282,"Ġ2":283,"ation":284,"Ġb":285,"00":286,"Ġd":287,"er":288,"ent":289,"st":290,"it":291,"Ġblo":292,"ress":293,"Ġblood":294,"olic":295,"Ġpress":296,"Ġpressure":297,"ration":298,"Ġ21":299,"Ġdi":300,"Ġc":301,"Ġat":302,"al":303,"atient":304,"Ġt":305,"or":306,"Ġpatient":307,"Ġre":308,"no":309,"Ġ9":310,"ul":311,"Ġo":312,"pi":313,"ain":314,"em":315,"Ġrec":316,"Ġm":317,"se":318,"per":319,"ing":320,"Ġthe":321,"Ġno":322,"Ġf":323,"ast":324,"Ġnot":325,"Ġpain":326,"Ġ-":327,"atu":328,"Ġsy":329,"Ġres":330,"es":331,"Ġrespi":332,"Ġpul":333,"Ġsyst":334,"min":335,"Ġtem":336,"Ġrespiration":337,"ature":338,"Ġpulse":339,"Ġdiast":340,"Ġdiastolic":341,"Ġsystolic":342,"perature":343,"Ġtemperature":344,"Ġsatu":345,"Ġsaturation":346,"Ġrespirations":347,"iv":348,"ere":349,"ar":350,"Ġad":351,"Ġh":352,"Ġ0":353,"an":354,"id":355,"ord":356,"Ġrecord":357,"Ġrecorded":358,"Ġin":359,"low":360,"ag":361,"Ġfol":362,"lowing":363,"Ġfollowing":364,"Ġ[":365,"],":366,"Ġv":367,"is":368,"Ġcod":369,"om":370,"ist":371,"en":372,"et":373,"10":374,"Ġant":375,"ived":376,"Ġan":377,"Ġ7":378,"Ġ98":379,"Ġac":380,"ro":381,"Ġmed":382,"ations":383,"Ġmedic":384,"hi":385,"ia":386,"ep":387,"Ġ8":388,"sp":389,"Ġ16":390,"ion":391,"Ġl":392,"ered":393,"Ġadmin":394,"Ġ6":395,"Ġ18":396,"Ġadminist":397,"Ġwere":398,"Ġadministered":399,"Ġcode":400,"Ġic":401,"Ġicd":402,"amin":403,"Ġ(":404,"co":405,"ec":406,"Ġrece":407,"Ġmedications":408,"ine":409,"ra":410,"'s":411,"mit":412,"ri":413,"ted":414,"Ġadmit":415,"Ġadmitted":416,"Ġ100":417,"us":418,"um":419,"Ġreceived":420,"Ġ97":421,"os":422,"ad":423,"ac":424,"ate":425,"Ġ5":426,"12":427,"Ġ10":428,"pl":429,"Ġag":430,"Ġn":431,"age":432,"Ġanti":433,"Ġcom":434,"ital":435,"Ġta":436,"Ġ12":437,"ition":438,"Ġdisp":439,"Ġis":440,"Ġdispos":441,"Ġdisposition":442,"11":443,"ph":444,"ors":445,"hib":446,"01":447,"Ġinhib":448,"Ġinhibit":449,"Ġg":450,"Ġ13":451,"08":452,"tic":453,"Ġ14":454,"07":455,"03":456,"el":457,"05":458,"09":459,"06":460,"02":461,"Ġinhibitors":462,"04":463,"ef":464,"ly":465,"one":466,"ant":467,"mg":468,"ml":469,"io":470,"Ġu":471,"Ġ214":472,"Ġ217":473,"Ġpre":474,"Ġ15":475,"Ġ213":476,"Ġ216":477,"anc":478,"Ġ218":479,").":480,"Ġ215":481,"Ġ99":482,"Ġ11":483,"ity":484,"Ġagent":485,"Ġacu":486,"am":487,"stic":488,"ale":489,"itamin":490,"agno":491,"Ġdiagno":492,"Ġdiagnostic":493,"Ġar":494,"ear":495,"Ġcompl":496,"Ġ3":497,"king":498,"Ġy":499,"Ġol":500,"Ġtri":501,"yl":502,"ur":503,"Ġchi":504,"Ġed":505,"Ġas":506,"ious":507,"Ġprev":508,"aint":509,"Ġsco":510,"Ġcomplaint":511,"Ġvia":512,"Ġold":513,"Ġarr":514,"Ġscore":515,"Ġchief":516,"Ġvital":517,"Ġyear":518,"Ġtaking":519,"Ġvitals":520,"Ġhad":521,"patient":522,"Ġtriage":523,"Ġprevious":524,"Ġcodes":525,"Ġacuity":526,"Ġarrived":527,"Ġpreviously":528,"Ġand":529,"ch":530,"ium":531,"ativ":532,"zep":533,"Ġ20":534,"Ġ17":535,"Ġ212":536,"tr":537,"uc":538,"Ġins":539,"Ġ4":540,"ance":541,"up":542,"ive":543,"ome":544,"if":545,"Ġ22":546,"le":547,"op":548,"Ġagents":549,"Ġhome":550,"Ġst":551,"Ġun":552,"py":553,"Ġam":554,"Ġder":555,"Ġhy":556,"Ġ19":557,"oid":558,"Ġal":559,"ot":560,"ide":561,"hy":562,"alg":563,"Ġen":564,"ite":565,"Ġon":566,"ers":567,"il":568,"Ġmar":569,"esic":570,"algesic":571,"Ġanalgesic":572,"Ġi":573,"ines":574,"pir":575,"ab":576,"ial":577,"Ġ96":578,"25":579,"18":580,"Ġwal":581,"19":582,"Ġwalk":583,"Ġch":584,"elec":585,"yc":586,"Ġlo":587,"ric":588,"atin":589,"15":590,"Ġred":591,"gu":592,"Ġwh":593,"Ġreduc":594,"Ġwhite":595,"Ġacid":596,"17":597,"est":598,"Ġdis":599,"gl":600,"Ġpro":601,"alc":602,"Ġderiv":603,"16":604,"14":605,"13":606,"Ġ219":607,"spec":608,"28":609,"Ġderivativ":610,"Ġfem":611,"ase":612,"onist":613,"Ġthera":614,"Ġtherapy":615,"27":616,"30":617,"20":618,"Ġfemale":619,"zol":620,"Ġderivatives":621,"ther":622,"ifi":623,"atus":624,"Ġstatus":625,"Ġother":626,"Ġany":627,"Ġaspir":628,"arg":629,"24":630,"29":631,"zepam":632,"Ġe":633,"im":634,"Ġaspirin":635,"26":636,"ax":637,"Ġmale":638,"Ġsal":639,"ified":640,"23":641,"itamins":642,"phen":643,"tive":644,"Ġlan":645,"ult":646,"arge":647,"charge":648,"Ġdischarge":649,"guage":650,"Ġlanguage":651,"urance":652,"Ġinsurance":653,"22":654,"icyl":655,"Ġmarital":656,"etamin":657,"enz":658,"ck":659,"alo":660,"gic":661,"21":662,"Ġtab":663,"ish":664,"Ġsul":665,"Ġblock":666,"eta":667,"Ġ23":668,"Ġblockers":669,"Ġunspec":670,"ta":671,"li":672,"Ġsulf":673,"Ġengl":674,"Ġenglish":675,"tion":676,"Ġcomb":677,"Ġsalicyl":678,"tor":679,"lu":680,"onin":681,"Ġcalc":682,"Ġunspecified":683,"onists":684,"ulin":685,"inations":686,"Ġcombinations":687,"Ġbeta":688,"Ġselec":689,"iazep":690,"Ġselective":691,"ophen":692,"zole":693,"etaminophen":694,"Ġ95":695,"pid":696,"Ġinsulin":697,"Ġbenz":698,"ap":699,"bul":700,"Ġhyd":701,"erol":702,"orph":703,"Ġof":704,"Ġco":705,"pioid":706,"Ġser":707,"hyper":708,"Ġambul":709,"Ġantag":710,"31":711,"Ġantic":712,"emic":713,"otonin":714,"ut":715,"iazepines":716,"Ġambulance":717,"ative":718,"anse":719,"tron":720,"danse":721,"Ġondanse":722,"Ġondansetron":723,"oc":724,"act":725,"Ġcar":726,"ir":727,"Ġcalcium":728,"Ġvitamins":729,"alog":730,"odone":731,"Ġmet":732,"Ġvial":733,"eptor":734,"Ġ00":735,"odiazepines":736,"Ġantihyper":737,"Ġnon":738,"50":739,"rom":740,"Ġgast":741,"Ġbenzodiazepines":742,"ip":743,"ortic":744,"Ġab":745,"Ġox":746,"Ġr":747,"Ġth":748,"epress":749,"Ġantid":750,"eral":751,"thm":752,"yp":753,"Ġanalog":754,"Ġserotonin":755,"ke":756,"Ġmult":757,"yro":758,"razepam":759,"Ġlorazepam":760,"Ġpl":761,"Ġ01":762,"Ġsup":763,"ox":764,"vitamin":765,"take":766,"uptake":767,"ting":768,"lipid":769,"epressant":770,"Ġantidepressant":771,"Ġsuppl":772,"ates":773,"Ġasthm":774,"Ġasthma":775,"78":776,"ev":777,"Ġantihyperlipid":778,"Ġantihyperlipidemic":779,"Ġacting":780,"Ġgastric":781,"Ġanalgesics":782,"ren":783,"Ġacetaminophen":784,"Ġsec":785,"are":786,"Ġanalogs":787,"Ġ06":788,"Ġmultiv":789,"Ġ80":790,"ack":791,"Ġsod":792,"Ġ70":793,"Ġsulfate":794,"Ġdied":795,"retion":796,"Ġsecretion":797,"cop":798,"),":799,"Ġhyper":800,"ith":801,"gre":802,"oly":803,"Ġ02":804,"tase":805,"Ġrel":806,"razole":807,"45":808,"amine":809,"Ġsodium":810,"eth":811,"Ġor":812,"Ġ72":813,"Ġgab":814,"Ġ78":815,"vul":816,"Ġsing":817,"ergic":818,"Ġdid":819,"Ġreceive":820,"iaz":821,"Ġ94":822,"Ġlax":823,"Ġreductase":824,"Ġ09":825,"Ġlaxative":826,"statin":827,"Ġsingle":828,"cl":829,"onvul":830,"Ġreducing":831,"onvuls":832,"Ġ08":833,"Ġreuptake":834,"onvulsant":835,"Ġanticonvulsant":836,"ary":837,"ne":838,"af":839,"59":840,"let":841,"Ġoxyc":842,"Ġprot":843,"Ġcoa":844,"vast":845,"vastatin":846,"Ġhmg":847,"statins":848,"Ġmin":849,"ens":850,"Ġ74":851,"sy":852,"Ġopioid":853,"Ġaggre":854,"atelet":855,"Ġoxycodone":856,"gation":857,"Ġplatelet":858,"Ġaggregation":859,"orphine":860,"Ġ76":861,"olol":862,"ort":863,"Ġmorphine":864,"Ġnos":865,"coc":866,"hal":867,"Ġsu":868,"Ġ68":869,"pis":870,"Ġmineral":871,"ides":872,"Ġ75":873,"Ġreceptor":874,"ris":875,"Ġmedical":876,"mat":877,"Ġproton":878,"ump":879,"orticoid":880,"nes":881,"Ġhydro":882,"49":883,"58":884,"Ġ03":885,"Ġpump":886,"copd":887,"Ġglu":888,"nd":889,"ppis":890,"Ġk":891,"cocorticoid":892,"olo":893,"rican":894,"Ġantian":895,"ex":896,"Ġ88":897,"Ġ66":898,"Ġbl":899,"uretic":900,"39":901,"otic":902,"ulant":903,"Ġ82":904,"Ġblack":905,"hyd":906,"but":907,"Ġinhal":908,"Ġantagonists":909,"Ġsalicylate":910,"Ġ77":911,"Ġ73":912,"Ġdiuretic":913,"dia":914,"Ġ81":915,"Ġne":916,"48":917,"Ġwith":918,"Ġ71":919,"Ġsalicylates":920,"Ġ07":921,"eration":922,"ican":923,"azepam":924,"thyro":925,"renergic":926,"Ġinhaled":927,"Ġ67":928,"Ġminerals":929,"56":930,"Ġ84":931,"hist":932,"46":933,"Ġ79":934,"Ġantihist":935,"Ġ04":936,"Ġ05":937,"wn":938,"38":939,"Ġ65":940,"Ġlev":941,"Ġgen":942,"gical":943,"55":944,"he":945,"nown":946,"Ġcl":947,"Ġ60":948,"47":949,"Ġsh":950,"ost":951,"Ġunk":952,"Ġunknown":953,"tens":954,"ell":955,"Ġ64":956,"Ġagonists":957,"diac":958,"thyrox":959,"thyroxine":960,"olyt":961,"Ġinit":962,"buterol":963,"40":964,"Ġelec":965,"trolyt":966,"Ġabd":967,"arin":968,"Ġelectrolyt":969,"36":970,"35":971,"Ġbag":972,"Ġ90":973,"ological":974,"Ġdermat":975,"Ġdermatological":976,"amines":977,"zine":978,"Ġ69":979,"me":980,"Ġelectrolytes":981,"african":982,"Ġhcl":983,"Ġmedicare":984,"42":985,"Ġ86":986,"57":987,"iet":988,"32":989,"ies":990,"ype":991,"Ġamer":992,"Ġamerican":993,"51":994,"lor":995,"37":996,"orm":997,"ried":998,"Ġmarried":999,"Ġhe":1000,"Ġantip":1001,"ril":1002,"opr":1003,"xiet":1004,"xiety":1005,"Ġ85":1006,"Ġgeneration":1007,"Ġ62":1008,"di":1009,"ical":1010,"Ġalbuterol":1011,"ass":1012,"Ġ87":1013,"Ġ93":1014,"rof":1015,"ron":1016,"Ġ83":1017,"43":1018,"Ġcardiac":1019,"ated":1020,"Ġ92":1021,"ht":1022,"idine":1023,"eprazole":1024,"Ġsupplies":1025,"44":1026,"33":1027,"Ġshort":1028,"Ġlis":1029,"oster":1030,"lyc":1031,"Ġantihistamines":1032,"Ġ,":1033,"rac":1034,"oprolol":1035,"Ġom":1036,"Ġantianxiety":1037,"pha":1038,"Ġmetoprolol":1039,"Ġomeprazole":1040,"Ġflu":1041,"eph":1042,"au":1043,"Ġ63":1044,"34":1045,"Ġ89":1046,"aine":1047,"ram":1048,"54":1049,"52":1050,"all":1051,"53":1052,"sych":1053,"qu":1054,"etic":1055,"Ġsuc":1056,"41":1057,"xa":1058,"Ġ91":1059,"Ġ50":1060,"Ġsyn":1061,"Ġsyr":1062,"ular":1063,"uro":1064,"ong":1065,"ycin":1066,"opril":1067,"rine":1068,"Ġrelated":1069,"ss":1070,"inopril":1071,"Ġlisinopril":1072,"ann":1073,"Ġ61":1074,"agnes":1075,"sychotic":1076,"Ġantipsychotic":1077,"Ġchest":1078,"thiaz":1079,"un":1080,"Ġace":1081,"Ġsucc":1082,"asone":1083,"idines":1084,"tro":1085,"Ġmultivitamins":1086,"Ġalpha":1087,"Ġmultivitamin":1088,"Ġgaba":1089,"adrenergic":1090,"rat":1091,"thetic":1092,"Ġ58":1093,"Ġstim":1094,"dn":1095,"ssris":1096,"Ġstimulant":1097,"Ġlow":1098,"Ġfall":1099,"dnis":1100,"pyr":1101,"Ġclon":1102,"agnesium":1103,"opioid":1104,"aid":1105,"Ġ110":1106,"inal":1107,"pro":1108,"orphone":1109,"Ġhydrom":1110,"Ġhydromorphone":1111,"Ġglucocorticoid":1112,"Ġcef":1113,"annel":1114,"Ġchannel":1115,"ill":1116,"hydro":1117,"itr":1118,"entin":1119,"Ġ59":1120,"omin":1121,"Ġph":1122,"apentin":1123,"Ġgabapentin":1124,"Ġhypertens":1125,"rec":1126,"Ġx":1127,"Ġ102":1128,"te":1129,"glyc":1130,"Ġlid":1131,"Ġchol":1132,"Ġtest":1133,"rim":1134,"ocaine":1135,"Ġtr":1136,"azole":1137,"glu":1138,"Ġlong":1139,"Ġpi":1140,"100":1141,"isp":1142,"Ġlidocaine":1143,"azine":1144,"Ġmon":1145,"ig":1146,"arb":1147,"ipine":1148,"Ġpiper":1149,"retic":1150,"Ġhypertension":1151,"Ġantipy":1152,"Ġantipyretic":1153,"art":1154,"ou":1155,"onate":1156,"Ġ2181":1157,"Ġ2176":1158,"Ġ2145":1159,"Ġcon":1160,"Ġlevo":1161,"Ġcy":1162,"Ġsuper":1163,"Ġcarb":1164,"iferol":1165,"alciferol":1166,"ypical":1167,"Ġantib":1168,"emide":1169,"emia":1170,"Ġ101":1171,"Ġ2144":1172,"Ġsp":1173,"Ġ2146":1174,"Ġsk":1175,"Ġclonazepam":1176,"Ġ118":1177,"Ġ2140":1178,"Ġ500":1179,"olac":1180,"Ġ56":1181,"ement":1182,"Ġ2163":1183,"ineph":1184,"Ġ2180":1185,"Ġsupply":1186,"Ġchlor":1187,"Ġ2177":1188,"Ġ57":1189,"Ġ2130":1190,"Ġ2152":1191,"bal":1192,"Ġ2141":1193,"Ġ2178":1194,"set":1195,"Ġ2160":1196,"db":1197,"Ġvitamin":1198,"Ġfdb":1199,"Ġsuperset":1200,"Ġ2151":1201,"Ġ2131":1202,"Ġ2148":1203,"Ġnec":1204,"Ġ2174":1205,"Ġ2149":1206,"Ġ2161":1207,"Ġ2164":1208,"Ġ2132":1209,"Ġ2165":1210,"Ġ2189":1211,"Ġ2143":1212,"Ġ2175":1213,"Ġ2138":1214,"Ġdme":1215,"Ġdop":1216,"Ġ2156":1217,"Ġ2179":1218,"Ġ2147":1219,"fa":1220,"orvastatin":1221,"Ġatorvastatin":1222,"Ġ2185":1223,"Ġ2154":1224,"Ġ2139":1225,"Ġ2135":1226,"Ġhorm":1227,"Ġ2169":1228,"Ġ112":1229,"hol":1230,"Ġ2167":1231,"acetaminophen":1232,"Ġ2133":1233,"Ġ2170":1234,"inephrine":1235,"Ġ2162":1236,"Ġ2129":1237,"Ġ2171":1238,"Ġ108":1239,"Ġ2186":1240,"Ġ2172":1241,"Ġ2134":1242,"inate":1243,"oids":1244,"Ġ2136":1245,"Ġ2173":1246,"Ġ2188":1247,"Ġ2142":1248,"usc":1249,"Ġsur":1250,"dipine":1251,"Ġ2137":1252,"Ġ2153":1253,"Ġmusc":1254,"Ġ2159":1255,"ib":1256,"Ġ2183":1257,"Ġsuccinate":1258,"Ġ2187":1259,"Ġ2166":1260,"Ġ120":1261,"ominal":1262,"ones":1263,"Ġabdominal":1264,"Ġ2184":1265,"Ġib":1266,"Ġex":1267,"Ġ125":1268,"Ġ2182":1269,"ano":1270,"Ġ2155":1271,"Ġ2150":1272,"Ġ2158":1273,"ethyl":1274,"Ġ2168":1275,"Ġ2128":1276,"Ġii":1277,"Ġri":1278,"Ġ128":1279,"ix":1280,"ulo":1281,"Ġ122":1282,"Ġneb":1283,"Ġ2157":1284,"Ġpot":1285,"ert":1286,"Ġfac":1287,"ancom":1288,"Ġvancom":1289,"Ġsynthetic":1290,"assium":1291,"air":1292,"Ġtype":1293,"ific":1294,"Ġ116":1295,"Ġ106":1296,"ral":1297,"Ġantagonist":1298,"Ġpotassium":1299,"Ġ103":1300,"Ġcortic":1301,"Ġ104":1302,"osteroids":1303,"Ġcorticosteroids":1304,"Ġ55":1305,"Ġmuscle":1306,"ter":1307,"rofen":1308,"Ġhfa":1309,"Ġhead":1310,"rep":1311,"uprofen":1312,"Ġloop":1313,"Ġcholec":1314,"Ġdihydro":1315,"pyridines":1316,"Ġdihydropyridines":1317,"unt":1318,"Ġibuprofen":1319,"Ġ124":1320,"Ġ25":1321,"Ġhormones":1322,"88":1323,"Ġ109":1324,"lodipine":1325,"Ġsurf":1326,"actant":1327,"Ġsurfactant":1328,"Ġthyro":1329,"Ġfolic":1330,"unter":1331,"counter":1332,"Ġ2126":1333,"Ġthyroid":1334,"Ġ126":1335,"Ġ115":1336,"of":1337,"79":1338,"Ġ2127":1339,"Ġlevothyroxine":1340,"Ġ105":1341,"Ġamlodipine":1342,"osp":1343,"Ġdopamine":1344,"Ġ117":1345,"nos":1346,"Ġdy":1347,"Ġcholecalciferol":1348,"Ġns":1349,"ticasone":1350,"did":1351,"Ġchloride":1352,"audid":1353,"Ġfluticasone":1354,"Ġrelax":1355,"Ġrelaxant":1356,"Ġ114":1357,"loro":1358,"chloro":1359,"ropi":1360,"Ġencounter":1361,"repinephrine":1362,"ators":1363,"cose":1364,"able":1365,"dil":1366,"Ġ54":1367,"Ġ107":1368,"itis":1369,"Ġinf":1370,"Ġ119":1371,"Ġ2125":1372,"Ġ111":1373,"Ġ127":1374,"dilaudid":1375,"olone":1376,"Ġ130":1377,"Ġim":1378,"Ġsim":1379,"iral":1380,"Ġ24":1381,"tox":1382,"Ġnsaid":1383,"Ġinitial":1384,"rip":1385,"Ġ123":1386,"out":1387,"onic":1388,"Ġ132":1389,"Ġ129":1390,"uss":1391,"osph":1392,"acement":1393,"ocus":1394,"glucocorticoid":1395,"ocusate":1396,"Ġfuro":1397,"semide":1398,"Ġfurosemide":1399,"Ġrepl":1400,"oprazole":1401,"alm":1402,"asal":1403,"Ġcare":1404,"leep":1405,"for":1406,"Ġ121":1407,"Ġreplacement":1408,"Ġ113":1409,"cobal":1410,"Ġcyano":1411,"cobalamin":1412,"Ġcyanocobalamin":1413,"norepinephrine":1414,"Ġtet":1415,"Ġdocusate":1416,"Ġ2124":1417,"ow":1418,"thiazide":1419,"anic":1420,"Ġ138":1421,"int":1422,"xone":1423,"Ġket":1424,"Ġprednis":1425,"Ġ136":1426,"abet":1427,"Ġbi":1428,"ene":1429,"Ġ2122":1430,"Ġnasal":1431,"sel":1432,"cox":1433,"Ġdiazepam":1434,"Ġmagnesium":1435,"Ġ133":1436,"Ġpant":1437,"Ġhep":1438,"Ġpantoprazole":1439,"rin":1440,"Ġ52":1441,"pon":1442,"emetic":1443,"Ġantiemetic":1444,"formin":1445,"atic":1446,"olar":1447,"Ġ135":1448,"Ġ134":1449,"Ġmetformin":1450,"Ġprednisone":1451,"Ġ2123":1452,"Ġtran":1453,"ess":1454,"type":1455,"Ġwithout":1456,"Ġacute":1457,"Ġhydroc":1458,"iotic":1459,"hanc":1460,"Ġenhanc":1461,"specific":1462,"Ġcol":1463,"Ġbip":1464,"ak":1465,"ness":1466,"Ġbipolar":1467,"89":1468,"receptor":1469,"Ġhisp":1470,"atino":1471,"Ġhispanic":1472,"anyl":1473,"chlorothiazide":1474,"agulant":1475,"oagulant":1476,"Ġto":1477,"Ġle":1478,"pram":1479,"anus":1480,"tria":1481,"ian":1482,"sf":1483,"Ġinj":1484,"entanyl":1485,"Ġfentanyl":1486,"ract":1487,"Ġ2121":1488,"Ġprost":1489,"Ġ53":1490,"Ġheal":1491,"Ġtra":1492,"com":1493,"Ġhealth":1494,"Ġ30":1495,"Ġtetanus":1496,"Ġsimvastatin":1497,"Ġceftria":1498,"Ġceftriaxone":1499,"Ġnit":1500,"Ġ2120":1501,"ght":1502,"Ġglucose":1503,"Ġ137":1504,"guan":1505,"Ġbiguan":1506,"Ġ2190":1507,"Ġrespon":1508,"Ġresponse":1509,"Ġenhancers":1510,"Ġ131":1511,"diph":1512,"med":1513,"Ġantibiotic":1514,"adine":1515,"Ġbiguanides":1516,"Ġcoum":1517,"Ġang":1518,"Ġright":1519,"Ġ139":1520,"Ġj":1521,"romide":1522,"Ġatypical":1523,"onary":1524,"Ġspec":1525,"Ġ140":1526,"Ġurin":1527,"Ġ2118":1528,"Ġpropi":1529,"latino":1530,"Ġcarbonate":1531,"Ġvas":1532,"oagulants":1533,"Ġanticoagulants":1534,"ect":1535,"phth":1536,"gar":1537,"Ġlef":1538,"oth":1539,"Ġ2119":1540,"orb":1541,"Ġhyp":1542,"Ġleft":1543,"Ġvancomycin":1544,"itrate":1545,"Ġhydrox":1546,"medi":1547,"ache":1548,"ropium":1549,"ratropium":1550,"Ġip":1551,"Ġipratropium":1552,"mediate":1553,"Ġsugar":1554,"Ġglucocorticoids":1555,"Ġbromide":1556,"Ġophth":1557,"compl":1558,"Ġclo":1559,"acell":1560,"diphtox":1561,"lox":1562,"Ġ2191":1563,"hydr":1564,"Ġangio":1565,"Ġdysp":1566,"Ġz":1567,"trate":1568,"019":1569,"Ġhydrochlorothiazide":1570,"illin":1571,"Ġangiotens":1572,"nea":1573,"orolac":1574,"Ġketorolac":1575,"almic":1576,"Ġophthalmic":1577,"Ġangiotensin":1578,"etine":1579,"arr":1580,"zines":1581,"and":1582,"Ġcap":1583,"Ġ2117":1584,"Ġ51":1585,"acin":1586,"ameth":1587,"Ġantif":1588,"Ġdyspnea":1589,"Ġhum":1590,"Ġ142":1591,"artan":1592,"Ġthiaz":1593,"Ġthiazides":1594,"Ġgl":1595,"Ġ2192":1596,"odil":1597,"Ġvasodil":1598,"Ġvasodilators":1599,"erg":1600,"Ġpropionic":1601,"Ġ2116":1602,"Ġadrenergic":1603,"Ġdise":1604,"gm":1605,"Ġsol":1606,"Ġtar":1607,"Ġint":1608,"Ġcont":1609,"eti":1610,"Ġcent":1611,"Ġtartrate":1612,"Ġdiabet":1613,"Ġdiabetes":1614,"Ġcor":1615,"4019":1616,"Ġso":1617,"rol":1618,"benz":1619,"Ġsaline":1620,"sn":1621,"mine":1622,"ycl":1623,"Ġheadache":1624,"Ġdex":1625,"Ġphosph":1626,"motic":1627,"ser":1628,"Ġhist":1629,"Ġneed":1630,"loxacin":1631,"Ġback":1632,"Ġra":1633,"Ġwe":1634,"arbs":1635,"Ġdiv":1636,"immediate":1637,"Ġdisease":1638,"Ġ146":1639,"Ġcoumarin":1640,"Ġspir":1641,"Ġsen":1642,"sartan":1643,"idazole":1644,"Ġ2115":1645,"Ġ40":1646,"Ġiron":1647,"na":1648,"Ġmethyl":1649,"osterone":1650,"eno":1651,"xxa":1652,"ory":1653,"Ġfib":1654,"Ġpoly":1655,"Ġsulfat":1656,"Ġ148":1657,"zolam":1658,"Ġtransf":1659,"snris":1660,"Ġ144":1661,"Ġ145":1662,"ug":1663,"actone":1664,"Ġtransfer":1665,"ung":1666,"Ġqu":1667,"Ġcoronary":1668,"Ġlower":1669,"rent":1670,"Ġ150":1671,"Ġ143":1672,"yclo":1673,"iz":1674,"Ġhem":1675,"Ġoral":1676,"Ġ2193":1677,"Ġ141":1678,"ever":1679,"Ġfo":1680,"itor":1681,"Ġ2114":1682,"Ġald":1683,"Ġwid":1684,"owed":1685,"Ġwidowed":1686,"Ġos":1687,"pre":1688,"press":1689,"ungal":1690,"Ġheparin":1691,"Ġ2194":1692,"ose":1693,"Ġantibiotics":1694,"erm":1695,"ility":1696,"phetamin":1697,"tern":1698,"sing":1699,"Ġ2113":1700,"Ġ147":1701,"Ġantipsychotics":1702,"ause":1703,"Ġaz":1704,"Ġcentral":1705,"Ġosmotic":1706,"Ġaldosterone":1707,"ce":1708,"yle":1709,"Ġfacility":1710,"itrates":1711,"Ġantifungal":1712,"ginal":1713,"Ġantianginal":1714,"phy":1715,"estyle":1716,"reestyle":1717,"000":1718,"Ġurinary":1719,"789":1720,"car":1721,"Ġnitro":1722,"Ġfever":1723,"Ġhistamine":1724,"Ġreducers":1725,"200":1726,"Ġphe":1727,"Ġpheno":1728,"Ġrelaxants":1729,"yr":1730,"ced":1731,"Ġunable":1732,"glycemic":1733,"ath":1734,"onol":1735,"Ġspironol":1736,"Ġalco":1737,"786":1738,"Ġimm":1739,"phenhydr":1740,"083":1741,"Ġhypertro":1742,"Ġsoln":1743,"Ġhypertrophy":1744,"Ġabn":1745,"Ġ?":1746,"Ġ33":1747,"Ġspironolactone":1748,"arf":1749,"Ġwarf":1750,"Ġwarfarin":1751,"Ġprostatic":1752,"nitrates":1753,"pen":1754,"chlor":1755,"Ġ149":1756,"Ġinfec":1757,"Ġ200":1758,"perid":1759,"Ġdiphenhydr":1760,"Ġhydrocodone":1761,"Ġinhibitor":1762,"Ġthia":1763,"fl":1764,"ury":1765,"Ġcip":1766,"Ġinfection":1767,"zodone":1768,"Ġtrazodone":1769,"ean":1770,"Ġpert":1771,"acellular":1772,"Ġpertuss":1773,"Ġsleep":1774,"Ġleg":1775,"perazine":1776,"Ġprochlor":1777,"Ġprochlorperazine":1778,"vir":1779,"Ġ2195":1780,"Ġalcohol":1781,"Ġimmu":1782,"holin":1783,"holinergic":1784,"Ġ?.":1785,"ential":1786,"Ġnitroglyc":1787,"Ġphenothiaz":1788,"Ġphenothiazines":1789,"illed":1790,"Ġnur":1791,"Ġnursing":1792,"Ġskilled":1793,"Ġper":1794,"prednis":1795,"Ġthiamine":1796,"prednisolone":1797,"Ġmethylprednisolone":1798,"Ġ48":1799,"Ġciprof":1800,"serotonin":1801,"Ġlorat":1802,"Ġloratadine":1803,"pine":1804,"Ġasian":1805,"Ġult":1806,"erin":1807,"Ġinjury":1808,"rimary":1809,"magnesium":1810,"umin":1811,"essential":1812,"Ġessential":1813,"vent":1814,"uminum":1815,"Ġaluminum":1816,"Ġob":1817,"ism":1818,"sar":1819,"cal":1820,"Ġ49":1821,"mc":1822,"tin":1823,"Ġuse":1824,"primary":1825,"Ġmod":1826,"Ġ2112":1827,"99":1828,"arrhe":1829,"italo":1830,"italopram":1831,"Ġ1000":1832,"81":1833,"Ġlosartan":1834,"ouch":1835,"urin":1836,"algia":1837,"Ġ2196":1838,"erro":1839,"Ġran":1840,"Ġantihyperglycemic":1841,"Ġphen":1842,"notic":1843,"ental":1844,"Ġepi":1845,"estinal":1846,"ept":1847,"Ġdiet":1848,"Ġdietary":1849,"Ġspecified":1850,"Ġmaleate":1851,"Ġnitroglycerin":1852,"reuptake":1853,"saris":1854,"itidine":1855,"Ġuta":1856,"ention":1857,"icillin":1858,"errous":1859,"Ġ26":1860,"cur":1861,"Ġdose":1862,"Ġrapid":1863,"acter":1864,"ective":1865,"ins":1866,"rect":1867,"ound":1868,"Ġoth":1869,"Ġgastro":1870,"nosup":1871,"phetamine":1872,"Ġimmunosup":1873,"Ġimmunosuppress":1874,"Ġfl":1875,"Ġlact":1876,"alicyl":1877,"ard":1878,"Ġmel":1879,"apine":1880,"ancet":1881,"Ġtop":1882,"mp":1883,"Ġ250":1884,"Ġranitidine":1885,"antus":1886,"Ġ156":1887,"zapine":1888,"Ġsleeping":1889,"Ġultra":1890,"Ġfx":1891,"atypical":1892,"oqu":1893,"Ġtests":1894,"ind":1895,"acterial":1896,"Ġdiphenhydramine":1897,"Ġciprofloxacin":1898,"Ġ2197":1899,"Ġweak":1900,"Ġcoll":1901,"Ġ152":1902,"Ġferrous":1903,"Ġ2111":1904,"ancets":1905,"amot":1906,"ithrom":1907,"Ġweakness":1908,"zzines":1909,"zziness":1910,"mo":1911,"Ġterm":1912,"Ġasc":1913,"cope":1914,"Ġ154":1915,"onide":1916,"olace":1917,"freestyle":1918,"adol":1919,"Ġaltern":1920,"Ġalternative":1921,"imetic":1922,"Ġtram":1923,"Ġazithrom":1924,"Ġtramadol":1925,"Ġaten":1926,"Ġatenolol":1927,"sis":1928,"Ġlancets":1929,"umb":1930,"end":1931,"ms":1932,"neb":1933,"079":1934,"Ġtopical":1935,"Ġpr":1936,"epi":1937,"gest":1938,"Ġalt":1939,"Ġ153":1940,"ail":1941,"Ġprop":1942,"Ġ155":1943,"etia":1944,"atonin":1945,"ub":1946,"Ġ47":1947,"Ġcitrate":1948,"lease":1949,"Ġmelatonin":1950,"adult":1951,"Ġpra":1952,"Ġwound":1953,"edative":1954,"elet":1955,"Ġglyc":1956,"Ġ2198":1957,"Ġmedicaid":1958,"Ġacet":1959,"trim":1960,"Ġdisord":1961,"eletal":1962,"Ġ151":1963,"orbic":1964,"Ġskeletal":1965,"Ġ46":1966,"Ġascorbic":1967,"Ġ28":1968,"Ġglycol":1969,"Ġphosphate":1970,"omit":1971,"67":1972,"68":1973,"urea":1974,"Ġantibacterial":1975,"Ġaltered":1976,"pra":1977,"Ġamp":1978,"Ġmental":1979,"Ġlite":1980,"Ġnic":1981,"ausea":1982,"glucocorticoids":1983,"aline":1984,"orced":1985,"Ġdivorced":1986,"Ġ158":1987,"Ġadult":1988,"az":1989,"Ġver":1990,"Ġvomit":1991,"Ġpiperidines":1992,"rizine":1993,"Ġnausea":1994,"nosides":1995,"etirizine":1996,"Ġstrip":1997,"Ġhuman":1998,"beta":1999,"ieno":2000,"idase":2001,"Ġ157":2002,"Ġpen":2003,"Ġest":2004,"onia":2005,"Ġsennosides":2006,"Ġvomiting":2007,"traline":2008,"Ġsertraline":2009,"Ġsyncope":2010,"Ġazithromycin":2011,"Ġrelease":2012,"Ġpolyethyl":2013,"Ġpolyethylene":2014,"Ġcitalopram":2015,"90":2016,"Ġ2199":2017,"Ġmono":2018,"current":2019,"Ġ2200":2020,"Ġext":2021,"Ġmetron":2022,"uk":2023,"Ġanes":2024,"Ġuncompl":2025,"Ġdil":2026,"ct":2027,"reno":2028,"Ġabnorm":2029,"use":2030,"ran":2031,"Ġxan":2032,"sin":2033,"Ġlocal":2034,"Ġsyring":2035,"etiapine":2036,"Ġquetiapine":2037,"inolone":2038,"salicyl":2039,"Ġoil":2040,"Ġsulfon":2041,"proair":2042,"ucle":2043,"salicylate":2044,"renoc":2045,"les":2046,"ics":2047,"Ġsw":2048,"adrenoc":2049,"elly":2050,"Ġjelly":2051,"Ġ45":2052,"adrenoceptor":2053,"nat":2054,"asm":2055,"Ġ159":2056,"hyp":2057,"amethasone":2058,"rant":2059,"Ġ600":2060,"Ġanticholinergic":2061,"ives":2062,"ativan":2063,"Ġ2110":2064,"Ġphenyl":2065,"iazepine":2066,"su":2067,"Ġstrips":2068,"Ġfail":2069,"Ġdm":2070,"cup":2071,"Ġet":2072,"Ġvis":2073,"raoc":2074,"Ġplus":2075,"raocular":2076,"acid":2077,"ulosin":2078,"Ġasleep":2079,"Ġtams":2080,"Ġtamsulosin":2081,"Ġfailure":2082,"roid":2083,"Ġdizziness":2084,"ronic":2085,"oxetine":2086,")],":2087,"ai":2088,"Ġ3350":2089,"val":2090,"ammat":2091,"ammatory":2092,"ugh":2093,"Ġabuse":2094,"Ġantihistamine":2095,"Ġcetirizine":2096,"Ġbis":2097,"dcup":2098,"Ġudcup":2099,"av":2100,"icit":2101,"gen":2102,"yalgia":2103,"esterol":2104,"109":2105,"Ġsmo":2106,"mpath":2107,"Ġchronic":2108,"sim":2109,"sen":2110,"Ġpiperac":2111,"yci":2112,"Ġvancomyci":2113,"omimetic":2114,"mpathomimetic":2115,"Ġlac":2116,"Ġunsp":2117,"usion":2118,"Ġdmard":2119,"Ġsyringe":2120,"Ġ2201":2121,"Ġanesthetic":2122,"Ġhalo":2123,"Ġem":2124,"Ġmix":2125,"ript":2126,"tention":2127,"Ġamin":2128,"idne":2129,"idney":2130,"Ġpravastatin":2131,"Ġkidney":2132,"Ġ2202":2133,"peridol":2134,"bar":2135,"Ġdr":2136,"Ġcell":2137,"ylurea":2138,"Ġsulfonylurea":2139,"Ġhaloperidol":2140,"amide":2141,"zo":2142,"Ġgastroint":2143,"actam":2144,"viral":2145,"87":2146,"argine":2147,"Ġglargine":2148,"itus":2149,"lip":2150,"retro":2151,"Ġpu":2152,"retroviral":2153,"Ġantiretroviral":2154,"Ġcough":2155,"non":2156,"Ġpreg":2157,"Ġ44":2158,"Ġneedles":2159,"Ġsedative":2160,"Ġflo":2161,"opl":2162,"Ġthro":2163,"Ġtract":2164,"lon":2165,"cy":2166,"Ġacc":2167,"Ġmal":2168,"Ġcomplic":2169,"hum":2170,"xetine":2171,"Ġrican":2172,"erto":2173,"Ġpuerto":2174,"Ġdulo":2175,"Ġduloxetine":2176,"land":2177,"Ġval":2178,"oxyl":2179,"Ġmell":2180,"Ġmellitus":2181,"der":2182,"tab":2183,"Ġel":2184,"Ġmid":2185,"acrol":2186,"Ġdilt":2187,"urce":2188,"cat":2189,"Ġ160":2190,"Ġimmunosuppressive":2191,"chol":2192,"Ġxl":2193,"ures":2194,"hypnotic":2195,"Ġhydroxy":2196,"epsy":2197,"ulose":2198,"Ġfibrom":2199,"iazem":2200,"Ġdiltiazem":2201,"Ġsource":2202,"Ġfibromyalgia":2203,"ction":2204,"odic":2205,"erase":2206,"ign":2207,"lop":2208,".-":2209,"Ġtria":2210,"Ġread":2211,"amycin":2212,"Ġ2203":2213,"orr":2214,"trimeth":2215,"barium":2216,"Ġreadi":2217,"simet":2218,"asc":2219,"Ġstren":2220,"deral":2221,"Ġfactor":2222,"rit":2223,"Ġdisorder":2224,"Ġlactulose":2225,"Ġsulfameth":2226,"ver":2227,"69":2228,"Ġcontrac":2229,"Ġthieno":2230,"pyridine":2231,"Ġthienopyridine":2232,"opin":2233,"Ġabnormal":2234,"urinol":2235,"lonopin":2236,"Ġallop":2237,"Ġallopurinol":2238,"Ġone":2239,"Ġswell":2240,"jet":2241,"Ġrecordedthe":2242,"Ġdisk":2243,"Ġdiskus":2244,"Ġdirect":2245,"Ġfract":2246,"Ġmetronidazole":2247,"derall":2248,"Ġcyclo":2249,"nee":2250,"Ġnicot":2251,"Ġmonitor":2252,"Ġbup":2253,"ay":2254,"to":2255,"Ġthroat":2256,"asmodic":2257,"Ġxanth":2258,"ispasmodic":2259,"Ġantispasmodic":2260,"Ġswelling":2261,"Ġoxidase":2262,"gan":2263,"Ġall":2264,"Ġfor":2265,"igr":2266,"Ġfoot":2267,"ulitis":2268,"Ġneedle":2269,"Ġmigr":2270,"sc":2271,"ortis":2272,"Ġstr":2273,"amphetamine":2274,"uric":2275,"ulators":2276,"Ġhyperuric":2277,"Ġhyperuricemia":2278,"eptive":2279,"Ġmv":2280,"ivity":2281,"selective":2282,"Ġde":2283,"Ġ+":2284,"ycline":2285,"oquel":2286,"Ġtors":2287,"oft":2288,"Ġxanthine":2289,"Ġdox":2290,"78650":2291,"lopram":2292,"oclopram":2293,"Ġmetoclopram":2294,"Ġmetoclopramide":2295,"iph":2296,"Ġtorsemide":2297,"Ġpyr":2298,"neum":2299,"Ġagonist":2300,"Ġantim":2301,"25000":2302,"cholesterol":2303,"Ġamides":2304,"Ġlevel":2305,"Ġpneum":2306,"mcg":2307,"Ġhypercholesterol":2308,"Ġhypercholesterolemia":2309,"Ġknee":2310,"Ġdextro":2311,"Ġeval":2312,"250":2313,"Ġzol":2314,"Ġmeth":2315,"ved":2316,"ud":2317,"vair":2318,"Ġmy":2319,"Ġ43":2320,"dibenz":2321,"Ġhemorr":2322,"Ġdef":2323,"Ġmonitoring":2324,"Ġcontraceptive":2325,"cap":2326,"bactam":2327,"119":2328,"senna":2329,"cos":2330,"ilol":2331,"Ġcarved":2332,"Ġcarvedilol":2333,"Ġnucle":2334,"ofol":2335,"Ġpropofol":2336,"ylen":2337,"Ġul":2338,"ame":2339,"ylenol":2340,"lose":2341,"Ġlaceration":2342,"prazolam":2343,"Ġalprazolam":2344,"Ġnan":2345,"ometh":2346,"Ġenc":2347,"Ġcellulitis":2348,"intraocular":2349,"iviral":2350,"mini":2351,"arrhea":2352,"Ġcomplications":2353,"Ġfracture":2354,"Ġmeter":2355,"Ġnicotine":2356,"Ġimidazole":2357,"lantus":2358,"Ġ42":2359,"Ġcefepi":2360,"Ġcefepime":2361,"col":2362,"dio":2363,"ortisone":2364,"Ġgastrointestinal":2365,"ganism":2366,"assified":2367,"Ġher":2368,"phosph":2369,"Ġtouch":2370,"Ġdeficit":2371,"Ġhypo":2372,"str":2373,"Ġcalcit":2374,"ndris":2375,"grel":2376,"Ġdon":2377,"astic":2378,"ntr":2379,"Ġ*":2380,"Ġsame":2381,"Ġencntr":2382,"bd":2383,"apro":2384,"azol":2385,"odi":2386,"Ġdexamethasone":2387,"ropion":2388,"Ġbupropion":2389,"etam":2390,"Ġtre":2391,"Ġmodulators":2392,"66":2393,"ark":2394,"Ġro":2395,"ogrel":2396,"pidogrel":2397,"Ġclopidogrel":2398,"Ġleveti":2399,"Ġlevetirac":2400,"othiazepine":2401,"dibenzothiazepine":2402,"Ġdiarrhea":2403,"urine":2404,"onazole":2405,"ipheral":2406,"Ġneck":2407,"Ġes":2408,"Ġfluoxetine":2409,"cous":2410,"Ġviscous":2411,"tric":2412,"Ġgluc":2413,"urop":2414,"agyl":2415,"Ġmigraine":2416,"Ġantacid":2417,"oplastic":2418,"Ġ2204":2419,"iva":2420,"riol":2421,"Ġcalcitriol":2422,"Ġdet":2423,"inson":2424,"arkinson":2425,"Ġpneumonia":2426,"ody":2427,"apse":2428,"balta":2429,"mbalta":2430,"Ġantine":2431,"imb":2432,"calc":2433,"Ġantineoplastic":2434,"Ġreg":2435,"flo":2436,"colace":2437,"Ġpart":2438,"osis":2439,"Ġ27":2440,"Ġris":2441,"Ġlimb":2442,"Ġod":2443,"iver":2444,"Ġantiviral":2445,"uv":2446,"vasc":2447,"Ġmulti":2448,"zide":2449,"Ġ168":2450,"select":2451,"yclics":2452,"tricyclics":2453,"Ġ166":2454,"amotidine":2455,"gth":2456,"ifen":2457,"Ġcollapse":2458,"Ġlip":2459,"oh":2460,"Ġvag":2461,"Ġattention":2462,"oxazole":2463,"oside":2464,"flagyl":2465,"adh":2466,"alol":2467,"Ġeurop":2468,"Ġeuropean":2469,"hyperact":2470,"Ġfrom":2471,"adhd":2472,"lipi":2473,"tis":2474,"Ġpurine":2475,"Ġby":2476,"Ġ169":2477,"Ġglipi":2478,"Ġglipizide":2479,"hyperactivity":2480,"Ġ167":2481,"ous":2482,"odyl":2483,"ontin":2484,"Ġer":2485,"Ġdep":2486,"Ġ163":2487,"Ġodt":2488,"urojet":2489,"Ġfamotidine":2490,"ject":2491,"athy":2492,"unspec":2493,"lev":2494,"acodyl":2495,"Ġ162":2496,"osorb":2497,"azolam":2498,"Ġetoh":2499,"pes":2500,"osorbide":2501,"Ġisosorbide":2502,"aily":2503,"Ġherpes":2504,"complex":2505,"Ġ164":2506,"Ġpal":2507,"azines":2508,"Ġpiperazines":2509,"Ġmidazolam":2510,"outh":2511,"cardiac":2512,"Ġhear":2513,"Ġdist":2514,"kle":2515,"Ġ165":2516,"Ġlevetiracetam":2517,"tl":2518,"ov":2519,"Ġhydrocortisone":2520,"Ġ32":2521,"Ġhand":2522,"Ġstrength":2523,"Ġexp":2524,"Ġheart":2525,"Ġna":2526,"Ġantiparkinson":2527,"509":2528,"Ġklonopin":2529,"inger":2530,"Ġep":2531,"alpha":2532,"calcium":2533,"Ġsite":2534,"Ġ161":2535,"Ġdrug":2536,"ring":2537,"rex":2538,"Ġcefazol":2539,"Ġcefazolin":2540,"Ġceph":2541,"anzapine":2542,"Ġolanzapine":2543,"Ġfinger":2544,"Ġarm":2545,"Ġ41":2546,"fen":2547,"top":2548,"ergy":2549,"adin":2550,"assa":2551,"Ġdepress":2552,"nassa":2553,"lofen":2554,"aspir":2555,"ile":2556,"agland":2557,"Ġprostagland":2558,"utr":2559,"Ġleuk":2560,"Ġsenna":2561,"86":2562,"Ġ29":2563,"Ġ&":2564,"Ġtear":2565,"arrheal":2566,"Ġadderall":2567,"lex":2568,"Ġseroquel":2569,"yclovir":2570,"Ġobject":2571,"Ġprostaglandin":2572,"Ġlispro":2573,"rain":2574,"orp":2575,"Ġ36":2576,"Ġren":2577,"Ġantidi":2578,"Ġskin":2579,"289":2580,"inhib":2581,"vic":2582,"eff":2583,"Ġcomplex":2584,"ode":2585,"Ġmir":2586,"syring":2587,"tazapine":2588,"Ġmirtazapine":2589,"yline":2590,"riptyline":2591,"Ġerg":2592,"alpro":2593,"iazine":2594,"Ġdivalpro":2595,"Ġdivalproex":2596,"itin":2597,"Ġbone":2598,"Ġatri":2599,"uct":2600,"Ġup":2601,"Ġpalp":2602,"orption":2603,"Ġtreat":2604,"Ġ38":2605,"ixir":2606,"Ġtears":2607,"aster":2608,"Ġey":2609,"Ġsho":2610,"Ġhip":2611,"Ġds":2612,"Ġhemorrh":2613,"Ġfore":2614,"iralax":2615,"ificial":2616,"Ġnitrof":2617,"Ġvaginal":2618,"Ġmonon":2619,"mcinolone":2620,"syringes":2621,"Ġintestinal":2622,"Ġlabet":2623,"Ġlabetalol":2624,"opa":2625,"Ġform":2626,"Ġestro":2627,"otri":2628,"aff":2629,"Ġantidiarrheal":2630,"Ġintox":2631,"Ġpiperazine":2632,"itations":2633,"729":2634,"Ġart":2635,"peridone":2636,"Ġpalpitations":2637,"Ġmononitrate":2638,"Ġbind":2639,"Ġbinders":2640,"Ġcontusion":2641,"otriene":2642,"hythm":2643,"unction":2644,"phas":2645,"Ġ2205":2646,"ision":2647,"Ġsympathomimetic":2648,"Ġallergy":2649,"flovent":2650,"Ġpiperacillin":2651,"Ġ325":2652,"Ġbtl":2653,"tazo":2654,"ocalciferol":2655,"Ġergocalciferol":2656,"etouch":2657,"Ġgu":2658,"Ġankle":2659,"Ġrif":2660,"cer":2661,"ied":2662,"78909":2663,"onetouch":2664,"triazine":2665,"Ġspecied":2666,"Ġphenyltriazine":2667,"724":2668,"gast":2669,"Ġrisperidone":2670,"ment":2671,"ga":2672,"Ġuncl":2673,"rig":2674,"Ġupper":2675,"eptic":2676,"Ġquad":2677,"Ġacetonide":2678,"eterol":2679,"caff":2680,"Ġtriamcinolone":2681,"Ġunclassified":2682,"Ġquadrant":2683,"Ġlamot":2684,"rigine":2685,"Ġlamotrigine":2686,"salm":2687,"lq":2688,"ants":2689,"77":2690,"Ġdrugs":2691,"Ġdonnat":2692,"Ġpar":2693,"gastric":2694,"Ġdonnatol":2695,"Ġdomin":2696,"Ġepigastric":2697,"Ġatrial":2698,"Ġleukotriene":2699,"ector":2700,"Ġdominican":2701,"alin":2702,"Ġsil":2703,"787":2704,"Ġbody":2705,"Ġ34":2706,"Ġopen":2707,"129":2708,"elixir":2709,"eric":2710,"flammatory":2711,"Ġantit":2712,"Ġgly":2713,"pidem":2714,"Ġzolpidem":2715,"yn":2716,"esterase":2717,"Ġlevof":2718,"Ġ37":2719,"axis":2720,"Ġrenal":2721,"Ġnar":2722,"omethazine":2723,"Ġpromethazine":2724,"Ġphosphodi":2725,"Ġphosphodiesterase":2726,"rica":2727,"%,":2728,"Ġpyrrol":2729,"Ġiv":2730,"salmeterol":2731,"Ġclass":2732,"etil":2733,"Ġobstr":2734,"tal":2735,"uck":2736,"Ġse":2737,"Ġpyrrolidine":2738,"ycycline":2739,"Ġdoxycycline":2740,"erb":2741,"phasic":2742,"Ġ400":2743,"haler":2744,"gue":2745,"305":2746,"aifen":2747,"ulder":2748,"oint":2749,"Ġantiper":2750,"esin":2751,"Ġcardio":2752,"rill":2753,"aifenesin":2754,"glucose":2755,"1830":2756,"ple":2757,"Ġshoulder":2758,"Ġclonidine":2759,"Ġdeter":2760,"rents":2761,"Ġdeterrents":2762,"tec":2763,"athyroid":2764,"istal":2765,"Ġextra":2766,"Ġxr":2767,"here":2768,"ication":2769,"Ġ39":2770,"Ġ35":2771,"humalog":2772,"Ġbul":2773,"olate":2774,"Ġperipheral":2775,"Ġcardiovasc":2776,"Ġtylenol":2777,"Ġbow":2778,"Ġsmoking":2779,"Ġantiperistal":2780,"Ġantiperistaltic":2781,"abs":2782,"Ġbowel":2783,"Ġdic":2784,"inflammatory":2785,"rillation":2786,"Ġfibrillation":2787,"yrtec":2788,"bet":2789,"Ġ31":2790,"Ġbic":2791,"Ġbisacodyl":2792,"azep":2793,"Ġbre":2794,"Ġacetate":2795,"Ġ/":2796,"Ġbulk":2797,"Ġpat":2798,"Ġlantus":2799,"Ġmyco":2800,"Ġeff":2801,"hythmic":2802,"Ġantiarr":2803,"Ġantiarrhythmic":2804,"Ġmixt":2805,"Ġmixtures":2806,"Ġsub":2807,"andi":2808,"tazobactam":2809,"colepsy":2810,"Ġnarcolepsy":2811,"Ġcolace":2812,"gra":2813,"ents":2814,"rosis":2815,"phenolate":2816,"Ġbenzoth":2817,"Ġmycophenolate":2818,"Ġbenzothiazepines":2819,"aprine":2820,"benzaprine":2821,"Ġcyclobenzaprine":2822,"dean":2823,"Ġverdean":2824,"cape":2825,"ry":2826,"esonide":2827,"Ġhemorrhage":2828,"Ġcardiovascular":2829,"Ġdig":2830,"Ġdiab":2831,"Ġmacrol":2832,"gmp":2833,"Ġrespirat":2834,"unit":2835,"Ġrespiratory":2836,"Ġ179":2837,"390":2838,"Ġepil":2839,"Ġjoint":2840,"Ġeye":2841,"Ġua":2842,"oin":2843,"ace":2844,"asteride":2845,"advair":2846,"mega":2847,"osin":2848,"Ġomega":2849,"Ġartificial":2850,"restor":2851,"Ġfolate":2852,"Ġlub":2853,"spor":2854,"Ġhycl":2855,"Ġhyclate":2856,"xxxa":2857,"amm":2858,"inese":2859,"Ġclind":2860,"Ġpatch":2861,"Ġchinese":2862,"Ġulcer":2863,"Ġintoxication":2864,"Ġclindamycin":2865,"Ġlumb":2866,"Ġfin":2867,"glycemia":2868,"ineurin":2869,"ify":2870,"Ġcalcineurin":2871,"abalin":2872,"Ġpregabalin":2873,"489":2874,"ilify":2875,"Ġfluor":2876,"Ġcause":2877,"olin":2878,"Ġantituss":2879,"Ġativan":2880,"inf":2881,"76":2882,"Ġinfl":2883,"Ġfinasteride":2884,"959":2885,"179":2886,"0600":2887,"ofetil":2888,"suvastatin":2889,"Ġrosuvastatin":2890,"Ġexac":2891,"atitis":2892,"Ġexacerb":2893,"Ġ178":2894,"Ġ176":2895,"Ġlevofloxacin":2896,"idal":2897,"Ġsprain":2898,"Ġ(,":2899,"Ġhandi":2900,"189":2901,"Ġhandihaler":2902,"imer":2903,"8889":2904,"Ġtreatment":2905,"abin":2906,"Ġhumalog":2907,"Ġamphetamine":2908,"azepine":2909,"idone":2910,"Ġprenat":2911,"Ġexacerbation":2912,"acch":2913,"5990":2914,"ice":2915,"Ġhypnotic":2916,"Ġhydroxyzine":2917,"otide":2918,"acchar":2919,"par":2920,"Ġgluconate":2921,"Ġ170":2922,"Ġprenatal":2923,"pept":2924,"idd":2925,"Ġmis":2926,"Ġmouth":2927,"Ġ177":2928,"con":2929,"cgmp":2930,"Ġmofetil":2931,"leed":2932,"Ġsuic":2933,"losec":2934,"rilosec":2935,"bital":2936,"Ġstruck":2937,"ns":2938,"Ġhypnotics":2939,"albuterol":2940,"Ġsi":2941,"92":2942,"Ġpulm":2943,"ff":2944,"aritin":2945,"Ġbleed":2946,"Ġanemia":2947,"Ġtum":2948,"Ġend":2949,"2720":2950,"Ġ2206":2951,"Ġprod":2952,"rectal":2953,"Ġfish":2954,"gens":2955,"Ġoxy":2956,"Ġinflammatory":2957,"Ġinsulins":2958,"Ġheparins":2959,"Ġny":2960,"Ġdepressive":2961,"ifiers":2962,"zhe":2963,"Ġalzhe":2964,"Ġalzheimer":2965,"ang":2966,"Ġobstruc":2967,"9289":2968,"61":2969,"ane":2970,"ethic":2971,"427":2972,"scess":2973,"olog":2974,"ethicone":2975,"Ġsmooth":2976,"ralazine":2977,"Ġflora":2978,"Ġanxiety":2979,"Ġhydralazine":2980,"Ġreli":2981,"meq":2982,"peptid":2983,"Ġcarboxyl":2984,"Ġcarboxylic":2985,"Ġmodifiers":2986,"ote":2987,"ty":2988,"volog":2989,"Ġnystatin":2990,"Ġnucleoside":2991,"tel":2992,"ng":2993,"82":2994,"Ġdysf":2995,"antic":2996,"Ġbicarb":2997,"Ġnapro":2998,"Ġestra":2999,"iod":3000,"onates":3001,"rel":3002,"ank":3003,"Ġdysfunction":3004,"imus":3005,"418":3006,"Ġbisphosph":3007,"Ġresorption":3008,"ongest":3009,"Ġ172":3010,"Ġbisphosphonates":3011,"Ġide":3012,"Ġere":3013,"Ġorganism":3014,"ctile":3015,"Ġerectile":3016,"Ġmontel":3017,"Ġampicillin":3018,"ukast":3019,"Ġmontelukast":3020,"ight":3021,"anticholinergic":3022,"Ġflank":3023,"Ġmvc":3024,"need":3025,"needle":3026,"Ġprogest":3027,"Ġ173":3028,"Ġderivative":3029,"icort":3030,"Ġpartial":3031,"Ġstage":3032,"Ġfluoroqu":3033,"aph":3034,"pium":3035,"96":3036,"Ġaccid":3037,"531":3038,"7840":3039,"Ġlipitor":3040,"ond":3041,"ricant":3042,"diol":3043,"ari":3044,"Ġcollision":3045,"Ġmultiple":3046,"Ġepinephrine":3047,"ek":3048,"Ġestrogens":3049,"Ġnecrosis":3050,"Ġbud":3051,"Ġsl":3052,"Ġsuicidal":3053,"Ġoc":3054,"po":3055,"xen":3056,"genase":3057,"carb":3058,"phage":3059,"clo":3060,"ence":3061,"tch":3062,"Ġproduct":3063,"urb":3064,"Ġsimethicone":3065,"akote":3066,"Ġnaproxen":3067,"Ġ174":3068,"Ġamox":3069,"fine":3070,"Ġdextrose":3071,"accharide":3072,"Ġmonophasic":3073,"794":3074,"Ġsel":3075,"albital":3076,"Ġ175":3077,"abol":3078,"ancy":3079,"Ġamoxicillin":3080,"719":3081,"atigue":3082,"Ġpers":3083,"Ġbicarbonate":3084,"open":3085,"romb":3086,"Ġxa":3087,"Ġamit":3088,"10129":3089,"Ġforeign":3090,"Ġfatigue":3091,"Ġimmunosuppressives":3092,"Ġbudesonide":3093,"Ġlubricant":3094,"Ġregular":3095,"peramide":3096,"laf":3097,"axine":3098,"Ġano":3099,"lafaxine":3100,"enlafaxine":3101,"Ġrelief":3102,"ras":3103,"Ġacyclovir":3104,"Ġabscess":3105,"illi":3106,"sed":3107,"Ġfum":3108,"osure":3109,"Ġbenzis":3110,"ussian":3111,"Ġexposure":3112,"Ġrussian":3113,"Ġpiperacilli":3114,"cocet":3115,"osaccharide":3116,"Ġmonosaccharide":3117,"Ġperson":3118,"throid":3119,"Ġcns":3120,"Ġpregn":3121,"Ġsr":3122,"etabol":3123,"Ġantimetabol":3124,"Ġ.":3125,"Ġvenlafaxine":3126,"Ġdu":3127,"Ġnative":3128,"oprim":3129,"97":3130,"30500":3131,"486":3132,"avix":3133,"exa":3134,"Ġhyperpar":3135,"Ġhyperparathyroid":3136,"Ġdiabetic":3137,"85":3138,"amic":3139,"Ġfluoroquinolone":3140,"ifed":3141,"Ġdisturb":3142,"Ġ25000":3143,"Ġhepari":3144,"Ġthromb":3145,"acrolimus":3146,"Ġtacrolimus":3147,"cymbalta":3148,"rum":3149,"Ġeth":3150,"Ġdextroamphetamine":3151,"Ġproair":3152,"Ġiii":3153,"arm":3154,"anol":3155,"ereb":3156,"ifier":3157,"bp":3158,"112":3159,"Ġestradiol":3160,"458":3161,"piram":3162,"piramate":3163,"Ġagain":3164,"Ġtopiramate":3165,"Ġstri":3166,"Ġagainst":3167,"trimethoprim":3168,"Ġamitriptyline":3169,"iness":3170,"097":3171,"zy":3172,"rost":3173,"ofen":3174,"exofen":3175,"exofenadine":3176,"Ġgi":3177,"alar":3178,"arate":3179,"84":3180,"Ġfumarate":3181,"Ġantimalar":3182,"Ġantimalarial":3183,"fo":3184,"Ġanaph":3185,"060":3186,"Ġanaphyl":3187,"sympathomimetic":3188,"Ġdaily":3189,"mb":3190,"Ġgeneral":3191,"Ġreact":3192,"ft":3193,"Ġintract":3194,"ash":3195,"Ġintractable":3196,"Ġsulfamethoxazole":3197,"arone":3198,"545":3199,"asol":3200,"Ġacidifier":3201,"Ġlabs":3202,"Ġ2207":3203,"betasol":3204,"Ġantimalarials":3205,"Ġcolonic":3206,"%)":3207,"Ġmec":3208,"sa":3209,"4182":3210,"ension":3211,"ien":3212,"Ġbac":3213,"Ġtac":3214,"ush":3215,"ternal":3216,"Ġepilepsy":3217,"olost":3218,"ayer":3219,"Ġbut":3220,"disp":3221,"Ġlith":3222,"Ġtumor":3223,"Ġcer":3224,"part":3225,"Ġlithium":3226,"Ġamiod":3227,"Ġamiodarone":3228,"afil":3229,"acc":3230,"butr":3231,"sur":3232,"roc":3233,"hab":3234,"Ġ186":3235,"Ġnifed":3236,"butrin":3237,"ellbutrin":3238,"Ġ/,":3239,"Ġme":3240,"ili":3241,"prost":3242,"ertion":3243,"cardia":3244,"Ġprote":3245,"Ġinter":3246,"xin":3247,"ti":3248,"Ġfreestyle":3249,"Ġacne":3250,"Ġfexofenadine":3251,"adone":3252,"Ġ171":3253,"Ġforming":3254,"Ġtachy":3255,"fish":3256,"Ġvalsartan":3257,"lyrica":3258,"Ġweight":3259,"Ġanaphylaxis":3260,"Ġgidd":3261,"Ġgiddiness":3262,"ryl":3263,"ured":3264,"83":3265,"ria":3266,"ammonia":3267,"Ġbayer":3268,"den":3269,"dec":3270,"iron":3271,"adryl":3272,"Ġmethadone":3273,"mbicort":3274,"enadryl":3275,"Ġpure":3276,"Ġlat":3277,"Ġclobetasol":3278,"Ġbreath":3279,"Ġbleeding":3280,"Ġsolost":3281,"Ġsolostar":3282,"Ġcoumadin":3283,"onat":3284,"Ġlum":3285,"ranolol":3286,"urant":3287,"Ġpropranolol":3288,"nox":3289,"pp":3290,"Ġmacrolides":3291,"Ġnitrofurant":3292,"Ġnitrofurantoin":3293,"Ġped":3294,"miralax":3295,"Ġari":3296,"asix":3297,"prazole":3298,"piprazole":3299,"zil":3300,"Ġ-,":3301,"Ġaripiprazole":3302,"Ġnifedipine":3303,"infective":3304,"Ġ)":3305,"butyn":3306,"Ġoxybutyn":3307,"Ġoxybutynin":3308,"Ġnucleotide":3309,"Ġcann":3310,"Ġtachycardia":3311,"Ġ300":3312,"Ġrehab":3313,"Ġcodeine":3314,"Ġseiz":3315,"Ġhypot":3316,"Ġloperamide":3317,"onase":3318,"elexa":3319,"Ġacids":3320,"cophage":3321,"Ġoxide":3322,"rot":3323,"uq":3324,"Ġdev":3325,"Ġili":3326,"Ġtio":3327,"tropium":3328,"Ġtiotropium":3329,"inc":3330,"aturia":3331,"hil":3332,"Ġbenzonat":3333,"Ġbenzonatate":3334,"Ġsens":3335,"Ġmol":3336,"nit":3337,"Ġery":3338,"Ġcereb":3339,"Ġhematuria":3340,"Ġhypotension":3341,"Ġinjured":3342,"ecular":3343,"Ġmolecular":3344,"Ġepis":3345,"Ġethanol":3346,"olli":3347,"Ġ189":3348,"fate":3349,"Ġbaclofen":3350,"folic":3351,"Ġpulmonary":3352,"Ġfat":3353,"riptan":3354,"izan":3355,"Ġtizan":3356,"Ġtizanidine":3357,"anoprost":3358,"oconazole":3359,"Ġlatanoprost":3360,"Ġketoconazole":3361,"ineal":3362,"imolol":3363,"uran":3364,"812":3365,"Ġcytop":3366,"Ġcytoprot":3367,"ime":3368,"amax":3369,"Ġfacial":3370,"verse":3371,"Ġinc":3372,"ronate":3373,"ema":3374,"atric":3375,"Ġshortness":3376,"Ġethanolamines":3377,"organism":3378,"Ġrlq":3379,"Ġsucral":3380,"Ġsucralfate":3381,"Ġcond":3382,"ping":3383,"lipitor":3384,"Ġsore":3385,"ized":3386,"bol":3387,"65":3388,"197":3389,"7802":3390,"lizine":3391,"Ġaminopen":3392,"Ġaminopenicillin":3393,"Ġfatty":3394,"Ġsupplement":3395,"Ġcymbalta":3396,"Ġpsych":3397,"Ġov":3398,"max":3399,"Ġclos":3400,"bolism":3401,"atul":3402,"Ġsev":3403,"Ġmeclizine":3404,"Ġbus":3405,"idate":3406,"Ġpeptic":3407,"Ġhormone":3408,")-":3409,"thal":3410,"78097":3411,"ole":3412,"alexin":3413,"Ġcephalexin":3414,"Ġdue":3415,"closed":3416,"Ġcholine":3417,"sterase":3418,"Ġcholinesterase":3419,"Ġflush":3420,"Ġ187":3421,"Ġrash":3422,"pirone":3423,"hydrochlorothiazide":3424,"ended":3425,"Ġbuspirone":3426,"aparin":3427,"ectives":3428,"hydration":3429,"amil":3430,"trol":3431,"Ġfact":3432,"Ġfactors":3433,"rist":3434,"Ġdehydration":3435,"herent":3436,"uri":3437,"Ġadherent":3438,"Ġaccident":3439,"Ġlumen":3440,"Ġcytoprotectives":3441,"thalidone":3442,"Ġenzy":3443,"sul":3444,"Ġemolli":3445,"glucophage":3446,"Ġabras":3447,"Ġabrasion":3448,"mineral":3449,"Ġaspart":3450,"cent":3451,"ual":3452,"Ġir":3453,"Ġbenzisoxazole":3454,"endronate":3455,"Ġflex":3456,"Ġalendronate":3457,"7800":3458,"Ġassa":3459,"Ġepisode":3460,"Ġsilver":3461,"citalopram":3462,"Ġescitalopram":3463,"Ġguaifenesin":3464,"azosin":3465,"alospor":3466,"quine":3467,"Ġcephalospor":3468,"Ġassault":3469,"latul":3470,"aneous":3471,"Ġly":3472,"Ġmixed":3473,"Ġrib":3474,"phetamines":3475,"Ġcephalosporin":3476,"amycins":3477,"Ġenox":3478,"Ġenoxaparin":3479,"chloroquine":3480,"Ġhydroxychloroquine":3481,"ute":3482,"Ġ450":3483,"spir":3484,"kal":3485,"Ġ180":3486,"spiriva":3487,"Ġdehydro":3488,"aspirin":3489,"329":3490,"enter":3491,"oderm":3492,"ilk":3493,"Ġviral":3494,"apamil":3495,"Ġma":3496,"Ġverapamil":3497,"red":3498,"igo":3499,"atriptan":3500,"Ġadvair":3501,"Ġvert":3502,"Ġslip":3503,"oterol":3504,"Ġchlorthalidone":3505,"phosphate":3506,"791":3507,"osine":3508,"Ġmalign":3509,"Ġear":3510,"Ġanhydr":3511,"Ġanhydrase":3512,"Ġ188":3513,"ld":3514,"Ġzyrtec":3515,"form":3516,"amictal":3517,"Ġdehydrogenase":3518,"ulair":3519,"Ġfe":3520,"Ġinosine":3521,"Ġmonophosphate":3522,"vi":3523,"oteric":3524,"photeric":3525,"Ġamphoteric":3526,"Ġembolism":3527,"Ġpolyene":3528,"ago":3529,"Ġlumbago":3530,"78060":3531,"Ġvertigo":3532,"Ġbr":3533,"vol":3534,"mpt":3535,"ritis":3536,"ik":3537,"ultram":3538,"kalemia":3539,"Ġexternal":3540,"rexate":3541,"otrexate":3542,"gr":3543,"Ġtraf":3544,"formoterol":3545,"300":3546,"Ġnumb":3547,"Ġprilosec":3548,"ites":3549,"gestrel":3550,"Ġantiflatul":3551,"Ġantiflatulents":3552,"suria":3553,"blo":3554,"ilb":3555,"Ġdysuria":3556,"dispos":3557,"Ġman":3558,"disposable":3559,"idopa":3560,"thyroid":3561,"ew":3562,"Ġcarbidopa":3563,"419":3564,"daily":3565,"039":3566,"odiazepine":3567,"lofenac":3568,"Ġnumbness":3569,"ostilb":3570,"minostilb":3571,"Ġiminostilb":3572,"7295":3573,"Ġdiclofenac":3574,"Ġpost":3575,"amphetamines":3576,"mitotic":3577,"Ġiminostilbene":3578,"Ġdisorders":3579,"code":3580,"Ġ185":3581,"Ġmethotrexate":3582,"7242":3583,"311":3584,"Ġpineal":3585,"odopa":3586,"Ġeryth":3587,"levodopa":3588,"codeine":3589,"Ġmagnes":3590,"Ġmagnesia":3591,"Ġlasix":3592,"crestor":3593,"Ġisland":3594,"Ġpercocet":3595,"sulbactam":3596,"Ġrifamycins":3597,"Ġtetrac":3598,"tra":3599,"cell":3600,"5867":3601,"Ġinfar":3602,"Ġprotease":3603,"fib":3604,"iatric":3605,"trimazole":3606,"Ġ183":3607,"Ġabilify":3608,"62":3609,"emir":3610,"Ġ182":3611,"Ġcrit":3612,"aise":3613,"Ġwrist":3614,"Ġmalaise":3615,"Ġmov":3616,"Ġkw":3617,"bpr":3618,"ikpen":3619,"Ġkwikpen":3620,"Ġextended":3621,"Ġbrbpr":3622,"alate":3623,"Ġpyrid":3624,"ventolin":3625,"Ġinfarction":3626,"Ġpregnancy":3627,"Ġ184":3628,"Ġseizure":3629,"Ġsoft":3630,"0789":3631,"ancre":3632,"trip":3633,"Ġot":3634,"Ġpres":3635,"Ġcomp":3636,"term":3637,"kin":3638,"Ġruq":3639,"Ġtraum":3640,"oxine":3641,"Ġflovent":3642,"Ġmanif":3643,"coum":3644,"Ġantise":3645,"coumadin":3646,"Ġantitussive":3647,"628":3648,"Ġ199":3649,"Ġparoxetine":3650,"tylenol":3651,"Ġmo":3652,"van":3653,"Ġec":3654,"Ġdigest":3655,"7901":3656,"Ġpo":3657,"cept":3658,"vers":3659,"459":3660,"Ġretention":3661,"elam":3662,"Ġdepakote":3663,"quid":3664,"wal":3665,"aqu":3666,"ergot":3667,"Ġdigox":3668,"ylamines":3669,"ton":3670,"63":3671,"novolog":3672,"Ġur":3673,"Ġpancre":3674,"Ġgout":3675,"Ġdigestive":3676,"adv":3677,"Ġdigoxin":3678,"Ġoxcarb":3679,"Ġoxcarbazepine":3680,"71":3681,"Ġplace":3682,"Ġanorectal":3683,"Ġdiphenhydramin":3684,"Ġconst":3685,"Ġsupplements":3686,"64":3687,"Ġcoma":3688,"ixed":3689,"Ġliver":3690,"Ġclotrimazole":3691,"Ġplavix":3692,"Ġbet":3693,"Ġcritical":3694,"Ġq":3695,"Ġmic":3696,"ptic":3697,"arth":3698,"phenidate":3699,"Ġoxalate":3700,"cosides":3701,"Ġcervic":3702,"Ġsevelam":3703,"Ġsevelamer":3704,"Ġmaj":3705,"72":3706,"ior":3707,"002":3708,"Ġinhibiting":3709,"ira":3710,"igh":3711,"Ġmethylphenidate":3712,"Ġpois":3713,"Ġcerebral":3714,"Ġcervicalgia":3715,"symbicort":3716,"ardipine":3717,"Ġnicardipine":3718,"__":3719,"atem":3720,"78701":3721,"**":3722,"akylamines":3723,"Ġphenylakylamines":3724,"60":3725,"peptidic":3726,"rox":3727,"bean":3728,"Ġmajor":3729,"Ġproced":3730,"sedative":3731,"nucle":3732,"Ġfixed":3733,"action":3734,"ibbean":3735,"caribbean":3736,"nucleoside":3737,"ural":3738,"73":3739,"bu":3740,"Ġantiseptic":3741,"Ġwellbutrin":3742,"syn":3743,"Ġfre":3744,"Ġsum":3745,"Ġhypox":3746,"Ġsumatriptan":3747,"Ġreaction":3748,"ectorant":3749,"065":3750,"exp":3751,"Ġhyperglycemia":3752,"aring":3753,"Ġgra":3754,"Ġmovement":3755,"aryng":3756,"expectorant":3757,"414":3758,"vit":3759,"perd":3760,"avir":3761,"osalicyl":3762,"Ġaminosalicyl":3763,"Ġaminosalicylates":3764,"78079":3765,"Ġhypoglycemia":3766,"inyl":3767,"oxy":3768,"agra":3769,"Ġnad":3770,"axan":3771,"anti":3772,"Ġfibric":3773,"minerals":3774,"mptom":3775,"75":3776,"42731":3777,"Ġantimetabolite":3778,"idaz":3779,"7804":3780,"legra":3781,"dizziness":3782,"mon":3783,"Ġchild":3784,"Ġexpector":3785,"Ġultr":3786,"Ġexpectorants":3787,"dr":3788,"Ġcontrol":3789,"aryngitis":3790,"vel":3791,"Ġclaritin":3792,"Ġuf":3793,"oprol":3794,"70":3795,"rate":3796,"ifaxan":3797,"erex":3798,"Ġptch":3799,"1013":3800,"Ġblocker":3801,"93":3802,"kinetic":3803,"dra":3804,"rem":3805,"omy":3806,"Ġpyridoxine":3807,"Ġ196":3808,"Ġwithdra":3809,"thieno":3810,"benzodiazepines":3811,"cosamine":3812,"thienobenzodiazepines":3813,"428":3814,"zolamide":3815,"Ġideations":3816,"Ġprokinetic":3817,"essel":3818,"Ġvessel":3819,"oxyc":3820,"Ġoverex":3821,"Ġoverexertion":3822,"bien":3823,"Ġmiralax":3824,"4891":3825,"oma":3826,"cry":3827,"zac":3828,"trin":3829,"Ġ2208":3830,"Ġpharyngitis":3831,"Ġnitrofuran":3832,"imum":3833,"Ġwithdrawal":3834,"Ġbio":3835,"adderall":3836,"0311":3837,"Ġnorepinephrine":3838,"fovir":3839,"Ġcannabin":3840,"ipation":3841,"curren":3842,"Ġdigital":3843,"Ġoccurren":3844,"Ġoccurrence":3845,"Ġplac":3846,"Ġzinc":3847,"Ġchildren":3848,"Ġglycosides":3849,"block":3850,"Ġdigitalis":3851,"Ġobstruction":3852,"Ġvisual":3853,"Ġplaces":3854,"Ġfb":3855,"abine":3856,"Ġconstipation":3857,"Ġfluoc":3858,"denafil":3859,"axi":3860,"Ġintraocular":3861,"Ġsildenafil":3862,"Ġmention":3863,"Ġcentrum":3864,"blockers":3865,"ronch":3866,"Ġreverse":3867,"Ġgall":3868,"riptase":3869,"Ġtransc":3870,"Ġtranscriptase":3871,"perdal":3872,"eppra":3873,"nr":3874,"Ġneo":3875,"Ġrifaxi":3876,"Ġrifaximin":3877,"eh":3878,"Ġpept":3879,"45851":3880,"arboxyl":3881,"arboxylase":3882,"Ġcongest":3883,"649":3884,"922":3885,"Ġcontact":3886,"Ġhiv":3887,"rob":3888,"Ġnor":3889,"Ġdron":3890,"Ġultras":3891,"tricit":3892,"Ġunit":3893,"276":3894,"za":3895,"iliz":3896,"Ġmetronidaz":3897,"Ġallergic":3898,"Ġvacc":3899,"april":3900,"Ġelev":3901,"Ġllq":3902,"da":3903,"dex":3904,"urontin":3905,"Ġchang":3906,"icine":3907,"chicine":3908,"utrition":3909,"agon":3910,"Ġcolchicine":3911,"Ġmu":3912,"ofran":3913,"erone":3914,"decarboxylase":3915,"driver":3916,"zyrtec":3917,"guaifenesin":3918,"Ġ181":3919,"Ġnutrition":3920,"abinol":3921,"acute":3922,"Ġdronabinol":3923,"Ġsynd":3924,"uous":3925,"sue":3926,"Ġhx":3927,"Ġarter":3928,"Ġxanax":3929,"claritin":3930,"roto":3931,"Ġantiproto":3932,"zoal":3933,"Ġantiprotozoal":3934,"95901":3935,"78791":3936,"teno":3937,"Ġantitussives":3938,"80":3939,"Ġnort":3940,"Ġobstructive":3941,"Ġultrasoft":3942,"Ġcalcul":3943,"yclomine":3944,"Ġdicyclomine":3945,"Ġdopamin":3946,"Ġnutritional":3947,"pf":3948,"Ġside":3949,"Ġ197":3950,"klonopin":3951,"Ġbiotin":3952,"Ġadv":3953,"benzodiazepine":3954,"Ġnortriptyline":3955,"Ġantimitotic":3956,"olysis":3957,"Ġdopa":3958,"Ġstrenuous":3959,"Ġzoloft":3960,"Ġgraft":3961,"Ġpeptidase":3962,"Ġantimitotics":3963,"dpp":3964,"long":3965,"chek":3966,"abilify":3967,"Ġbra":3968,"Ġhypothyroid":3969,"Ġhypothyroidism":3970,"Ġnonin":3971,"029":3972,"Ġnph":3973,"Ġcarbam":3974,"tein":3975,"Ġ198":3976,"001":3977,"Ġmes":3978,"peripheral":3979,"Ġtetracycline":3980,"Ġpe":3981,"exor":3982,"vela":3983,"Ġcal":3984,"where":3985,"102":3986,"acyclovir":3987,"Ġvalacyclovir":3988,"Ġdopaminerg":3989,"Ġrectal":3990,"Ġbutalbital":3991,"teb":3992,"Ġger":3993,"Ġcalculus":3994,"Ġrtis":3995,"sewhere":3996,"Ġclassified":3997,"Ġelsewhere":3998,"Ġprogestin":3999,"arthrit":4000,"Ġantiarthrit":4001,"Ġenzyme":4002,"Ġantiarthritics":4003,"xifaxan":4004,"ob":4005,"Ġsubst":4006,"Ġcarbamazepine":4007,"Ġlatino":4008,"Ġhydroxide":4009,"seroquel":4010,"Ġfood":4011,"actrim":4012,"Ġhepatitis":4013,"Ġdriver":4014,"Ġstrike":4015,"Ġbronch":4016,"butalbital":4017,"Ġnadolol":4018,"cosamide":4019,"Ġpy":4020,"orc":4021,"liquid":4022,"Ġemtricit":4023,"1011":4024,"Ġemtricitabine":4025,"Ġsparing":4026,"Ġstair":4027,"atro":4028,"onor":4029,"Ġvir":4030,"aban":4031,"Ġlevonor":4032,"enox":4033,"Ġcrestor":4034,"iqu":4035,"Ġbite":4036,"cular":4037,"Ġhosp":4038,"Ġvirus":4039,"gly":4040,"927":4041,"then":4042,"Ġgeriatric":4043,"5861":4044,"Ġcelexa":4045,"Ġ195":4046,"lutein":4047,"Ġlevonorgestrel":4048,"1031":4049,"Ġthrombosis":4050,"Ġpk":4051,"Ġideation":4052,"aloxone":4053,"Ġtis":4054,"amiv":4055,"Ġintra":4056,"bur":4057,"epe":4058,"buliz":4059,"atan":4060,"Ġintermediate":4061,"epezil":4062,"Ġdonepezil":4063,"Ġnebuliz":4064,"Ġbenadryl":4065,"caps":4066,"Ġdiff":4067,"goagulant":4068,"Ġantigoagulant":4069,"ephro":4070,"calp":4071,"Ġvaccine":4072,"Ġscalp":4073,"94":4074,"yll":4075,"lid":4076,"Ġsep":4077,"epipen":4078,"Ġverteb":4079,"omb":4080,"Ġsepsis":4081,"Ġrevers":4082,"6284":4083,"%)*":4084,"Ġdipeptid":4085,"tenofovir":4086,"Ġdipeptidyl":4087,"Ġgallst":4088,"Ġtimolol":4089,"pionate":4090,"010":4091,"methyl":4092,"Ġsynthroid":4093,"lith":4094,"avul":4095,"Ġcad":4096,"Ġact":4097,"Ġirrit":4098,"Ġgallstone":4099,"Ġandro":4100,"Ġsecond":4101,"Ġ193":4102,"ling":4103,"leg":4104,"Ġregion":4105,"4280":4106,"500":4107,"Ġalk":4108,"dep":4109,"Ġsolub":4110,"Ġamino":4111,"ilizing":4112,"litholysis":4113,"Ġsolubilizing":4114,"Ġinjuri":4115,"Ġinjuries":4116,"Ġpancreatitis":4117,"Ġcongestive":4118,"tum":4119,"098":4120,"odiol":4121,"Ġtoe":4122,"Ġemollients":4123,"iary":4124,"Ġchr":4125,"Ġtert":4126,"Ġamines":4127,"Ġtertiary":4128,"Ġdepend":4129,"Ġlin":4130,"athi":4131,"Ġsc":4132,"oxid":4133,"Ġurs":4134,"%),":4135,"Ġdevice":4136,"%/":4137,"ber":4138,"onidine":4139,"788":4140,"omeprazole":4141,"Ġindi":4142,"enteric":4143,"Ġtissue":4144,"Ġesomeprazole":4145,"Ġvertebra":4146,"74":4147,"Ġpoison":4148,"Ġbd":4149,"rexa":4150,"yprexa":4151,"Ġcyclospor":4152,"Ġursodiol":4153,"Ġedema":4154,"Ġcyclosporine":4155,"oph":4156,"ste":4157,"Ġind":4158,"Ġinhaler":4159,"Ġps":4160,"rimonidine":4161,"255":4162,"Ġbrimonidine":4163,"Ġsubstance":4164,"Ġprozac":4165,"pak":4166,"zosin":4167,"Ġspiriva":4168,"847":4169,"Ġcycl":4170,"Ġcompress":4171,"799":4172,"Ġglucosamine":4173,"ewable":4174,"Ġbetamethasone":4175,"Ġdoxazosin":4176,"osmotic":4177,"Ġrem":4178,"Ġazel":4179,"41400":4180,"synthroid":4181,"Ġnovolog":4182,"antac":4183,"adder":4184,"ylate":4185,"Ġcoated":4186,"Ġmisadv":4187,"Ġmisadvnt":4188,"nrti":4189,"bl":4190,"als":4191,"Ġmanifest":4192,"Ġdor":4193,"bis":4194,"ptch":4195,"ger":4196,"Ġepist":4197,"loc":4198,"olytic":4199,"Ġglucagon":4200,"Ġdo":4201,"rocin":4202,"men":4203,"pirocin":4204,"Ġmupirocin":4205,"loxa":4206,"Ġciprofloxa":4207,"Ġchanges":4208,"Ġrecomb":4209,"Ġresp":4210,"Ġflexpen":4211,"Ġepistaxis":4212,"9179":4213,"ve":4214,"ropo":4215,"Ġcondition":4216,"Ġlyrica":4217,"ropoiet":4218,"Ġelb":4219,"Ġerythropoiet":4220,"Ġerythropoietins":4221,"Ġphy":4222,"ada":4223,"oprine":4224,"Ġazathi":4225,"Ġazathioprine":4226,"78609":4227,"Ġlumbar":4228,"dh":4229,"uvada":4230,"5789":4231,"409":4232,"ele":4233,"Ġglybur":4234,"Ġglyburide":4235,"lac":4236,"rome":4237,"Ġla":4238,"Ġchemic":4239,"oxycontin":4240,"Ġmilk":4241,"Ġpropionate":4242,"::":4243,"Ġdec":4244,"Ġsensation":4245,"Ġindian":4246,"Ġdorzolamide":4247,"Ġsurgical":4248,"asis":4249,"nex":4250,"Ġremo":4251,"Ġ194":4252,"Ġabs":4253,"prilosec":4254,"ephrocaps":4255,"Ġvit":4256,"Ġotc":4257,"icam":4258,"569":4259,"diovan":4260,"Ġ192":4261,"Ġandrogen":4262,"Ġsouth":4263,"Ġ%,":4264,"Ġconf":4265,"nts":4266,"alapril":4267,"lipidemia":4268,"Ġenalapril":4269,"Ġhyperlipidemia":4270,"Ġflonase":4271,"Ġsyndrome":4272,"Ġgastrointest":4273,"Ġpersonal":4274,"rostat":4275,"nitrostat":4276,"Ġcholesterol":4277,"Ġstriking":4278,"ible":4279,"27651":4280,"tegr":4281,"Ġdependence":4282,"orcine":4283,"ethinyl":4284,"Ġpel":4285,"Ġammon":4286,"Ġammonium":4287,"astine":4288,"Ġchemicals":4289,"Ġloss":4290,"352":4291,"Ġlamictal":4292,"Ġprotonix":4293,"flonase":4294,"yst":4295,"Ġdiffic":4296,"5849":4297,"topamax":4298,"iren":4299,"Ġhistory":4300,"cut":4301,"thol":4302,"ulat":4303,"rh":4304,"7245":4305,"Ġazelastine":4306,"mult":4307,"acrob":4308,"umbling":4309,"Ġslipping":4310,"acrobid":4311,"Ġconfusion":4312,"ardial":4313,"8120":4314,"tropine":4315,"538":4316,"Ġdextr":4317,"Ġbenztropine":4318,"Ġeliqu":4319,"Ġeliquis":4320,"Ġbackache":4321,"yllium":4322,"Ġcr":4323,"umatic":4324,"303":4325,"rop":4326,"Ġobjects":4327,"802":4328,"231":4329,"ndri":4330,"Ġerup":4331,"Ġsit":4332,"ads":4333,"Ġconj":4334,"rene":4335,"Ġnail":4336,"Ġmiscell":4337,"yto":4338,"ytoin":4339,"Ġdepression":4340,"ophil":4341,"Ġphenytoin":4342,"Ġte":4343,"Ġap":4344,"Ġav":4345,"uvia":4346,"anuvia":4347,"259":4348,"renvela":4349,"Ġneopl":4350,"humulin":4351,"Ġmonohy":4352,"Ġflomax":4353,"Ġrab":4354,"bas":4355,"idin":4356,"race":4357,"Ġnoninf":4358,"enofib":4359,"benadryl":4360,"Ġfenofib":4361,"Ġgastroenter":4362,"Ġambulate":4363,"Ġlex":4364,"Ġkit":4365,"78906":4366,"oxidant":4367,"Ġantioxidant":4368,"796":4369,"viagra":4370,"rest":4371,"Ġeffusion":4372,"Ġdisturbance":4373,"odin":4374,"Ġlactate":4375,"Ġhyperkalemia":4376,"Ġfenofibrate":4377,"2859":4378,"080":4379,"Ġurine":4380,"bisacodyl":4381,"Ġconditions":4382,"icated":4383,"alan":4384,"542":4385,"069":4386,"589":4387,"6826":4388,"Ġmiscellaneous":4389,"860":4390,"soprazole":4391,"Ġmax":4392,"228":4393,"838":4394,"irth":4395,"Ġabsorption":4396,"itrac":4397,"Ġ2209":4398,"ialis":4399,"hydrochloro":4400,"Ġtransp":4401,"hydrochlorothiaz":4402,"with":4403,"Ġfemur":4404,"Ġpenicillin":4405,"Ġelbow":4406,"Ġcarbonic":4407,"inonide":4408,"Ġguatem":4409,"Ġguatemalan":4410,"Ġdt":4411,"Ġantimetabolites":4412,"Ġsystem":4413,"mes":4414,"1032":4415,"glyd":4416,"Ġpsyllium":4417,"Ġujet":4418,"Ġlexapro":4419,"562":4420,"Ġcannabinoid":4421,"Ġneurontin":4422,"Ġantifungals":4423,"Ġstrain":4424,"aw":4425,"yme":4426,"Ġhospice":4427,"Ġ190":4428,"600":4429,"Ġnex":4430,"319":4431,"Ġvent":4432,"depakote":4433,"reon":4434,"osus":4435,"Ġmacrolide":4436,"Ġdifficult":4437,"Ġdiov":4438,"osm":4439,"Ġdiovan":4440,"924":4441,"Ġfluocinonide":4442,"Ġprazosin":4443,"Ġuncomplicated":4444,"atural":4445,"enzyme":4446,"8859":4447,"remit":4448,"pix":4449,"Ġextremit":4450,"420":4451,"thes":4452,"ione":4453,"Ġapix":4454,"Ġapixaban":4455,"porcine":4456,"Ġdifficulty":4457,"Ġchildrens":4458,"Ġinvol":4459,"Ġestrogen":4460,"Ġbronchitis":4461,"birth":4462,"mt":4463,"Ġref":4464,"itch":4465,"Ġwall":4466,"873":4467,"ency":4468,"Ġacetamin":4469,"Ġmultivit":4470,"Ġsingulair":4471,"Ġmethen":4472,"azop":4473,"Ġter":4474,"piride":4475,"imepiride":4476,"Ġdress":4477,"Ġtd":4478,"Ġglimepiride":4479,"Ġdressing":4480,"dipht":4481,"Ġanticholinergics":4482,"121":4483,"Ġprogesterone":4484,"Ġdam":4485,"omat":4486,"Ġzyprexa":4487,"tn":4488,"392":4489,"Ġdamage":4490,"999":4491,"Ġhydant":4492,"Ġincontin":4493,"Ġbur":4494,"menthol":4495,"Ġtart":4496,"Ġsympathomimetics":4497,"singulair":4498,"tx":4499,"Ġcyst":4500,"taren":4501,"Ġrabies":4502,"oins":4503,"tegrase":4504,"Ġhydantoins":4505,"Ġagnts":4506,"5856":4507,"Ġgluco":4508,"780":4509,"Ġcoenzyme":4510,"Ġphenyleph":4511,"erv":4512,"del":4513,"ald":4514,"Ġgro":4515,"Ġthumb":4516,"chewable":4517,"urit":4518,"centrum":4519,"nia":4520,"odrine":4521,"Ġmidodrine":4522,"our":4523,"Ġextremity":4524,"stumbling":4525,"Ġhypertensive":4526,"tripping":4527,"110":4528,"retin":4529,"Ġcir":4530,"ided":4531,"celexa":4532,"ore":4533,"Ġure":4534,"ffered":4535,"ocardial":4536,"Ġmethenamine":4537,"Ġsided":4538,"Ġactiv":4539,"Ġdement":4540,"thesia":4541,"Ġtend":4542,"Ġartery":4543,"..":4544,"Ġvic":4545,"Ġincontinence":4546,"Ġdementia":4547,"eron":4548,"ids":4549,"uter":4550,"erene":4551,"mterene":4552,"Ġdipro":4553,"Ġpelvic":4554,"Ġface":4555,"Ġtriamterene":4556,"proced":4557,"odium":4558,"Ġbreast":4559,"colax":4560,"carbonic":4561,"mag":4562,"oxide":4563,"Ġcath":4564,"Ġpros":4565,"etrol":4566,"Ġtrim":4567,"Ġnebulizer":4568,"erat":4569,"Ġvalium":4570,"yncope":4571,"400":4572,"95":4573,"zoles":4574,"Ġtriazoles":4575,"859":4576,"Ġsin":4577,"Ġzofran":4578,"462":4579,"Ġbile":4580,"timolol":4581,"ramip":4582,"Ġkeppra":4583,"Ġweek":4584,"Ġveno":4585,"enza":4586,"ophilus":4587,"luenza":4588,"unct":4589,"lactam":4590,"Ġallegra":4591,"lactamase":4592,"iclo":4593,"785":4594,"Ġstimulants":4595,"Ġpeg":4596,"Ġdipropionate":4597,"nexium":4598,"nephrocaps":4599,"78605":4600,"nom":4601,"ephritis":4602,"Ġinfluenza":4603,"mda":4604,"acol":4605,"Ġnmda":4606,"111":4607,"Ġthor":4608,"italin":4609,"ucil":4610,"arel":4611,"hydrochlorothiazid":4612,"0602":4613,"vite":4614,"Ġing":4615,"8830":4616,"Ġcp":4617,"Ġweeks":4618,"antep":4619,"eptide":4620,"diuretic":4621,"Ġalcohols":4622,"Ġreversible":4623,"Ġxarel":4624,"Ġxarelto":4625,"plavix":4626,"thead":4627,"ving":4628,"uterine":4629,"7820":4630,"Ġparathyroid":4631,"close":4632,"theaded":4633,"traumatic":4634,"Ġintrauterine":4635,"Ġsubd":4636,"Ġlovastatin":4637,"Ġarth":4638,"Ġtrans":4639,"Ġhypokalemia":4640,"emi":4641,"Ġnano":4642,"Ġbrain":4643,"igan":4644,"accu":4645,"pin":4646,"Ġrisperdal":4647,"adal":4648,"Ġlansoprazole":4649,"7862":4650,"Ġaromat":4651,"Ġprocedures":4652,"ulcolax":4653,"imumab":4654,"Ġdes":4655,"antib":4656,"zaar":4657,"lidoderm":4658,"irena":4659,"Ġaromatase":4660,"Ġeffexor":4661,"Ġtestosterone":4662,"Ġalfa":4663,"98":4664,"Ġnatural":4665,"icet":4666,"7989":4667,"Ġligh":4668,"Ġpiperadine":4669,"ach":4670,"imidazole":4671,"Ġenhancer":4672,"Ġambien":4673,"Ġlightheaded":4674,"Ġmalig":4675,"gravir":4676,"Ġpkt":4677,"Ġple":4678,"Ġinstr":4679,"umet":4680,"ngr":4681,"cutting":4682,"824":4683,"Ġsequ":4684,"osmol":4685,"macrobid":4686,"antibacterial":4687,"comp":4688,"yridine":4689,"Ġvenous":4690,"Ġconsc":4691,"azopyridine":4692,"ogen":4693,"Ġphenazopyridine":4694,"Ġepileptic":4695,"805":4696,"lant":4697,"Ġiud":4698,"441":4699,"Ġsob":4700,"Ġazithromyc":4701,"Ġgest":4702,"Ġpoisoning":4703,"Ġtoprol":4704,"845":4705,"Ġsensit":4706,"Ġtendon":4707,"Ġepilepticus":4708,"Ġgestation":4709,"Ġmalignant":4710,"Ġinvolving":4711,"Ġtub":4712,"Ġadal":4713,"nor":4714,"Ġrep":4715,"remia":4716,"lamictal":4717,"Ġexertion":4718,"Ġfluc":4719,"ylase":4720,"eratolytic":4721,"Ġfluconazole":4722,"Ġbeh":4723,"Ġstate":4724,"Ġdental":4725,"Ġneoplasm":4726,"biotic":4727,"186":4728,"dic":4729,"glp":4730,"Ġterazosin":4731,"milk":4732,"108":4733,"aglip":4734,"flomax":4735,"agliptin":4736,"Ġurea":4737,"oprost":4738,"2449":4739,"azone":4740,"aly":4741,"Ġbehav":4742,"multi":4743,"Ġmyocardial":4744,".,":4745,"Ġadalimumab":4746,"ality":4747,"Ġsystemic":4748,"Ġadj":4749,"___":4750,"Ġpolyst":4751,"osmolality":4752,"Ġtadal":4753,"Ġtadalafil":4754,"Ġlactose":4755,"voltaren":4756,"Ġmimetic":4757,"amph":4758,"78659":4759,"Ġincretin":4760,"oxygenase":4761,"cler":4762,"Ġpregnant":4763,"rurit":4764,"ruritics":4765,"etin":4766,"Ġantipruritics":4767,"Ġconscious":4768,"Ġconsciousness":4769,"Ġhepatic":4770,"ocor":4771,"based":4772,"410":4773,"Ġhypoxemia":4774,"Ġpresyncope":4775,"Ġtransplant":4776,"Ġbell":4777,"Ġemollient":4778,"Ġcele":4779,"ena":4780,"Ġcyclooxygenase":4781,"sorb":4782,"alamine":4783,"Ġcontin":4784,"Ġmesalamine":4785,"iton":4786,"Ġinstrum":4787,"Ġhypoxia":4788,"Ġsud":4789,"349":4790,"proton":4791,"oetin":4792,"elon":4793,"612":4794,"9208":4795,"Ġgeneralized":4796,"Ġcup":4797,"Ġnaloxone":4798,"Ġswabs":4799,"bromide":4800,"Ġhydrobromide":4801,"hyperglycemic":4802,"202":4803,"813":4804,"ater":4805,"hyperglycemics":4806,"ondro":4807,"338":4808,"selt":4809,"humira":4810,"nitro":4811,"639":4812,"Ġcalcim":4813,"Ġneut":4814,"adione":4815,"tonadione":4816,"Ġphytonadione":4817,"Ġvicodin":4818,"Ġsensitivity":4819,"Ġcalcimimetic":4820,"089":4821,"prote":4822,"ponat":4823,"4352":4824,"reotide":4825,"esis":4826,"amylase":4827,"Ġmoist":4828,"protease":4829,"Ġoct":4830,"rief":4831,"wellbutrin":4832,"Ġover":4833,"Ġlipase":4834,"uriz":4835,"Ġnexium":4836,"ponatremia":4837,"Ġoctreotide":4838,"iatic":4839,"percocet":4840,"Ġfos":4841,"Ġeconazole":4842,"cin":4843,"Ġscler":4844,"copeptide":4845,"Ġglycopeptide":4846,"hc":4847,"klor":4848,"alatan":4849,"Ġmalignancy":4850,"Ġdors":4851,"Ġmoisturiz":4852,"Ġintegrase":4853,"pat":4854,"ete":4855,"ech":4856,"Ġsitagliptin":4857,"ctr":4858,"ayed":4859,"40909":4860,"bladder":4861,"Ġ___":4862,"ick":4863,"Ġcur":4864,"8888":4865,"Ġmiconazole":4866,"antepart":4867,"yrene":4868,"lix":4869,"Ġpolystyrene":4870,"vis":4871,"Ġenter":4872,"ipar":4873,"tnf":4874,"aldactone":4875,"78901":4876,"obac":4877,"Ġobst":4878,"sh":4879,"lips":4880,"78703":4881,"hillips":4882,"Ġcolon":4883,"Ġprocedure":4884,"Ġlactobac":4885,"pa":4886,"Ġhumulin":4887,"78903":4888,"atropine":4889,"irrit":4890,"reth":4891,"Ġ\"":4892,"amivir":4893,"cryst":4894,"Ġoselt":4895,"romel":4896,"Ġoseltamivir":4897,"rone":4898,"Ġretin":4899,"Ġwhe":4900,"crys":4901,"from":4902,"Ġct":4903,"arct":4904,"barb":4905,"abis":4906,"de":4907,"infarct":4908,"pot":4909,"rd":4910,"Ġapp":4911,"rilex":4912,"olacrilex":4913,"Ġirritants":4914,"irritant":4915,"alte":4916,"Ġralte":4917,"7966":4918,"Ġraltegravir":4919,"Ġcannabis":4920,"nitroimidazole":4921,"Ġsclerosis":4922,"rethind":4923,"Ġphenobarb":4924,"Ġnitroglyce":4925,"Ġcathet":4926,"Ġsudden":4927,"rethindrone":4928,"omet":4929,"Ġburn":4930,"delayed":4931,"Ġfasc":4932,"436":4933,"Ġport":4934,"ool":4935,"romellose":4936,"Ġradi":4937,"9270":4938,"nov":4939,"rants":4940,"itracal":4941,"Ġphenylephrine":4942,"7231":4943,"Ġtox":4944,"ervision":4945,"Ġasy":4946,"Ġbarb":4947,"mptomatic":4948,"Ġath":4949,"Ġlevoxyl":4950,"Ġsalt":4951,"Ġphillips":4952,"Ġasymptomatic":4953,"814":4954,"itur":4955,"Ġbarbitur":4956,"Ġnorethindrone":4957,"irst":4958,"Ġspe":4959,"Ġprednisolone":4960,"amphor":4961,"hypromellose":4962,"ongestant":4963,"eps":4964,"Ġvi":4965,"marin":4966,"2510":4967,"Ġsulfonate":4968,"sm":4969,"sw":4970,"Ġremoval":4971,"Ġsymptom":4972,"inex":4973,"Ġmigrain":4974,"ree":4975,"atum":4976,"Ġdetemir":4977,"icien":4978,"aund":4979,"Ġid":4980,"7851":4981,"iciency":4982,"toprol":4983,"ester":4984,"mirena":4985,"aundice":4986,"cialis":4987,"cotrin":4988,"Ġinhalation":4989,"gluc":4990,"repineph":4991,"30000":4992,"Ġretinoids":4993,"Ġspeech":4994,"Ġmigrainosus":4995,"Ġbactrim":4996,"Ġmelena":4997,"Ġcut":4998,"ula":4999,"ions":5000,"nst":5001,"Ġday":5002,"Ġcin":5003,"Ġjaundice":5004,"vice":5005,"fic":5006,"Ġadvice":5007,"Ġanesthesia":5008,"Ġnorvasc":5009,"hex":5010,"enil":5011,"Ġ191":5012,"berry":5013,"Ġnorepineph":5014,"Ġlacosamide":5015,"Ġnorepinephri":5016,"exole":5017,"Ġintrac":5018,"Ġpramip":5019,"Ġben":5020,"Ġstairs":5021,"Ġpramipexole":5022,"262":5023,"Ġcomplete":5024,"ranberry":5025,"Ġdel":5026,"Ġacidophilus":5027,"Ġstrand":5028,"Ġdialy":5029,"ities":5030,"Ġgenital":5031,"Ġelevated":5032,"protonix":5033,"Ġradius":5034,"zoline":5035,"Ġtrimester":5036,"Ġoxycontin":5037,"Ġbarbiturates":5038,"Ġsteps":5039,"clavul":5040,"udine":5041,"45901":5042,"Ġsymbicort":5043,"Ġnitrate":5044,"Ġphenobarbital":5045,"clavulanic":5046,"oxone":5047,"step":5048,"Ġfunction":5049,"Ġmodified":5050,"ade":5051,"romycin":5052,"Ġforearm":5053,"Ġfascia":5054,"Ġproc":5055,"Ġleth":5056,"Ġerythromycin":5057,"Ġenema":5058,"buta":5059,"scl":5060,"Ġathscl":5061,"867":5062,"Ġletharg":5063,"dose":5064,"070":5065,"rhosis":5066,"Ġcirrhosis":5067,"vad":5068,"Ġlig":5069,"ina":5070,"Ġpetrol":5071,"496":5072,"081":5073,"Ġcolitis":5074,"91":5075,"plant":5076,"ambien":5077,"Ġimmunom":5078,"aquenil":5079,"Ġimmunomod":5080,"essness":5081,"Ġdialysis":5082,"518":5083,"Ġpctr":5084,"Ġpctrs":5085,"apap":5086,"etite":5087,"illus":5088,"Ġappetite":5089,"ocy":5090,"Ġsupp":5091,"49392":5092,"71946":5093,"923":5094,"Ġez":5095,"ped":5096,"Ġagit":5097,"Ġmyalgia":5098,"Ġhumer":5099,"Ġpleural":5100,"Ġzantac":5101,"Ġribs":5102,"inic":5103,"Ġpyelon":5104,"188":5105,"Ġpyelonephritis":5106,"Ġdiph":5107,"Ġnonspecific":5108,"Ġkeratolytic":5109,"625":5110,"ient":5111,"allegra":5112,"07999":5113,"iddm":5114,"Ġarrest":5115,"Ġnontraumatic":5116,"Ġenzymes":5117,"januvia":5118,"omycin":5119,"Ġeast":5120,"72981":5121,"vac":5122,"Ġcholecyst":5123,"Ġlactobacillus":5124,"estrants":5125,"enoxylate":5126,"Ġsequestrants":5127,"Ġdiphenoxylate":5128,"Ġotic":5129,"Ġanus":5130,"epa":5131,"otalol":5132,"Ġalkalo":5133,"va":5134,"Ġthrombin":5135,"venox":5136,"atadine":5137,"Ġhemop":5138,"Ġrecur":5139,"rozole":5140,"491":5141,"levoxyl":5142,"Ġmaximum":5143,"Ġdistention":5144,"omethorph":5145,"Ġsotalol":5146,"ibe":5147,"zilian":5148,"Ġbrazilian":5149,"Ġfree":5150,"etim":5151,"2555":5152,"Ġezetim":5153,"omethorphan":5154,"Ġezetimibe":5155,"Ġdesonide":5156,"Ġalkaloids":5157,"214":5158,"dyc":5159,"Ġhour":5160,"8809":5161,"ardia":5162,"Ġzon":5163,"Ġlethargy":5164,"isamide":5165,"Ġzonisamide":5166,"Ġagitation":5167,"dycardia":5168,"imen":5169,"Ġsuperfic":5170,"Ġregimen":5171,"tysis":5172,"ypro":5173,"levemir":5174,"Ġbehavior":5175,"Ġhumerus":5176,"566":5177,"Ġbupren":5178,"uvite":5179,"Ġbuprenorphine":5180,"Ġappen":5181,"Ġmoisturizers":5182,"529":5183,"axa":5184,"buffered":5185,"Ġnia":5186,"Ġvascular":5187,"ife":5188,"Ġbradycardia":5189,"zinc":5190,"Ġ650":5191,"leet":5192,"free":5193,"Ġrap":5194,"ances":5195,"Ġhemoptysis":5196,"Ġniacin":5197,"4589":5198,"tums":5199,"daxa":5200,"ugue":5201,"oran":5202,"4659":5203,"Ġadjuv":5204,"Ġdorsalgia":5205,"opress":5206,"Ġsalvad":5207,"Ġsalvadoran":5208,"Ġanal":5209,"afate":5210,"591":5211,"Ġadjuvant":5212,"oscy":5213,"Ġthin":5214,"Ġacetic":5215,"Ġsulfonamide":5216,"onna":5217,"Ġdv":5218,"Ġnonspec":5219,"adonna":5220,"Ġveh":5221,"78904":5222,"Ġdilu":5223,"Ġtemazepam":5224,"Ġlincosamide":5225,"fort":5226,"78900":5227,"Ġportugue":5228,"Ġportuguese":5229,"260":5230,"345":5231,"Ġseptic":5232,"Ġepipen":5233,"phos":5234,"bactrim":5235,"101":5236,"Ġdisloc":5237,"risperdal":5238,"Ġmomet":5239,"uven":5240,"dha":5241,"Ġmometasone":5242,"296":5243,"axil":5244,"590":5245,"Ġbelladonna":5246,"728":5247,"Ġatro":5248,"Ġtruvada":5249,"Ġesoph":5250,"920":5251,"Ġkn":5252,"ventil":5253,"Ġsinus":5254,"chondro":5255,"my":5256,"ussion":5257,"Ġknife":5258,"Ġpads":5259,"Ġbu":5260,"ucinex":5261,"Ġjuven":5262,"828":5263,"Ġaviva":5264,"Ġpsychosis":5265,"Ġcompound":5266,"initrate":5267,"Ġhematem":5268,"Ġdinitrate":5269,"Ġthr":5270,"Ġcatheter":5271,"Ġcutaneous":5272,"dicitis":5273,"Ġhematemesis":5274,"human":5275,"Ġappendicitis":5276,"aloc":5277,"Ġ___.":5278,"346":5279,"icade":5280,"eraloc":5281,"Ġmineraloc":5282,"orticoids":5283,"Ġmineralocorticoids":5284,"ma":5285,"atri":5286,"1110":5287,"Ġalcoh":5288,"Ġesophag":5289,"brex":5290,"Ġjaw":5291,"Ġdilaudid":5292,"Ġadverse":5293,"Ġelectrolyte":5294,"Ġve":5295,"2689":5296,"561":5297,"Ġsulfasal":5298,"ange":5299,"Ġtraumatic":5300,"Ġsulfasalazine":5301,"25001":5302,"239":5303,"807":5304,"droc":5305,"drocortisone":5306,"Ġfludrocortisone":5307,"Ġcamphor":5308,"Ġimmun":5309,"Ġindole":5310,"cussion":5311,"Ġfunctional":5312,"iazol":5313,"288":5314,"Ġaccidental":5315,"Ġconjunct":5316,"Ġau":5317,"antin":5318,"seed":5319,"1030":5320,"ases":5321,"040":5322,"yrophen":5323,"Ġfunctionalized":5324,"451":5325,"Ġconcent":5326,"536":5327,"Ġaf":5328,"axseed":5329,"othiazol":5330,"Ġbenzisothiazol":5331,"Ġbutyrophen":5332,"Ġbenzisothiazolones":5333,"epin":5334,"acalc":5335,"erate":5336,"Ġmac":5337,"artificial":5338,"Ġcinacalc":5339,"Ġcinacalcet":5340,"Ġcranberry":5341,"Ġfirst":5342,"Ġuri":5343,"ilat":5344,"olazone":5345,"Ġmetolazone":5346,"Ġmex":5347,"150":5348,"Ġsecondary":5349,"pur":5350,"Ġdisplac":5351,"tinoin":5352,"Ġtretinoin":5353,"Ġdiseases":5354,"Ġmem":5355,"103":5356,"usk":5357,"Ġeaster":5358,"Ġeastern":5359,"Ġtopamax":5360,"7982":5361,"Ġflaxseed":5362,"6489":5363,"osol":5364,"Ġdisturbances":5365,"Ġbutyrophenone":5366,"creon":5367,"keppra":5368,"lycop":5369,"Ġritalin":5370,"enda":5371,"ben":5372,"lder":5373,"1012":5374,"urred":5375,"insulin":5376,"Ġconvuls":5377,"Ġop":5378,"antepartum":5379,"Ġiddm":5380,"ros":5381,"iza":5382,"ioricet":5383,"Ġeffect":5384,"5589":5385,"enos":5386,"chant":5387,"Ġhyoscy":5388,"Ġhyoscyamine":5389,"Ġconvulsions":5390,"arp":5391,"Ġ.,":5392,"Ġhusk":5393,"imal":5394,"415":5395,"prom":5396,"Ġrectum":5397,"Ġoxicam":5398,"Ġprobiotic":5399,"469":5400,"Ġventolin":5401,"Ġaugm":5402,"Ġphosphates":5403,"022":5404,"amenda":5405,"339":5406,"release":5407,"kg":5408,"decongestant":5409,"Ġimmunomodulators":5410,"ait":5411,"cetirizine":5412,"diz":5413,"Ġdoxepin":5414,"Ġunits":5415,"shlder":5416,"Ġsymptoms":5417,"181":5418,"Ġhippur":5419,"Ġcerv":5420,"Ġhippurate":5421,"reg":5422,"chemic":5423,"Ġoccl":5424,"Ġthrive":5425,"Ġpharm":5426,"Ġsyringes":5427,"betamethasone":5428,"Ġremeron":5429,"\".":5430,"change":5431,"Ġcolumb":5432,"Ġeruption":5433,"Ġcolumbian":5434,"Ġgait":5435,"Ġuter":5436,"Ġarthritis":5437,"Ġbehavioral":5438,"224":5439,"stat":5440,"Ġcep":5441,"066":5442,"Ġhypoglycemic":5443,"03116":5444,"Ġdisplaced":5445,"325":5446,"Ġperoxide":5447,"Ġinh":5448,"utic":5449,"Ġphal":5450,"itol":5451,"Ġredness":5452,"aft":5453,"439":5454,"Ġwalking":5455,"Ġdeplet":5456,"Ġdextromethorphan":5457,"Ġdilution":5458,"Ġml":5459,"871":5460,"bo":5461,"Ġgastroenterit":5462,"anate":5463,"amides":5464,"Ġclavul":5465,"Ġclavulanate":5466,"atex":5467,"Ġcurr":5468,"Ġmc":5469,"pel":5470,"Ġmapap":5471,"poly":5472,"161":5473,"ask":5474,"cellcept":5475,"meta":5476,"ocking":5477,"ipras":5478,"Ġzipras":5479,"Ġziprasidone":5480,"acetamin":5481,"238":5482,"procedure":5483,"Ġloz":5484,"estyr":5485,"Ġexchange":5486,"tour":5487,"contour":5488,"estyramine":5489,"Ġion":5490,"Ġresin":5491,"Ġhall":5492,"acea":5493,"Ġdepleters":5494,"mph":5495,"092":5496,"Ġli":5497,"037":5498,"odef":5499,"Ġimmunodef":5500,"Ġhalluc":5501,"449":5502,"Ġatov":5503,"oral":5504,"aquone":5505,"Ġatovaquone":5506,"xan":5507,"2724":5508,"ensure":5509,"781":5510,"5609":5511,"atrovent":5512,"Ġ2210":5513,"compazine":5514,"Ġsuperficial":5515,"metazoline":5516,"pow":5517,"edom":5518,"arbam":5519,"Ġtums":5520,"impat":5521,"irole":5522,"49121":5523,"Ġropin":5524,"Ġropinirole":5525,"lin":5526,"Ġcompression":5527,"dis":5528,"sine":5529,"pod":5530,"elid":5531,"Ġpetrolatum":5532,"esartan":5533,"120":5534,"7984":5535,"71941":5536,"tol":5537,"Ġmexican":5538,"Ġmonohyd":5539,"colcrys":5540,"Ġprotein":5541,"Ġlymph":5542,"promazine":5543,"Ġtriphasic":5544,"Ġchlorpromazine":5545,"dur":5546,"oxime":5547,"Ġcefpod":5548,"5383":5549,"Ġcefpodoxime":5550,"ocet":5551,"Ġaut":5552,"479":5553,"head":5554,"ias":5555,"Ġtrav":5556,"876":5557,"Ġprosth":5558,"Ġviagra":5559,"011":5560,"Ġfreedom":5561,"amivudine":5562,"Ġsubdural":5563,"ream":5564,"uced":5565,"549":5566,"Ġpolysorb":5567,"042":5568,"Ġsuboxone":5569,"ogestrel":5570,"pri":5571,"stal":5572,"64893":5573,"hiv":5574,"Ġimmunodeficiency":5575,"zofran":5576,"Ġcompressor":5577,"Ġobstruct":5578,"tran":5579,"Ġster":5580,"Ġintest":5581,"Ġnitrostat":5582,"locaine":5583,"Ġdextran":5584,"219":5585,"Ġprt":5586,"hexidine":5587,"Ġmacroc":5588,"latex":5589,"antine":5590,"Ġslurred":5591,"Ġmen":5592,"truvada":5593,"Ġaccu":5594,"dizem":5595,"Ġmbp":5596,"Ġneuro":5597,"sens":5598,"Ġlevetirace":5599,"alt":5600,"arinic":5601,"Ġchlorhexidine":5602,"Ġmuscarinic":5603,"ocarbam":5604,"Ġmethocarbam":5605,"Ġcervical":5606,"prilocaine":5607,"Ġmethocarbamol":5608,"pres":5609,"topen":5610,"vag":5611,"Ġlovenox":5612,"Ġantichol":5613,"Ġxalatan":5614,"Ġlidoderm":5615,"view":5616,"0391":5617,"Ġmemantine":5618,"Ġ#":5619,"itt":5620,"pas":5621,"ating":5622,"Ġbase":5623,"seud":5624,"Ġless":5625,"Ġascites":5626,"ze":5627,"Ġsdh":5628,"hes":5629,"edrine":5630,"ator":5631,"7821":5632,"aceutic":5633,"Ġpharmaceutic":5634,"Ġpharmaceutical":5635,"sensipar":5636,"614":5637,"Ġanast":5638,"ady":5639,"ellu":5640,"Ġprox":5641,"2761":5642,"zantac":5643,"Ġmil":5644,"Ġglo":5645,"Ġcitr":5646,"icept":5647,"Ġeyelid":5648,"rystal":5649,"Ġanother":5650,"340":5651,"Ġared":5652,"Ġemerg":5653,"gretol":5654,"Ġsoften":5655,"03115":5656,"Ġareds":5657,"Ġmacrocrystal":5658,"Ġemergency":5659,"Ġsoftener":5660,"pr":5661,"mitrex":5662,"Ġprotect":5663,"effexor":5664,"8470":5665,"Ġhallucinations":5666,"naloxone":5667,"Ġkin":5668,"Ġcalf":5669,"Ġcepacol":5670,"Ġresid":5671,"Ġcannabinoids":5672,"othor":5673,"358":5674,"707":5675,"loxac":5676,"hyponatremia":5677,"78907":5678,"Ġkinase":5679,"lax":5680,"Ġhyposmolality":5681,"Ġfluocinolone":5682,"Ġelevation":5683,"estrace":5684,"Ġerupt":5685,"Ġnonspecif":5686,"bulk":5687,"Ġconcentrate":5688,"208":5689,"metam":5690,"ophage":5691,"ophageal":5692,"gel":5693,"170":5694,"metamucil":5695,"atures":5696,"etamine":5697,"toza":5698,"Ġfeatures":5699,"508":5700,"ulation":5701,"antiviral":5702,"iasis":5703,"Ġbo":5704,"lut":5705,"Ġdia":5706,"amber":5707,"Ġexcept":5708,"coxib":5709,"Ġcelecoxib":5710,"dextro":5711,"iss":5712,"Ġcaps":5713,"ivent":5714,"Ġprogestins":5715,"Ġactivities":5716,"pelvis":5717,"998":5718,"Ġoxymetazoline":5719,"4580":5720,"Ġoverdose":5721,"wth":5722,"Ġlocalized":5723,"Ġrecurrent":5724,"hag":5725,"epro":5726,"afin":5727,"idinone":5728,"cellu":5729,"Ġzoster":5730,"Ġmesylate":5731,"Ġconjunctiv":5732,"brief":5733,"uth":5734,"ices":5735,"Ġtib":5736,"ismuth":5737,"30300":5738,"Ġ%":5739,"Ġepoetin":5740,"9597":5741,"gas":5742,"015":5743,"Ġgastroenteritis":5744,"Ġshaft":5745,"besartan":5746,"ferrous":5747,"Ġpaxil":5748,"Ġirbesartan":5749,"Ġpediatric":5750,"***":5751,"cozaar":5752,"Ġthigh":5753,"hem":5754,"Ġparkinson":5755,"omide":5756,"Ġorth":5757,"Ġforehead":5758,"5770":5759,"Ġcomplication":5760,"Ġocclus":5761,"Ġenteric":5762,"resh":5763,"Ġunste":5764,"othorax":5765,"cess":5766,"Ġcaltrate":5767,"cellulose":5768,"du":5769,"Ġgrowth":5770,"itu":5771,"agen":5772,"Ġminoc":5773,"826":5774,"sk":5775,"Ġfractures":5776,"Ġvehic":5777,"ll":5778,"otifen":5779,"Ġforms":5780,"Ġair":5781,"Ġekg":5782,"Ġdog":5783,"iclovir":5784,"Ġnicotinic":5785,"eine":5786,"Ġlung":5787,"783":5788,"pressor":5789,"Ġintub":5790,"Ġpac":5791,"Ġriv":5792,"Ġketotifen":5793,"Ġvasopress":5794,"Ġdistal":5795,"424":5796,"acic":5797,"209":5798,"Ġmini":5799,"Ġligam":5800,"Ġminocycline":5801,"Ġwater":5802,"ista":5803,"25561":5804,"Ġmicro":5805,"Ġtestic":5806,"entress":5807,"Ġantithyroid":5808,"78702":5809,"topenia":5810,"25562":5811,"389":5812,"Ġphos":5813,"seudo":5814,"ionamides":5815,"Ġthionamides":5816,"loxicam":5817,"Ġmeloxicam":5818,"Ġseizures":5819,"309":5820,"day":5821,"yprogest":5822,"Ġdiaper":5823,"160":5824,"ussin":5825,"Ġhemorrhoid":5826,"diatri":5827,"Ġgastroview":5828,"zoate":5829,"roxyprogest":5830,"diatrizoate":5831,"Ġluq":5832,"43491":5833,"amma":5834,"antimitotic":5835,"032":5836,"Ġconcussion":5837,"Ġmass":5838,"Ġlamivudine":5839,"opt":5840,"Ġecotrin":5841,"71945":5842,"afinil":5843,"kot":5844,"970":5845,"Ġirritable":5846,"trex":5847,"116":5848,"Ġnoninfective":5849,"Ġden":5850,"852":5851,"Ġverio":5852,"875":5853,"Ġstocking":5854,"499":5855,"Ġbilat":5856,"Ġcholecystitis":5857,"ge":5858,"126":5859,"Ġich":5860,"Ġibs":5861,"serms":5862,"advil":5863,"lux":5864,"Ġantibody":5865,"Ġms":5866,"ident":5867,"0389":5868,"Ġthoracic":5869,"Ġlive":5870,"alask":5871,"iprost":5872,"Ġlubiprost":5873,"87342":5874,"Ġvehicles":5875,"alaska":5876,"Ġlubiprostone":5877,"106":5878,"024":5879,"imab":5880,"Ġriton":5881,"Ġtesticular":5882,"Ġritonavir":5883,"grft":5884,"84500":5885,"525":5886,"eren":5887,"umab":5888,"2767":5889,"Ġotitis":5890,"anx":5891,"dii":5892,"ulardii":5893,"lasix":5894,"icin":5895,"neurontin":5896,"tock":5897,"Ġantiseptics":5898,"och":5899,"inol":5900,"omidate":5901,"5900":5902,"Ġclosed":5903,"Ġetomidate":5904,"Ġdulcolax":5905,"stim":5906,"spine":5907,"269":5908,"clos":5909,"levoth":5910,"Ġdevices":5911,"ulating":5912,"Ġpyrim":5913,"Ġdecongest":5914,"levothroid":5915,"cedrin":5916,"caffeine":5917,"Ġdecongestants":5918,"Ġzocor":5919,"Ġbuttock":5920,"Ġsut":5921,"Ġdislocation":5922,"Ġdenies":5923,"047":5924,"cu":5925,"chondroitin":5926,"seudoeph":5927,"inant":5928,"Ġhair":5929,"Ġintubated":5930,"ah":5931,"Ġlevemir":5932,"519":5933,"Ġett":5934,"ortison":5935,"Ġrecombinant":5936,"leren":5937,"unk":5938,"Ġepleren":5939,"Ġeplerenone":5940,"lycopen":5941,"Ġpyrimidine":5942,"Ġcoag":5943,"Ġreflux":5944,"Ġtia":5945,"imodium":5946,"Ġhernia":5947,"Ġfngr":5948,"ankle":5949,"40391":5950,"odon":5951,"alco":5952,"299":5953,"nic":5954,"lexapro":5955,"Ġcm":5956,"phenazine":5957,"Ġdys":5958,"seudoephedrine":5959,"way":5960,"Ġbismuth":5961,"Ġprol":5962,"Ġhond":5963,"Ġlevofloxac":5964,"Ġhonduran":5965,"rea":5966,"009":5967,"nnrti":5968,"asa":5969,"orts":5970,"vachol":5971,"powder":5972,"ophth":5973,"vimpat":5974,"Ġmedroxyprogest":5975,"1839":5976,"ibs":5977,"Ġperfo":5978,"xanax":5979,"Ġmedroxyprogesterone":5980,"Ġperforation":5981,"docusate":5982,"acetic":5983,"endocet":5984,"sal":5985,"sive":5986,"Ġlute":5987,"Ġanastrozole":5988,"Ġdab":5989,"copper":5990,"pathy":5991,"ifid":5992,"Ġtetracaine":5993,"Ġcholestyramine":5994,"oacid":5995,"Ġhom":5996,"048":5997,"alox":5998,"Ġphalanx":5999,"Ġcoagulation":6000,"8799":6001,"und":6002,"uinal":6003,"urol":6004,"132":6005,"Ġjoints":6006,"79902":6007,"pren":6008,"zid":6009,"Ġnut":6010,"imazole":6011,"Ġsubar":6012,"Ġmethimazole":6013,"graft":6014,"Ġmisc":6015,"Ġinguinal":6016,"Ġsubarach":6017,"dulcolax":6018,"Ġcitracal":6019,"475":6020,"Ġdeep":6021,"graf":6022,"Ġconjug":6023,"cid":6024,"Ġcodesthe":6025,"amit":6026,"tri":6027,"teral":6028,"agan":6029,"Ġureteral":6030,"epl":6031,"Ġprof":6032,"Ġcombo":6033,"Ġconjugated":6034,"Ġgum":6035,"061":6036,"omethacin":6037,"Ġmotrin":6038,"Ġsciatic":6039,"546":6040,"Ġcd":6041,"Ġindomethacin":6042,"Ġrepet":6043,"anide":6044,"nstemi":6045,"amitiza":6046,"Ġlack":6047,"dibenzodiazepine":6048,"78820":6049,"Ġoxazepam":6050,"5920":6051,"34580":6052,"Ġunres":6053,"Ġorgan":6054,"Ġfrequ":6055,"Ġtube":6056,"825":6057,"0181":6058,"Ġketamine":6059,"7967":6060,"angitis":6061,"epcid":6062,"Ġsciatica":6063,"0902":6064,"Ġrti":6065,"Ġhydrocortison":6066,"Ġmovements":6067,"Ġwom":6068,"Ġfi":6069,"ilate":6070,"esicare":6071,"rexia":6072,"Ġbumet":6073,"Ġbumetanide":6074,"atran":6075,"07070":6076,"0990":6077,"exilate":6078,"igatran":6079,"Ġetexilate":6080,"Ġpneumothorax":6081,"Ġdabigatran":6082,"Ġcreon":6083,"Ġneur":6084,"premarin":6085,"reduced":6086,"Ġneutra":6087,"Ġairway":6088,"zetia":6089,"Ġhb":6090,"Ġcellcept":6091,"senger":6092,"eroch":6093,"8472":6094,"erochamber":6095,"elo":6096,"268":6097,"56400":6098,"ponsive":6099,"Ġovar":6100,"meth":6101,"rearm":6102,"Ġuterine":6103,"Ġprofile":6104,"align":6105,"phagan":6106,"Ġstool":6107,"140":6108,"Ġhumira":6109,"Ġrepetive":6110,"polacrilex":6111,"atal":6112,"049":6113,"lue":6114,"preservision":6115,"128":6116,"trc":6117,"Ġderm":6118,"gery":6119,"oy":6120,"Ġsurgery":6121,"Ġzetia":6122,"icl":6123,"Ġdro":6124,"Ġself":6125,"Ġanorexia":6126,"298":6127,"uber":6128,"ilo":6129,"Ġsah":6130,"Ġlevalbuterol":6131,"Ġskul":6132,"oxymethyl":6133,"Ġthorax":6134,"Ġcva":6135,"372":6136,"Ġcholangitis":6137,"bil":6138,"Ġcarboxymethyl":6139,"Ġshock":6140,"sore":6141,"0889":6142,"Ġsaliva":6143,"Ġjanuvia":6144,"carafate":6145,"norvasc":6146,"dextroamphetamine":6147,"934":6148,"onti":6149,"062":6150,"59080":6151,"oxyconti":6152,"703":6153,"aglut":6154,"asonex":6155,"Ġdeficits":6156,"Ġunresponsive":6157,"aglutide":6158,"064":6159,"pyridinone":6160,"proventil":6161,"Ġhydroxypyridinone":6162,"2699":6163,"eptives":6164,"sust":6165,"Ġcontraceptives":6166,"bulin":6167,"Ġhel":6168,"0390":6169,"stomy":6170,"Ġprim":6171,"099":6172,"025":6173,"eflex":6174,"59970":6175,"noid":6176,"Ġprem":6177,"sarna":6178,"Ġthrombocy":6179,"alcohol":6180,"Ġovarian":6181,"Ġdermatitis":6182,"Ġgran":6183,"Ġros":6184,"hythmias":6185,"10229":6186,"Ġsepticemia":6187,"Ġsterile":6188,"Ġloads":6189,"pradaxa":6190,"Ġligament":6191,"proc":6192,"odine":6193,"1010":6194,"088":6195,"254":6196,"cardio":6197,"2768":6198,"7850":6199,"ube":6200,"ipr":6201,"Ġtruck":6202,"Ġphenylacetic":6203,"Ġureter":6204,"Ġhelic":6205,"Ġrosacea":6206,"gram":6207,"reat":6208,"125":6209,"Ġdistress":6210,"Ġreversal":6211,"Ġciclo":6212,"2557":6213,"stazol":6214,"pirox":6215,"cov":6216,"opter":6217,"Ġplaquenil":6218,"488":6219,"Ġliquid":6220,"Ġunsteady":6221,"Ġhelicopter":6222,"lav":6223,"itary":6224,"Ġcilo":6225,"zoloft":6226,"386":6227,"Ġmonth":6228,"Ġciclopirox":6229,"Ġcilostazol":6230,"ropen":6231,"Ġlup":6232,"oflav":6233,"Ġsubarachnoid":6234,"304":6235,"Ġtarg":6236,"Ġnose":6237,"Ġdvtrc":6238,"Ġdvtrcli":6239,"Ġhydron":6240,"341":6241,"42789":6242,"Ġdysr":6243,"mot":6244,"Ġtrunk":6245,"Ġtarget":6246,"Ġhydroneph":6247,"Ġunident":6248,"Ġmodafinil":6249,"Ġorgans":6250,"Ġunidentified":6251,"var":6252,"Ġgang":6253,"tru":6254,"169":6255,"Ġinflix":6256,"ropenia":6257,"Ġinfliximab":6258,"ca":6259,"sor":6260,"Ġane":6261,"Ġadvil":6262,"Ġpas":6263,"9278":6264,"ission":6265,"ained":6266,"Ġmri":6267,"Ġfioricet":6268,"Ġlir":6269,"amucil":6270,"Ġcombivent":6271,"Ġmetamucil":6272,"6823":6273,"Ġliraglutide":6274,"Ġsed":6275,"emt":6276,"Ġaltepl":6277,"Ġdysrhythmias":6278,"Ġaneury":6279,"Ġalteplase":6280,"272":6281,"Ġvagina":6282,"Ġriboflav":6283,"Ġriboflavin":6284,"Ġpick":6285,"159":6286,"2989":6287,"Ġneutropenia":6288,"Ġlutein":6289,"Ġblue":6290,"122":6291,"anced":6292,"139":6293,"8730":6294,"Ġdressings":6295,"renal":6296,"igmine":6297,"surg":6298,"Ġmild":6299,"Ġinternal":6300,"zolidin":6301,"Ġsupplemt":6302,"Ġthiazolidin":6303,"Ġfrequency":6304,"Ġgranulo":6305,"Ġthiazolidined":6306,"Ġcro":6307,"Ġelectro":6308,"Ġschi":6309,"429":6310,"electrolyt":6311,"Ġdap":6312,"ycle":6313,"Ġschizo":6314,"136":6315,"Ġquin":6316,"pasngr":6317,"Ġcmv":6318,"elch":6319,"gamma":6320,"ricular":6321,"procedural":6322,"79662":6323,"134":6324,"Ġantituber":6325,"Ġfelodipine":6326,"blood":6327,"Ġantitubercular":6328,"Ġextract":6329,"avic":6330,"Ġpostprocedural":6331,"Ġnebulizers":6332,"Ġprotectants":6333,"918":6334,"Ġrestl":6335,"aril":6336,"433":6337,"Ġarterial":6338,"34590":6339,"ppar":6340,"iones":6341,"Ġloc":6342,"Ġsharp":6343,"Ġthiazolidinediones":6344,"brel":6345,"1165":6346,"Ġtibia":6347,"met":6348,"Ġcub":6349,"erem":6350,"Ġwheelch":6351,"Ġcroh":6352,"Ġwheelchair":6353,"307":6354,"].":6355,"aria":6356,"Ġlg":6357,"Ġlump":6358,"ithiasis":6359,"992":6360,"units":6361,"remicade":6362,"cardiogram":6363,"Ġelectrocardiogram":6364,"Ġwax":6365,"Ġarea":6366,"Ġoste":6367,"Ġinject":6368,"vinyl":6369,"Ġha":6370,"194":6371,"victoza":6372,"tazob":6373,"eat":6374,"fe":6375,"Ġ:":6376,"Ġcypionate":6377,"Ġdetox":6378,"prenatal":6379,"Ġcipro":6380,"Ġauto":6381,"107":6382,"Ġass":6383,"Ġ:,":6384,"9100":6385,"soft":6386,"Ġpos":6387,"Ġhp":6388,"127":6389,"Ġtrometh":6390,"eptal":6391,"Ġdown":6392,"Ġtromethamine":6393,"823":6394,"onale":6395,"Ġformul":6396,"ainide":6397,"ecainide":6398,"Ġantipsor":6399,"Ġflecainide":6400,"25511":6401,"Ġformulations":6402,"Ġantipsoriatic":6403,"501":6404,"124":6405,"Ġerythe":6406,"Ġsevere":6407,"0101":6408,"609":6409,"fomycin":6410,"atoprost":6411,"thin":6412,"Ġbim":6413,"entyl":6414,"059":6415,"Ġfosfomycin":6416,"Ġbimatoprost":6417,"Ġcream":6418,"199":6419,"orean":6420,"Ġmast":6421,"Ġkorean":6422,"comb":6423,"816":6424,"8788":6425,"286":6426,"249":6427,"363":6428,"cardizem":6429,"stimulating":6430,"Ġtin":6431,"sect":6432,"Ġpancreas":6433,"Ġphys":6434,"137":6435,"Ġorig":6436,"izer":6437,"ranitidine":6438,"Ġremovers":6439,"allergy":6440,"Ġfiber":6441,"9967":6442,"skel":6443,"Ġhemorrhoidal":6444,"glucosamine":6445,"loid":6446,"Ġinsect":6447,"020":6448,"Ġketoacid":6449,"Ġhydroxyurea":6450,"Ġcarboxymethylcellulose":6451,"Ġketoacidosis":6452,"5489":6453,"tube":6454,"stit":6455,"alid":6456,"Ġachi":6457,"038":6458,"ifem":6459,"Ġsports":6460,"norvir":6461,"79661":6462,"alidomide":6463,"Ġnamenda":6464,"simeth":6465,"openex":6466,"Ġinjectable":6467,"Ġachiev":6468,"une":6469,"373":6470,"ranial":6471,"Ġrestlessness":6472,"eners":6473,"Ġgem":6474,"Ġalum":6475,"Ġurtic":6476,"34690":6477,"Ġaortic":6478,"045":6479,"Ġaneurysm":6480,"Ġurticaria":6481,"now":6482,"Ġpulmonale":6483,"steine":6484,"8020":6485,"restasis":6486,"softeners":6487,"Ġtol":6488,"Ġesophagitis":6489,"Ġboulardii":6490,"omyc":6491,"Ġpolacrilex":6492,"esp":6493,"237":6494,"iber":6495,"Ġinfant":6496,"cysteine":6497,"Ġintracranial":6498,"csf":6499,"pul":6500,"Ġsacchar":6501,"Ġsympt":6502,"Ġspac":6503,"monurol":6504,"omyces":6505,"Ġsaccharomyces":6506,"lum":6507,"ps":6508,"implant":6509,"Ġklor":6510,"cyte":6511,"Ġcolony":6512,"Ġgranulocyte":6513,"Ġband":6514,"Ġbifid":6515,"Ġadenos":6516,"Ġ5000":6517,"Ġadenosine":6518,"arox":6519,"anesp":6520,"063":6521,"loratadine":6522,"Ġfalling":6523,"889":6524,"798":6525,"25512":6526,"Ġent":6527,"rozil":6528,"fibrozil":6529,"Ġgemfibrozil":6530,"Ġvein":6531,"sustained":6532,"unel":6533,"Ġacetyl":6534,"8121":6535,"Ġsubdr":6536,"Ġconjunctivitis":6537,"lis":6538,"thesis":6539,"Ġestrad":6540,"Ġcuban":6541,"278":6542,"Ġspasm":6543,"Ġmuscskel":6544,"72989":6545,"pex":6546,"forearm":6547,"Ġcholel":6548,"Ġglucon":6549,"Ġnorvir":6550,"104":6551,"Ġ750":6552,"ositis":6553,"028":6554,"anciclovir":6555,"7847":6556,"saicin":6557,"Ġcau":6558,"Ġmamm":6559,"igil":6560,"Ġpreservision":6561,"irapex":6562,"Ġentering":6563,"active":6564,"093":6565,"glan":6566,"379":6567,"203":6568,"Ġfleet":6569,"aleve":6570,"obacter":6571,"9170":6572,"mtor":6573,"alian":6574,"Ġstoma":6575,"Ġimplant":6576,"Ġinhalational":6577,"Ġrapamycin":6578,"Ġspacing":6579,"Ġmammalian":6580,"ey":6581,"Ġsnow":6582,"Ġmucinex":6583,"Ġnov":6584,"Ġclozapine":6585,"Ġperphenazine":6586,"Ġpassenger":6587,"cf":6588,"flu":6589,"Ġdisc":6590,"Ġhomel":6591,"Ġbifidobacter":6592,"era":6593,"Ġcapsaicin":6594,"Ġatropine":6595,"ella":6596,"ergan":6597,"Ġpolyvinyl":6598,"Ġhomelessness":6599,"lamines":6600,"ertic":6601,"lylamines":6602,"Ġallylamines":6603,"598":6604,"Ġdivertic":6605,"Ġperium":6606,"Ġthrombocytopenia":6607,"Ġinfantis":6608,"Ġbifidobacterium":6609,"939":6610,"rx":6611,"sill":6612,"Ġhous":6613,"7291":6614,"30390":6615,"Ġperiumbil":6616,"Ġhousing":6617,"tia":6618,"Ġpent":6619,"279":6620,"Ġmech":6621,"Ġremission":6622,"130":6623,"232":6624,"586":6625,"4871":6626,"Ġcrohn":6627,"014":6628,"Ġenteritis":6629,"rexone":6630,"Ġ202":6631,"altrexone":6632,"Ġvalg":6633,"Ġaches":6634,"234":6635,"Ġspine":6636,"Ġmyositis":6637,"Ġvalganciclovir":6638,"027":6639,"046":6640,"138":6641,"567":6642,"1091":6643,"ifenacin":6644,"stitial":6645,"Ġhaz":6646,"135":6647,"Ġingre":6648,"Ġrivarox":6649,"Ġacetylcysteine":6650,"Ġrivaroxaban":6651,"696":6652,"ented":6653,"Ġcozaar":6654,"prev":6655,"Ġperiton":6656,"Ġvision":6657,"Ġpitu":6658,"inject":6659,"033":6660,"156":6661,"afine":6662,"468":6663,"Ġspcf":6664,"Ġpituitary":6665,"wash":6666,"Ġdispl":6667,"yrosine":6668,"esophageal":6669,"ocuvite":6670,"Ġperineal":6671,"996":6672,"leve":6673,"erebral":6674,"Ġaugmented":6675,"5119":6676,"lancets":6677,"lok":6678,"026":6679,"387":6680,"166":6681,"492":6682,"Ġocuvite":6683,"Ġflexhaler":6684,"multiple":6685,"paration":6686,"Ġintracerebral":6687,"ipramine":6688,"uff":6689,"Ġaleve":6690,"123":6691,"016":6692,"dient":6693,"Ġobj":6694,"Ġelixir":6695,"Ġingredient":6696,"injectable":6697,"739":6698,"citracal":6699,"1111":6700,"Ġpreparation":6701,"Ġorbital":6702,"pde":6703,"inafine":6704,"Ġolop":6705,"chanteric":6706,"ittle":6707,"Ġolopatadine":6708,"Ġton":6709,"Ġproxetil":6710,"Ġnab":6711,"7823":6712,"glumine":6713,"Ġmeglumine":6714,"aren":6715,"Ġwnd":6716,"Ġtegretol":6717,"0090":6718,"astor":6719,"Ġstab":6720,"476":6721,"5715":6722,"Ġskull":6723,"Ġdiverticulitis":6724,"hr":6725,"Ġcane":6726,"3688":6727,"prozac":6728,"Ġsalts":6729,"431":6730,"Ġdisor":6731,"287":6732,"498":6733,"357":6734,"centra":6735,"soy":6736,"Ġpill":6737,"Ġgau":6738,"023":6739,"Ġfosamax":6740,"Ġdroop":6741,"aby":6742,"29420":6743,"Ġkcentra":6744,"579":6745,"9688":6746,"roxil":6747,"umetone":6748,"25551":6749,"Ġnabumetone":6750,"003":6751,"7842":6752,"Ġformula":6753,"molol":6754,"Ġnaltrexone":6755,"Ġesmolol":6756,"Ġvessels":6757,"arco":6758,"tazid":6759,"Ġceftazid":6760,"Ġactivator":6761,"Ġdisorient":6762,"Ġceftazidime":6763,"ataz":6764,"084":6765,"efiber":6766,"Ġasp":6767,"ypass":6768,"odyn":6769,"Ġtravoprost":6770,"Ġcialis":6771,"25080":6772,"452":6773,"fleet":6774,"veno":6775,"Ġdarb":6776,"Ġcitrates":6777,"epoetin":6778,"plan":6779,"Ġsuppress":6780,"entional":6781,"Ġrenvela":6782,"alinizer":6783,"Ġalkalinizer":6784,"Ġpolysorbat":6785,"Ġdarbepoetin":6786,"lar":6787,"99591":6788,"Ġcelebrex":6789,"Ġsedated":6790,"hrh":6791,"rap":6792,"Ġtrem":6793,"Ġpedest":6794,"Ġbetw":6795,"25552":6796,"yataz":6797,"asthen":6798,"stool":6799,"pla":6800,"021":6801,"246":6802,"ultra":6803,"222":6804,"557":6805,"5559":6806,"Ġopn":6807,"Ġsuppressants":6808,"Ġfist":6809,"Ġhav":6810,"ischemic":6811,"118":6812,"Ġperio":6813,"hemodyn":6814,"hemodynamic":6815,"yv":6816,"399":6817,"Ġhemat":6818,"Ġaldactone":6819,"zista":6820,"Ġteno":6821,"Ġrh":6822,"467":6823,"Ġhospital":6824,"Ġtoxoid":6825,"Ġdisorientation":6826,"ritalin":6827,"touch":6828,"Ġinoc":6829,"270":6830,"383":6831,"proct":6832,"Ġinoculat":6833,"gnr":6834,"oate":6835,"Ġlhrh":6836,"Ġcaught":6837,"Ġperiocular":6838,"gnrh":6839,"icar":6840,"Ġlu":6841,"267":6842,"vera":6843,"33829":6844,"disin":6845,"lumigan":6846,"Ġhaving":6847,"pt":6848,"Ġpam":6849,"Ġtam":6850,"risis":6851,"lorastor":6852,"Ġvalve":6853,"Ġgangrene":6854,"ĠĠ":6855,"upor":6856,"Ġabcess":6857,"366":6858,"Ġflextouch":6859,"truet":6860,"Ġachieved":6861,"cc":6862,"087":6863,"annitol":6864,"grast":6865,"Ġnorgest":6866,"novolin":6867,"Ġerythemat":6868,"Ġsemic":6869,"resis":6870,"stupor":6871,"ilgrast":6872,"184":6873,"Ġlopressor":6874,"277":6875,"5732":6876,"78009":6877,"8261":6878,"Ġsemicoma":6879,"ilgrastim":6880,"imitrex":6881,"39012":6882,"Ġfistula":6883,"Ġ201":6884,"enting":6885,"3320":6886,"Ġvalerate":6887,"Ġlittle":6888,"031":6889,"Ġstand":6890,"Ġaliph":6891,"78039":6892,"353":6893,"serv":6894,"Ġaliphatic":6895,"idium":6896,"Ġaricept":6897,"797":6898,"Ġobserv":6899,"Ġpalsy":6900,"56211":6901,"Ġpamoate":6902,"Ġcat":6903,"057":6904,"Ġchill":6905,"142":6906,"5693":6907,"Ġexam":6908,"Ġpedl":6909,"cele":6910,"Ġmedium":6911,"etazolamide":6912,"ostatic":6913,"Ġchills":6914,"celebrex":6915,"lf":6916,"Ġfound":6917,"Ġacetazolamide":6918,"377":6919,"certa":6920,"Ġbuffered":6921,"pulm":6922,"005":6923,"Ġhc":6924,"146":6925,"471":6926,"574":6927,"Ġbilateral":6928,"orin":6929,"99859":6930,"Ġbones":6931,"Ġbrief":6932,"Ġbaby":6933,"plaquenil":6934,"114":6935,"Ġsys":6936,"115":6937,"Ġuti":6938,"252":6939,"Ġperic":6940,"Ġvasopressin":6941,"Ġca":6942,"054":6943,"Ġstockings":6944,"285":6945,"pulmicort":6946,"derm":6947,"185":6948,"157":6949,"162":6950,"167":6951,"367":6952,"prop":6953,"41519":6954,"Ġquinapril":6955,"Ġterb":6956,"369":6957,"trochanteric":6958,"Ġtrauma":6959,"smal":6960,"Ġterbinafine":6961,"tend":6962,"Ġbact":6963,"Ġopium":6964,"Ġflow":6965,"017":6966,"163":6967,"Ġcoc":6968,"Ġhematoma":6969,"Ġstanding":6970,"diazep":6971,"zess":6972,"stren":6973,"agel":6974,"013":6975,"Ġ1549":6976,"175":6977,"266":6978,"592":6979,"385":6980,"Ġlinzess":6981,"Ġatrovent":6982,"strength":6983,"Ġbec":6984,"Ġkeflex":6985,"Ġchange":6986,"Ġcyclist":6987,"Ġdiz":6988,"Ġresult":6989,"165":6990,"Ġimodium":6991,"azepril":6992,"lidocaine":6993,"mucinex":6994,"Ġansw":6995,"Ġline":6996,"090":6997,"Ġdisop":6998,"149":6999,"Ġinjector":7000,"pravachol":7001,"hagia":7002,"036":7003,"imens":7004,"374":7005,"Ġchlordiazep":7006,"Ġspecimens":7007,"Ġadvanced":7008,"Ġanswer":7009,"Ġsitting":7010,"glydo":7011,"8590":7012,"Ġpad":7013,"072":7014,"168":7015,"iol":7016,"emet":7017,"182":7018,"glucagon":7019,"Ġdizzy":7020,"cture":7021,"pe":7022,"rogel":7023,"Ġgastropa":7024,"Ġgastroparesis":7025,"41091":7026,"068":7027,"Ġrlf":7028,"453":7029,"Ġcarbamide":7030,"235":7031,"599":7032,"5660":7033,"Ġidx":7034,"Ġlupus":7035,"Ġtincture":7036,"aglar":7037,"Ġagnst":7038,"Ġcomfort":7039,"282":7040,"43909":7041,"vaginal":7042,"Ġcgmp":7043,"043":7044,"Ġhyponatremia":7045,"Ġcholelithiasis":7046,"Ġmer":7047,"abscess":7048,"Ġev":7049,"Ġerythematosus":7050,"076":7051,"376":7052,"Ġvalpro":7053,"117":7054,"158":7055,"ext":7056,"Ġdysphagia":7057,"phasia":7058,"Ġintravaginal":7059,"Ġsinusitis":7060,"ref":7061,"086":7062,"056":7063,"597":7064,"Ġclear":7065,"444":7066,"read":7067,"251":7068,"estra":7069,"275":7070,"actin":7071,"456":7072,"diarrhea":7073,"yvanse":7074,"195":7075,"Ġnovolin":7076,"Ġaphasia":7077,"293":7078,"Ġclostr":7079,"hydrate":7080,"uvaring":7081,"trav":7082,"Ġluer":7083,"Ġclostridium":7084,"loz":7085,"stemi":7086,"172":7087,"297":7088,"imate":7089,"487":7090,"368":7091,"Ġsolifenacin":7092,"Ġproducts":7093,"aquin":7094,"Ġchlordiazepoxide":7095,"zing":7096,"Ġram":7097,"Ġatt":7098,"Ġge":7099,"221":7100,"477":7101,"Ġcrush":7102,"Ġ1439":7103,"176":7104,"57420":7105,"Ġswal":7106,"Ġdisplacement":7107,"Ġgauze":7108,"travatan":7109,"gestin":7110,"Ġvalproic":7111,"rc":7112,"sone":7113,"133":7114,"Ġpilo":7115,"991":7116,"Ġwomen":7117,"knee":7118,"Ġlarge":7119,"454":7120,"5712":7121,"carpine":7122,"Ġdapsone":7123,"082":7124,"Ġxt":7125,"terodine":7126,"Ġmonohydrate":7127,"Ġarthrop":7128,"eril":7129,"ety":7130,"5869":7131,"Ġtolterodine":7132,"Ġpilocarpine":7133,"198":7134,"295":7135,"Ġthan":7136,"552":7137,"401":7138,"nl":7139,"Ġ1800":7140,"25081":7141,"7881":7142,"fiber":7143,"Ġmanifestation":7144,"Ġgeodon":7145,"Ġmedia":7146,"Ġload":7147,"147":7148,"oclon":7149,"lometh":7150,"Ġgent":7151,"588":7152,"Ġsynthesis":7153,"Ġgroin":7154,"4362":7155,"lomethasone":7156,"oyl":7157,"Ġduct":7158,"itone":7159,"Ġanimal":7160,"Ġice":7161,"Ġischemic":7162,"253":7163,"236":7164,"9203":7165,"Ġbeclomethasone":7166,"topril":7167,"onogestrel":7168,"178":7169,"Ġcaptopril":7170,"Ġetonogestrel":7171,"Ġthrough":7172,"feosol":7173,"extended":7174,"refresh":7175,"lepro":7176,"Ġfron":7177,"Ġantilepro":7178,"177":7179,"Ġantileprotic":7180,"4111":7181,"472":7182,"884":7183,"Ġlumigan":7184,"****":7185,"Ġvers":7186,"Ġgastrostomy":7187,"Ġmyelo":7188,"pedest":7189,"Ġesophagus":7190,"pain":7191,"Ġmanic":7192,"196":7193,"455":7194,"457":7195,"969":7196,"Ġ206":7197,"096":7198,"143":7199,"Ġaccess":7200,"Ġintermed":7201,"Ġaerochamber":7202,"782":7203,"prograf":7204,"Ġresidual":7205,"Ġnorgestimate":7206,"ylene":7207,"ychi":7208,"valium":7209,"Ġversus":7210,"time":7211,"Ġhct":7212,"256":7213,"463":7214,"8820":7215,"Ġcompazine":7216,"Ġintestnl":7217,"Ġaqu":7218,"isentress":7219,"174":7220,"spected":7221,"pros":7222,"Ġregional":7223,"Ġdeclin":7224,"vesicare":7225,"105":7226,"113":7227,"Ġrelion":7228,"396":7229,"461":7230,"aker":7231,"Ġsulfone":7232,"Ġdilantin":7233,"estradiol":7234,"Ġdeclined":7235,"idex":7236,"553":7237,"Ġsuicide":7238,"***,":7239,"Ġpseudoephedrine":7240,"erna":7241,"Ġvaren":7242,"052":7243,"1629":7244,"Ġaugmentin":7245,"icline":7246,"Ġvarenicline":7247,"xalatan":7248,"Ġlanc":7249,"568":7250,"Ġsaf":7251,"elin":7252,"257":7253,"760":7254,"007":7255,"077":7256,"058":7257,"amate":7258,"6822":7259,"rint":7260,"Ġsbo":7261,"elte":7262,"Ġveins":7263,"Ġramelte":7264,"Ġramelteon":7265,"olamine":7266,"Ġ203":7267,"aner":7268,"Ġcirc":7269,"Ġef":7270,"018":7271,"055":7272,"Ġacidosis":7273,"4511":7274,"5939":7275,"570":7276,"izumab":7277,"Ġ204":7278,"Ġtic":7279,"173":7280,"264":7281,"vicodin":7282,"3580":7283,"Ġswallowing":7284,"leptal":7285,"Ġpa":7286,"Ġtrileptal":7287,"183":7288,"587":7289,"Ġmonoclon":7290,"8147":7291,"26891":7292,"ecotrin":7293,"inter":7294,"evac":7295,"Ġshld":7296,"racil":7297,"Ġtros":7298,"Ġvul":7299,"Ġ1623":7300,"Ġcold":7301,"Ġamput":7302,"Ġmalf":7303,"inolones":7304,"Ġtrospium":7305,"Ġbed":7306,"ories":7307,"istaril":7308,"Ġwalker":7309,"141":7310,"29181":7311,"464":7312,"Ġetaner":7313,"Ġhydronephrosis":7314,"Ġmonoclonal":7315,"Ġshldr":7316,"Ġetanercept":7317,"mel":7318,"rup":7319,"relor":7320,"itussin":7321,"agrelor":7322,"Ġparoxy":7323,"Ġaccessories":7324,"Ġparoxysmal":7325,"Ġ205":7326,"oxifen":7327,"Ġdepot":7328,"chantix":7329,"Ġtamoxifen":7330,"Ġresulting":7331,"rintec":7332,"Ġticagrelor":7333,"629":7334,"ci":7335,"mic":7336,"Ġinfrc":7337,"Ġtremor":7338,"Ġgtube":7339,"283":7340,"imol":7341,"Ġfluids":7342,"Ġpradaxa":7343,"Ġfluoroquinolones":7344,"myxin":7345,"lispro":7346,"Ġtenofovir":7347,"kt":7348,"Ġfort":7349,"astelin":7350,"465":7351,"Ġulna":7352,"Ġsubrac":7353,"Ġremicade":7354,"Ġprimidone":7355,"cycl":7356,"ezing":7357,"Ġstress":7358,"274":7359,"388":7360,"Ġcollagen":7361,"Ġident":7362,"Ġglobulin":7363,"Ġdisoproxil":7364,"626":7365,"Ġrequ":7366,"187":7367,"245":7368,"probiotic":7369,"872":7370,"Ġreliever":7371,"itracin":7372,"electrolytes":7373,"265":7374,"excedrin":7375,"480":7376,"cip":7377,"glitin":7378,"148":7379,"Ġmeglitin":7380,"Ġmeglitinide":7381,"ball":7382,"harm":7383,"zyprexa":7384,"Ġothers":7385,"79092":7386,"Ġfront":7387,"ble":7388,"atar":7389,"Ġchewable":7390,"263":7391,"azoles":7392,"Ġ),":7393,"atuda":7394,"1065":7395,"epogen":7396,"Ġlozen":7397,"gf":7398,"258":7399,"485":7400,"ostat":7401,"ronized":7402,"Ġpostproc":7403,"uncture":7404,"5259":7405,"Ġlay":7406,"phren":7407,"030":7408,"Ġstenos":7409,"Ġnoninfl":7410,"Ġwheezing":7411,"cue":7412,"Ġcocaine":7413,"Ġrescue":7414,"075":7415,"utch":7416,"497":7417,"covorin":7418,"Ġcollagenase":7419,"ucovorin":7420,"initis":7421,"Ġmacrobid":7422,"1789":7423,"466":7424,"4359":7425,"Ġleucovorin":7426,"Ġrefill":7427,"Ġschizophren":7428,"Ġsafety":7429,"Ġcrisis":7430,"294":7431,"phenir":7432,"395":7433,"473":7434,"Ġcrutch":7435,"pheniramine":7436,"035":7437,"365":7438,"teg":7439,"793":7440,"Ġmicronized":7441,"cyclen":7442,"Ġlaying":7443,"0083":7444,"amune":7445,"Ġstart":7446,"ilant":7447,"tosis":7448,"Ġcarafate":7449,"398":7450,"351":7451,"8929":7452,"Ġintertrochanteric":7453,"Ġbriefs":7454,"ostomy":7455,"6827":7456,"xostat":7457,"Ġpic":7458,"enbrel":7459,"ots":7460,"Ġfebu":7461,"Ġfebuxostat":7462,"Ġreglan":7463,"Ġhd":7464,"067":7465,"antif":7466,"Ġsubcut":7467,"Ġschizophrenia":7468,"dag":7469,"lan":7470,"aspart":7471,"Ġcolic":7472,"Ġmedicinal":7473,"247":7474,"Ġproduc":7475,"Ġdesogestrel":7476,"Ġpn":7477,"Ġpol":7478,"Ġdar":7479,"Ġ1500":7480,"154":7481,"Ġprsn":7482,"Ġdvt":7483,"Ġpepcid":7484,"Ġcan":7485,"anylate":7486,"Ġguanylate":7487,"Ġcyclase":7488,"602":7489,"gc":7490,"131":7491,"784":7492,"Ġimmune":7493,"9689":7494,"sword":7495,"dagger":7496,"938":7497,"Ġlet":7498,"190":7499,"Ġhazard":7500,"dm":7501,"vigil":7502,"aranesp":7503,"idyl":7504,"Ġnephritis":7505,"153":7506,"596":7507,"493":7508,"898":7509,"233":7510,"ostav":7511,"illary":7512,"Ġbiguanide":7513,"Ġpeak":7514,"ostavax":7515,"Ġrest":7516,"073":7517,"391":7518,"680":7519,"Ġforte":7520,"Ġletrozole":7521,"them":7522,"Ġ210":7523,"Ġhaw":7524,"2900":7525,"554":7526,"Ġtooth":7527,"eans":7528,"ventricular":7529,"Ġbacitracin":7530,"atarsal":7531,"Ġnoninflam":7532,"ful":7533,"flex":7534,"yron":7535,"Ġaort":7536,"pivac":7537,"4586":7538,"Ġultram":7539,"Ġbupivac":7540,"Ġbupivacaine":7541,"namenda":7542,"Ġdots":7543,"095":7544,"192":7545,"290":7546,"diarrheal":7547,"Ġbiphasic":7548,"Ġmaalox":7549,"Ġpresence":7550,"Ġgallbladder":7551,"284":7552,"dilantin":7553,"mn":7554,"155":7555,"Ġmetatarsal":7556,"gree":7557,"Ġdegree":7558,"Ġtravatan":7559,"motil":7560,"Ġsubcutaneous":7561,"rated":7562,"Ġaro":7563,"Ġmeans":7564,"Ġfind":7565,"164":7566,"248":7567,"Ġflagyl":7568,"yronine":7569,"490":7570,"Ġnsaids":7571,"Ġleukocy":7572,"fos":7573,"1983":7574,"Ġbladder":7575,"Ġliner":7576,"Ġsutures":7577,"prevacid":7578,"Ġpares":7579,"Ġbypass":7580,"Ġferro":7581,"Ġrci":7582,"Ġknown":7583,"481":7584,"565":7585,"ostigmine":7586,"8881":7587,"Ġvaltrex":7588,"Ġcalcitonin":7589,"669":7590,"enium":7591,"364":7592,"Ġflut":7593,"663":7594,"Ġpolysorbate":7595,"hep":7596,"qvar":7597,"384":7598,"provera":7599,"Ġseed":7600,"yasthen":7601,"152":7602,"therm":7603,"clear":7604,"Ġclavic":7605,"375":7606,"Ġantimyasthen":7607,"Ġpsycho":7608,"Ġaminogly":7609,"basaglar":7610,"Ġaround":7611,"Ġantimyasthenic":7612,"tyrosine":7613,"Ġprep":7614,"Ġprevacid":7615,"474":7616,"cont":7617,"Ġphysiol":7618,"Ġflutter":7619,"ves":7620,"onium":7621,"034":7622,"434":7623,"ulous":7624,"Ġparano":7625,"omyel":7626,"Ġhazardous":7627,"rod":7628,"sure":7629,"ica":7630,"Ġsir":7631,"0081":7632,"adiazine":7633,"estril":7634,"Ġsulfadiazine":7635,"687":7636,"orrhe":7637,"Ġclavicle":7638,"6238":7639,"Ġbari":7640,"alli":7641,"393":7642,"Ġpotential":7643,"Ġtransient":7644,"Ġpotentially":7645,"napro":7646,"Ġdip":7647,"Ġmuc":7648,"Ġhigh":7649,"antadine":7650,"ucerin":7651,"Ġamantadine":7652,"glit":7653,"Ġ875":7654,"levo":7655,"Ġduration":7656,"Ġrham":7657,"Ġprsnl":7658,"Ġbariatric":7659,"815":7660,"Ġgg":7661,"Ġlock":7662,"lung":7663,"Ġ,,":7664,"anusol":7665,"aviren":7666,"Ġethyl":7667,"ocoronary":7668,"Ġrape":7669,"Ġefaviren":7670,"Ġaortocoronary":7671,"glitazone":7672,"Ġefavirenz":7673,"832":7674,"008":7675,"itrop":7676,"Ġpremarin":7677,"354":7678,"nosus":7679,"avac":7680,"Ġselenium":7681,"Ġtubulo":7682,"planon":7683,"interstitial":7684,"Ġparesthesia":7685,"Ġrhamnosus":7686,"627":7687,"olloid":7688,"Ġtrop":7689,"Ġstat":7690,"theria":7691,"Ġhydrocolloid":7692,"diphtheria":7693,"decavac":7694,"8673":7695,"cipro":7696,"pharm":7697,"Ġrx":7698,"Ġphenergan":7699,"Ġcongestion":7700,"Ġfibul":7701,"itropan":7702,"lle":7703,"1579":7704,"lunom":7705,"ulator":7706,"vagifem":7707,"eremia":7708,"Ġfibula":7709,"lunomide":7710,"sub":7711,"004":7712,"Ġissue":7713,"041":7714,"Ġalign":7715,"aiian":7716,"870":7717,"Ġislander":7718,"Ġpresc":7719,"Ġmood":7720,"Ġpacific":7721,"Ġprolong":7722,"Ġhawaiian":7723,"zed":7724,"olimus":7725,"loperamide":7726,"nokot":7727,"emaker":7728,"senokot":7729,"omega":7730,"4581":7731,"uloric":7732,"Ġpacemaker":7733,"aspartame":7734,"Ġsirolimus":7735,"fasc":7736,"Ġpio":7737,"Ġprimary":7738,"ont":7739,"olazine":7740,"Ġranolazine":7741,"captop":7742,"Ġpyridostigmine":7743,"Ġstenosis":7744,"Ġpioglitazone":7745,"captopurine":7746,"Ġ208":7747,"idazoles":7748,"cough":7749,"Ġclsn":7750,"Ġspinal":7751,"ofine":7752,"Ġimidazoles":7753,"Ġleflunomide":7754,"Ġnanocryst":7755,"Ġpremix":7756,"Ġbacteremia":7757,"allized":7758,"Ġnanocrystallized":7759,"aricept":7760,"Ġ2211":7761,"1910":7762,"8910":7763,"suspected":7764,"Ġrob":7765,"Ġalcoholic":7766,"Ġstabiliz":7767,"Ġmercaptopurine":7768,"Ġpsychoactive":7769,"naprosyn":7770,"9160":7771,"oneb":7772,"Ġyes":7773,"Ġcalcarb":7774,"Ġproductive":7775,"vox":7776,"Ġisentress":7777,"0310":7778,"leolar":7779,"1985":7780,"273":7781,"ulture":7782,"Ġmetac":7783,"595":7784,"Ġcolcrys":7785,"ray":7786,"5921":7787,"alphagan":7788,"Ġnephrocaps":7789,"Ġstrep":7790,"244":7791,"Ġgastritis":7792,"583":7793,"397":7794,"diphenhydr":7795,"Ġconcerta":7796,"Ġrifam":7797,"ogenic":7798,"86718":7799,"dol":7800,"asy":7801,"Ġ1705":7802,"Ġfloor":7803,"Ġbicycle":7804,"Ġrifampin":7805,"eek":7806,"Ġgel":7807,"078":7808,"abd":7809,"145":7810,"5409":7811,"pyrid":7812,"Ġstabilizers":7813,"enem":7814,"094":7815,"antyl":7816,"Ġinfect":7817,"861":7818,"Ġbenign":7819,"Ġlancing":7820,"cort":7821,"Ġramip":7822,"Ġsever":7823,"Ġmach":7824,"Ġnasonex":7825,"Ġimitrex":7826,"370":7827,"acidophilus":7828,"uropathy":7829,"Ġramipril":7830,"Ġseverity":7831,"ee":7832,"Ġdrop":7833,"Ġpainful":7834,"Ġhr":7835,"292":7836,"Ġglucophage":7837,"Ġstrp":7838,"Ġseno":7839,"484":7840,"382":7841,"362":7842,"Ġxifaxan":7843,"Ġjunel":7844,"Ġsenokot":7845,"clix":7846,"fioricet":7847,"xopenex":7848,"Ġ1688":7849,"roban":7850,"olytics":7851,"Ġsuture":7852,"Ġosteomyel":7853,"ulturelle":7854,"510":7855,"539":7856,"her":7857,"044":7858,"opathy":7859,"Ġlevoc":7860,"Ġdiplo":7861,"Ġmandi":7862,"Ġnod":7863,"Ġcheek":7864,"576":7865,"Ġrepeat":7866,"Ġmetacarp":7867,"eal":7868,"zatriptan":7869,"Ġ1889":7870,"ecavir":7871,"chemia":7872,"Ġcog":7873,"ephalo":7874,"Ġrizatriptan":7875,"686":7876,"Ġantibacterials":7877,"Ġulcerative":7878,"8500":7879,"Ġentecavir":7880,"contrac":7881,"zone":7882,"acet":7883,"Ġischemia":7884,"Ġthalidomide":7885,"Ġabdom":7886,"ouracil":7887,"Ġinto":7888,"Ġcontour":7889,"orrhag":7890,"Ġencephalo":7891,"Ġfluorouracil":7892,"nitine":7893,"Ġpicc":7894,"Ġfinding":7895,"contraceptive":7896,"605":7897,"scop":7898,"144":7899,"Ġcount":7900,"577":7901,"Ġlymphoma":7902,"Ġamputation":7903,"Ġrestasis":7904,"Ġpm":7905,"pia":7906,"used":7907,"Ġprec":7908,"Ġalf":7909,"Ġneomycin":7910,"rink":7911,"regular":7912,"Ġcos":7913,"1255":7914,"Ġnerv":7915,"Ġutr":7916,"cks":7917,"Ġcardi":7918,"afen":7919,"calcarb":7920,"Ġavapro":7921,"Ġdiplopia":7922,"lic":7923,"Ġfoley":7924,"Ġvyvanse":7925,"Ġvistaril":7926,"acl":7927,"541":7928,"795":7929,"iotics":7930,"Ġsocks":7931,"Ġotalgia":7932,"9221":7933,"81342":7934,"polymyxin":7935,"fluticasone":7936,"diphenhydramine":7937,"Ġkdn":7938,"intol":7939,"Ġsolu":7940,"7243":7941,"Ġearly":7942,"pharmac":7943,"Ġkdny":7944,"Ġaff":7945,"Ġmannitol":7946,"Ġvar":7947,"Ġlancet":7948,"Ġnondisp":7949,"Ġnonveno":7950,"syst":7951,"Ġexcedrin":7952,"proctosol":7953,"uzosin":7954,"reas":7955,"Ġmiotics":7956,"053":7957,"8849":7958,"Ġalfuzosin":7959,"contin":7960,"phil":7961,"Ġtric":7962,"Ġhot":7963,"Ġles":7964,"085":7965,"8248":7966,"Ġnonvenom":7967,"494":7968,"581":7969,"cosa":7970,"7100":7971,"78902":7972,"Ġgloves":7973,"propylene":7974,"clearlax":7975,"604":7976,"elence":7977,"482":7978,"heumatic":7979,"Ġtrach":7980,"athic":7981,"Ġortho":7982,"1254":7983,"Ġalphagan":7984,"Ġproventil":7985,"Ġcalculous":7986,"Ġglut":7987,"Ġproscar":7988,"93401":7989,"Ġperiumbilical":7990,"truetest":7991,"Ġencephalopathy":7992,"726":7993,"810":7994,"mirapex":7995,"Ġpanic":7996,"icidal":7997,"Ġperitone":7998,"Ġergot":7999,"systane":8000,"681":8001,"715":8002,"pkt":8003,"Ġbitt":8004,"ulast":8005,"071":8006,"074":8007,"03113":8008,"87343":8009,"Ġbitten":8010,"ulasta":8011,"220":8012,"embolism":8013,"roke":8014,"tegretol":8015,"Ġimp":8016,"9953":8017,"213":8018,"ust":8019,"006":8020,"Ġcav":8021,"1310":8022,"Ġesrd":8023,"Ġattack":8024,"care":8025,"gg":8026,"kl":8027,"1849":8028,"apenem":8029,"563":8030,"Ġcarbapenem":8031,"92411":8032,"Ġcystitis":8033,"Ġdelusion":8034,"Ġligand":8035,"Ġax":8036,"Ġ1388":8037,"ylating":8038,"5832":8039,"ylline":8040,"Ġalkylating":8041,"611":8042,"Ġpuncture":8043,"Ġ1689":8044,"Ġbike":8045,"Ġsensipar":8046,"26892":8047,"940":8048,"nasonex":8049,"Ġ207":8050,"Ġataz":8051,"anavir":8052,"Ġnstemi":8053,"193":8054,"271":8055,"575":8056,"Ġtool":8057,"Ġrank":8058,"azide":8059,"Ġesters":8060,"rankl":8061,"8208":8062,"Ġphenylephrin":8063,"Ġatazanavir":8064,"Ġcq":8065,"1046":8066,"2875":8067,"551":8068,"30590":8069,"Ġposthem":8070,"Ġposthemorrhag":8071,"iective":8072,"Ġ209":8073,"Ġout":8074,"seiective":8075,"Ġmisuse":8076,"6202":8077,"Ġdelica":8078,"Ġsuppor":8079,"853":8080,"intox":8081,"Ġ1604":8082,"Ġflexeril":8083,"patanol":8084,"intoxication":8085,"dro":8086,"zostavax":8087,"Ġvol":8088,"ected":8089,"555":8090,"urotic":8091,"Ġangione":8092,"693":8093,"79431":8094,"sillar":8095,"Ġangioneurotic":8096,"sodium":8097,"oniaz":8098,"iap":8099,"Ġami":8100,"Ġ1927":8101,"Ġcharco":8102,"Ġglass":8103,"Ġpoisn":8104,"remeron":8105,"mesartan":8106,"2242":8107,"Ġsupporting":8108,"oniazid":8109,"intran":8110,"333":8111,"gestrol":8112,"valtrex":8113,"ekg":8114,"roxicet":8115,"intranasal":8116,"944":8117,"cet":8118,"Ġisoniazid":8119,"Ġcoreg":8120,"triamcinolone":8121,"Ġmegestrol":8122,"viread":8123,"rev":8124,"load":8125,"Ġmot":8126,"Ġisonic":8127,"otinic":8128,"Ġexter":8129,"Ġsystems":8130,"myx":8131,"Ġproximal":8132,"Ġperitonsillar":8133,"Ġisonicotinic":8134,"9479":8135,"Ġrespimat":8136,"Ġuncomp":8137,"Ġwalkers":8138,"Ġbenzoyl":8139,"inephrin":8140,"urinary":8141,"Ġepinephrin":8142,"Ġreactions":8143,"Ġtransport":8144,"Ġcrutches":8145,"Ġexterna":8146,"vitamins":8147,"Ġreyataz":8148,"1251":8149,"594":8150,"4321":8151,"Ġfluvox":8152,"683":8153,"9431":8154,"Ġtoxic":8155,"Ġfluvoxamine":8156,"ket":8157,"nry":8158,"tt":8159,"Ġaw":8160,"Ġlab":8161,"iop":8162,"ird":8163,"loride":8164,"Ġimdur":8165,"Ġstruct":8166,"Ġstatnry":8167,"rion":8168,"oline":8169,"Ġdb":8170,"idy":8171,"Ġ1617":8172,"Ġladder":8173,"apres":8174,"Ġperiap":8175,"Ġantidiuretic":8176,"25571":8177,"Ġmalfunction":8178,"Ġpolyc":8179,"313":8180,"florastor":8181,"oper":8182,"eprion":8183,"acavir":8184,"Ġabor":8185,"Ġsenile":8186,"6820":8187,"Ġvasopressor":8188,"Ġamiloride":8189,"Ġcharcoal":8190,"Ġdbtl":8191,"Ġperiapical":8192,"integrase":8193,"Ġcram":8194,"imdur":8195,"Ġabacavir":8196,"4501":8197,"3310":8198,"608":8199,"pepcid":8200,"test":8201,"oll":8202,"1033":8203,"adex":8204,"Ġstroke":8205,"Ġthird":8206,"Ġminoxid":8207,"5771":8208,"675":8209,"71943":8210,"Ġminoxidil":8211,"ulera":8212,"omig":8213,"Ġ1899":8214,"Ġ1515":8215,"pididy":8216,"7824":8217,"Ġprotam":8218,"Ġangina":8219,"walk":8220,"Ġmetacarpal":8221,"Ġsolution":8222,"ecg":8223,"Ġ1435":8224,"Ġprezista":8225,"Ġantiandro":8226,"Ġesophageal":8227,"7197":8228,"amicin":8229,"03114":8230,"chondroit":8231,"Ġintestine":8232,"01511":8233,"Ġgentamicin":8234,"Ġlozenge":8235,"Ġmucolytics":8236,"Ġosteomyelitis":8237,"iopathic":8238,"Ġantiandrogens":8239,"Ġhi":8240,"Ġ1026":8241,"Ġ1449":8242,"ipril":8243,"Ġsinemet":8244,"6259":8245,"Ġpub":8246,"5859":8247,"483":8248,"chloride":8249,"697":8250,"laxative":8251,"Ġtroponin":8252,"Ġdrops":8253,"Ġcosopt":8254,"818":8255,"nam":8256,"pep":8257,"erc":8258,"Ġtw":8259,"Ġste":8260,"242":8261,"exipril":8262,"ization":8263,"odynia":8264,"Ġsubcu":8265,"Ġcompact":8266,"Ġmoexipril":8267,"filgrastim":8268,"asacol":8269,"thien":8270,"ulic":8271,"Ġoint":8272,"pers":8273,"460":8274,"886":8275,"4275":8276,"Ġsidewalk":8277,"Ġpegfilgrastim":8278,"Ġabortion":8279,"thienamycins":8280,"gn":8281,"led":8282,"leb":8283,"guar":8284,"171":8285,"564":8286,"unavir":8287,"ranexa":8288,"Ġthrown":8289,"novofine":8290,"5363":8291,"Ġdarunavir":8292,"namon":8293,"915":8294,"pseudoephedrine":8295,"Ġpt":8296,"Ġlight":8297,"neulasta":8298,"Ġatripla":8299,"aphor":8300,"Ġidiopathic":8301,"99811":8302,"cit":8303,"eck":8304,"acton":8305,"Ġsupra":8306,"371":8307,"Ġtriazolam":8308,"Ġmouthwash":8309,"vomit":8310,"stin":8311,"Ġcurb":8312,"section":8313,"Ġ1229":8314,"0781":8315,"Ġ1514":8316,"Ġdisrup":8317,"Ġcalcip":8318,"Ġfluid":8319,"Ġclot":8320,"Ġcalcipotriene":8321,"727":8322,"Ġ1666":8323,"Ġ1215":8324,"Ġolmesartan":8325,"Ġinsuff":8326,"Ġabstin":8327,"Ġhydrochloride":8328,"78959":8329,"sugar":8330,"utral":8331,"8054":8332,"Ġabstinence":8333,"618":8334,"Ġ1699":8335,"Ġ1058":8336,"Ġ1057":8337,"Ġ1356":8338,"Ġ1717":8339,"estrin":8340,"243":8341,"Ġdeg":8342,"442":8343,"odies":8344,"acral":8345,"Ġasacol":8346,"Ġ1700":8347,"593":8348,"495":8349,"580":8350,"Ġexcess":8351,"Ġhemor":8352,"aza":8353,"depo":8354,"idinium":8355,"oic":8356,"pent":8357,"Ġ1639":8358,"Ġliv":8359,"Ġscop":8360,"334":8361,"Ġcogentin":8362,"enpep":8363,"ucel":8364,"Ġstar":8365,"Ġdissection":8366,"imp":8367,"7880":8368,"584":8369,"Ġobs":8370,"71947":8371,"Ġscopolamine":8372,"odolac":8373,"etra":8374,"10239":8375,"Ġgr":8376,"Ġchondro":8377,"Ġexpi":8378,"Ġtob":8379,"Ġetodolac":8380,"Ġcardiomy":8381,"833":8382,"rheumatic":8383,"Ġbump":8384,"Ġ211":8385,"Ġ1205":8386,"ulopathy":8387,"Ġradic":8388,"28800":8389,"2241":8390,"Ġpubis":8391,"Ġdisruption":8392,"Ġexpired":8393,"Ġradiculopathy":8394,"iq":8395,"lim":8396,"pb":8397,"saline":8398,"Ġcle":8399,"Ġnovel":8400,"674":8401,"congest":8402,"dem":8403,"alon":8404,"Ġcardizem":8405,"573":8406,"Ġfxn":8407,"Ġamitiza":8408,"Ġsoftclix":8409,"Ġapri":8410,"dura":8411,"Ġrequest":8412,"503":8413,"dip":8414,"Ġstg":8415,"limid":8416,"jected":8417,"Ġ1059":8418,"antacid":8419,"Ġprojected":8420,"4660":8421,"rating":8422,"comfort":8423,"benefiber":8424,"Ġmyeloma":8425,"sl":8426,"Ġill":8427,"Ġ1856":8428,"Ġ1426":8429,"uprol":8430,"Ġnontra":8431,"Ġleuprol":8432,"betimol":8433,"Ġpulmicort":8434,"Ġnext":8435,"72829":8436,"Ġleuprolide":8437,"ecit":8438,"Ġunst":8439,"olyn":8440,"3829":8441,"intentional":8442,"Ġbica":8443,"9248":8444,"geodon":8445,"79671":8446,"Ġcandid":8447,"Ġvaric":8448,"526":8449,"fi":8450,"keratolytic":8451,"Ġpin":8452,"erior":8453,"Ġmedication":8454,"Ġ1014":8455,"Ġgas":8456,"Ġ1359":8457,"apri":8458,"arent":8459,"unintentional":8460,"essalon":8461,"Ġzy":8462,"ointment":8463,"multiv":8464,"metformin":8465,"Ġbandage":8466,"Ġ1318":8467,"1977":8468,"1585":8469,"ocin":8470,"360":8471,"572":8472,"Ġpolymyx":8473,"Ġlipoic":8474,"Ġleukemia":8475,"Ġpresenting":8476,"Ġmouthwashes":8477,"Ġpolymyxins":8478,"916":8479,"othe":8480,"Ġ1786":8481,"opic":8482,"673":8483,"cle":8484,"mopress":8485,"vaza":8486,"olus":8487,"Ġclar":8488,"Ġvulva":8489,"cetir":8490,"mopressin":8491,"bronch":8492,"ched":8493,"Ġ1789":8494,"Ġreducer":8495,"7837":8496,"control":8497,"Ġdesmopressin":8498,"37230":8499,"93402":8500,"Ġnodes":8501,"Ġstructures":8502,"635":8503,"6289":8504,"9288":8505,"feron":8506,"mouth":8507,"Ġ1303":8508,"Ġ1436":8509,"Ġreplacements":8510,"78652":8511,"Ġlactase":8512,"Ġtrache":8513,"644":8514,"glo":8515,"gran":8516,"atide":8517,"agesic":8518,"Ġenl":8519,"taid":8520,"Ġmalignan":8521,"51881":8522,"25572":8523,"lansoprazole":8524,"Ġunstable":8525,"bronchogenic":8526,"988":8527,"een":8528,"santyl":8529,"ination":8530,"odol":8531,"Ġcc":8532,"epron":8533,"Ġ1809":8534,"Ġcomt":8535,"Ġ1339":8536,"Ġ1400":8537,"Ġ1969":8538,"esta":8539,"280":8540,"Ġrid":8541,"Ġdexlansoprazole":8542,"682":8543,"glucerna":8544,"combigan":8545,"Ġaminoglycosides":8546,"440":8547,"615":8548,"depress":8549,"Ġlatuda":8550,"Ġ1539":8551,"585":8552,"Ġheel":8553,"887":8554,"Ġteeth":8555,"Ġbenicar":8556,"suboxone":8557,"808":8558,"848":8559,"9181":8560,"Ġ2000":8561,"isopr":8562,"ening":8563,"Ġ1025":8564,"Ġ1546":8565,"Ġcarisopr":8566,"Ġlevaquin":8567,"Ġcapecit":8568,"Ġcarisoprodol":8569,"Ġcapecitabine":8570,"Ġsm":8571,"Ġsar":8572,"Ġ1946":8573,"eptadine":8574,"Ġbreathing":8575,"pididymit":8576,"heptadine":8577,"ym":8578,"Ġpopl":8579,"Ġcypro":8580,"Ġ1607":8581,"Ġ1837":8582,"Ġ1538":8583,"amet":8584,"Ġ1989":8585,"iteal":8586,"Ġinflam":8587,"Ġpopliteal":8588,"Ġcyproheptadine":8589,"623":8590,"emolli":8591,"Ġfif":8592,"Ġ1600":8593,"Ġ1305":8594,"Ġ1747":8595,"Ġ1913":8596,"lub":8597,"582":8598,"travite":8599,"oprostol":8600,"Ġadjust":8601,"85220":8602,"reased":8603,"emollient":8604,"201":8605,"Ġ1817":8606,"Ġ1304":8607,"0539":8608,"Ġ1916":8609,"igg":8610,"Ġperles":8611,"Ġperiod":8612,"Ġlysine":8613,"79672":8614,"Ġbetween":8615,"fosamax":8616,"Ġcardiomyopathy":8617,"dy":8618,"ken":8619,"ture":8620,"Ġcyc":8621,"Ġ1200":8622,"180":8623,"993":8624,"Ġlike":8625,"Ġorthostatic":8626,"rapamune":8627,"heroin":8628,"Ġnontraf":8629,"Ġfifth":8630,"Ġaa":8631,"rax":8632,"Ġ1138":8633,"diphen":8634,"Ġepisodic":8635,"Ġdecongestant":8636,"heparin":8637,"Ġexcessive":8638,"Ġsign":8639,"aglin":8640,"Ġnuvaring":8641,"050":8642,"Ġantidote":8643,"Ġantibodies":8644,"1122":8645,"Ġrepaglin":8646,"Ġenlarg":8647,"Ġrepaglinide":8648,"lace":8649,"amole":8650,"Ġthio":8651,"685":8652,"5090":8653,"tegrati":8654,"disintegrati":8655,"pyridamole":8656,"408":8657,"5289":8658,"869":8659,"body":8660,"iomy":8661,"lt":8662,"odart":8663,"Ġ1613":8664,"28860":8665,"560":8666,"882":8667,"nosumab":8668,"Ġglycerin":8669,"6824":8670,"Ġdenosumab":8671,"mesis":8672,"Ġanorexiants":8673,"Ġleukocytosis":8674,"230":8675,"lot":8676,"local":8677,"Ġcgf":8678,"eremesis":8679,"Ġvesicare":8680,"anta":8681,"Ġ1513":8682,"ylanta":8683,"renagel":8684,"neal":8685,"hydroc":8686,"1000":8687,"Ġpropion":8688,"Ġhypoderm":8689,"Ġhyperemesis":8690,"Ġcorneal":8691,"56699":8692,"Ġpericardial":8693,"Ġhypodermic":8694,"Ġpow":8695,"old":8696,"Ġ1589":8697,"Ġensure":8698,"4940":8699,"Ġleiomy":8700,"995":8701,"prostatic":8702,"Ġpreparations":8703,"Ġleiomyoma":8704,"\",":8705,"\"],":8706,"ok":8707,"yte":8708,"Ġcord":8709,"istle":8710,"Ġ1869":8711,"Ġ1977":8712,"ialda":8713,"aloe":8714,"Ġtable":8715,"Ġthistle":8716,"ethin":8717,"dexilant":8718,"Ġbenazepril":8719,"nicoderm":8720,"Ġtricor":8721,"8798":8722,"astigmine":8723,"Ġ1204":8724,"Ġtripp":8725,"Ġstumbling":8726,"Ġ1926":8727,"Ġthreat":8728,"avis":8729,"Ġrivastigmine":8730,"Ġtripping":8731,"gx":8732,"lopressor":8733,"Ġmirena":8734,"ara":8735,"Ġadhes":8736,"Ġhald":8737,"Ġ1029":8738,"Ġ1424":8739,"Ġ1557":8740,"ammed":8741,"Ġrhab":8742,"Ġlevothroid":8743,"Ġsurg":8744,"Ġjammed":8745,"Ġbisoprolol":8746,"Ġlactic":8747,"surgical":8748,"disinteg":8749,"Ġpinched":8750,"Ġsigns":8751,"Ġhaldol":8752,"Ġrhabd":8753,"disintegrating":8754,"itive":8755,"1084":8756,"Ġ1112":8757,"Ġ1707":8758,"Ġ1902":8759,"caltrate":8760,"61211":8761,"Ġparanoid":8762,"lebitis":8763,"709":8764,"7200":8765,"921":8766,"fortic":8767,"gst":8768,"meterol":8769,"Ġtrace":8770,"enes":8771,"Ġ1329":8772,"chest":8773,"Ġ1728":8774,"Ġ1988":8775,"Ġsalmeterol":8776,"romolyn":8777,"evers":8778,"neoral":8779,"unsp":8780,"Ġspray":8781,"Ġzestril":8782,"Ġsubs":8783,"Ġactos":8784,"Ġobservation":8785,"Ġmandible":8786,"Ġsarna":8787,"Ġthreaten":8788,"can":8789,"dimer":8790,"Ġpet":8791,"Ġdgst":8792,"Ġcromolyn":8793,"Ġlen":8794,"mitriptan":8795,"151":8796,"Ġspecial":8797,"msm":8798,"684":8799,"ctiv":8800,"lipta":8801,"Ġinterferon":8802,"Ġcompounded":8803,"Ġarthropod":8804,"pharmacy":8805,"mouthwash":8806,"Ġdgstv":8807,"Ġ1887":8808,"using":8809,"Ġ1719":8810,"optic":8811,"Ġblm":8812,"8801":8813,"iane":8814,"Ġellipta":8815,"Ġzolmitriptan":8816,"foot":8817,"arthritis":8818,"omyolysis":8819,"prs":8820,"Ġrhabdomyolysis":8821,"Ġpack":8822,"Ġsic":8823,"Ġlbp":8824,"Ġ1203":8825,"Ġ1315":8826,"Ġ1327":8827,"Ġ1745":8828,"49390":8829,"29690":8830,"443":8831,"714":8832,"ages":8833,"Ġ1629":8834,"Ġ1649":8835,"Ġ1647":8836,"Ġ1505":8837,"Ġ1915":8838,"1749":8839,"Ġillness":8840,"globulin":8841,"analgesic":8842,"osyn":8843,"Ġ1036":8844,"Ġ1512":8845,"Ġ1524":8846,"Ġ1545":8847,"Ġ1957":8848,"Ġ1999":8849,"8918":8850,"prem":8851,"6869":8852,"Ġdetrol":8853,"tenof":8854,"yster":8855,"procrit":8856,"aerochamber":8857,"dle":8858,"eucerin":8859,"nis":8860,"rose":8861,"Ġ1836":8862,"Ġ1225":8863,"Ġ1408":8864,"Ġ1137":8865,"Ġ1948":8866,"iazenes":8867,"Ġtriazenes":8868,"iba":8869,"Ġmynephrocaps":8870,"Ġfeet":8871,"Ġbumped":8872,"3079":8873,"842":8874,"Ġpalm":8875,"Ġ1239":8876,"Ġ1413":8877,"091":8878,"Ġuncontrol":8879,"Ġ1938":8880,"Ġxopenex":8881,"Ġintentional":8882,"Ġivpb":8883,"Ġground":8884,"Ġbenefiber":8885,"multivitamin":8886,"sitis":8887,"itra":8888,"sprintec":8889,"Ġ1605":8890,"Ġ1626":8891,"Ġ1805":8892,"Ġ1827":8893,"Ġ1213":8894,"Ġ1415":8895,"Ġ1502":8896,"Ġ1900":8897,"78459":8898,"7902":8899,"Ġimmuno":8900,"Ġsubsalicylate":8901,"dextr":8902,"Ġcyclst":8903,"Ġbursitis":8904,"Ġrobitussin":8905,"demadex":8906,"478":8907,"738":8908,"bism":8909,"Ġ1349":8910,"Ġ1407":8911,"Ġ1404":8912,"Ġstemi":8913,"Ġabort":8914,"Ġaggrenox":8915,"Ġcornea":8916,"ovudine":8917,"covy":8918,"Ġtongue":8919,"cpt":8920,"pentyl":8921,"emtricit":8922,"atell":8923,"Ġ1256":8924,"Ġ1313":8925,"Ġ1425":8926,"Ġ1739":8927,"pyrim":8928,"Ġ1912":8929,"2762":8930,"zolo":8931,"380":8932,"ormal":8933,"triazolo":8934,"Ġpravachol":8935,"Ġdrain":8936,"6929":8937,"Ġcyclopentyl":8938,"ffee":8939,"Ġfeel":8940,"45909":8941,"Ġvoltaren":8942,"Ġimmunoglobulin":8943,"bismol":8944,"cptps":8945,"pyrimidines":8946,"204":8947,"740":8948,"borrhe":8949,"ciclovir":8950,"nifed":8951,"zic":8952,"Ġmirapex":8953,"acort":8954,"Ġ1027":8955,"Ġ1348":8956,"Ġ1729":8957,"Ġ1923":8958,"Ġclob":8959,"Ġestrace":8960,"Ġdehydr":8961,"tenofov":8962,"borrheic":8963,"Ġfevers":8964,"Ġ1638":8965,"Ġlate":8966,"Ġ1245":8967,"Ġgreat":8968,"Ġ1326":8969,"Ġ1528":8970,"imod":8971,"Ġrt":8972,"Ġrng":8973,"ige":8974,"Ġconc":8975,"Ġxanthines":8976,"concussion":8977,"Ġnaprosyn":8978,"Ġpostconcussion":8979,"Ġventricular":8980,"Ġbandages":8981,"Ġtonsill":8982,"congestion":8983,"312":8984,"kw":8985,"lup":8986,"ozol":8987,"Ġcuff":8988,"ivir":8989,"omnia":8990,"Ġ1159":8991,"291":8992,"261":8993,"Ġcoffee":8994,"Ġvera":8995,"aired":8996,"Ġnaratriptan":8997,"aquaphor":8998,"burn":8999,"potassium":9000,"dispers":9001,"transp":9002,"Ġosteo":9003,"dispersible":9004,"610":9005,"Ġsple":9006,"lovenox":9007,"heum":9008,"arbophil":9009,"Ġketone":9010,"virine":9011,"6609":9012,"Ġconjunctival":9013,"Ġlenalidomide":9014,"Ġuncontrolled":9015,"Ġspleen":9016,"426":9017,"514":9018,"paxil":9019,"sob":9020,"olair":9021,"Ġ1838":9022,"acted":9023,"Ġ1438":9024,"Ġamphetamines":9025,"Ġorific":9026,"7904":9027,"671":9028,"Ġlevels":9029,"oven":9030,"8449":9031,"Ġlateral":9032,"Ġantiseborrheic":9033,"atern":9034,"Ġperitoneal":9035,"Ġimpacted":9036,"Ġorifice":9037,"210":9038,"348":9039,"dulera":9040,"Ġcab":9041,"anec":9042,"iso":9043,"Ġ1336":9044,"Ġ1527":9045,"Ġinsomnia":9046,"241":9047,"Ġreplac":9048,"Ġprostate":9049,"Ġemesis":9050,"Ġlevocetirizine":9051,"Ġpolycarbophil":9052,"Ġtonsillitis":9053,"lupron":9054,"423":9055,"mass":9056,"Ġ1616":9057,"Ġ1829":9058,"aditor":9059,"Ġ1307":9060,"Ġ1724":9061,"Ġ1945":9062,"Ġcarot":9063,"Ġphenter":9064,"Ġextrem":9065,"benazepril":9066,"Ġsupraventricular":9067,"diphenhyd":9068,"Ġphentermine":9069,"402":9070,"438":9071,"resiba":9072,"edronic":9073,"Ġbili":9074,"Ġtresiba":9075,"sere":9076,"Ġ1609":9077,"Ġ1828":9078,"Ġ1879":9079,"aminase":9080,"Ġ1037":9081,"Ġ1405":9082,"Ġ1779":9083,"Ġ1914":9084,"Ġlot":9085,"glt":9086,"Ġprovigil":9087,"7810":9088,"Ġspbl":9089,"Ġimipramine":9090,"arditis":9091,"Ġzoledronic":9092,"9130":9093,"Ġbas":9094,"Ġ1808":9095,"Ġ1202":9096,"Ġ1517":9097,"7812":9098,"hydrophil":9099,"inhibitor":9100,"Ġpetrolat":9101,"936":9102,"eo":9103,"natural":9104,"hip":9105,"actic":9106,"Ġ1402":9107,"Ġ1489":9108,"mlactin":9109,"Ġ1725":9110,"Ġ1966":9111,"Ġloestrin":9112,"gmenting":9113,"Ġdextrin":9114,"1198":9115,"uritic":9116,"maalox":9117,"lycopene":9118,"Ġperitonitis":9119,"emtricitabin":9120,"540":9121,"tussin":9122,"zerem":9123,"asacort":9124,"Ġtemozol":9125,"enitis":9126,"Ġ1819":9127,"ravirine":9128,"Ġ1046":9129,"Ġunilat":9130,"oxif":9131,"Ġetravirine":9132,"Ġmisoprostol":9133,"clotrimazole":9134,"Ġrefused":9135,"Ġvictoza":9136,"Ġhazardousbody":9137,"Ġprolonged":9138,"Ġclotted":9139,"impaired":9140,"transport":9141,"Ġtemozolomide":9142,"Ġwip":9143,"thromb":9144,"Ġdepi":9145,"ecran":9146,"umen":9147,"Ġolecran":9148,"Ġ1769":9149,"5831":9150,"5722":9151,"Ġcerumen":9152,"Ġmucosa":9153,"8052":9154,"Ġdorsal":9155,"mao":9156,"ychia":9157,"Ġglutamate":9158,"Ġclean":9159,"Ġbiliary":9160,"Ġdepigmenting":9161,"535":9162,"966":9163,"junel":9164,"Ġsites":9165,"Ġ1867":9166,"Ġagt":9167,"11649":9168,"Ġ1338":9169,"Ġ1458":9170,"eld":9171,"051":9172,"Ġstatic":9173,"ocort":9174,"Ġhypercap":9175,"Ġphosphor":9176,"Ġhisto":9177,"Ġmonoamine":9178,"776":9179,"9593":9180,"6521":9181,"Ġpostures":9182,"Ġprotectant":9183,"Ġpnv":9184,"Ġawkw":9185,"heumat":9186,"serevent":9187,"Ġhypercapnia":9188,"Ġawkward":9189,"430":9190,"Ġtheoph":9191,"Ġ1625":9192,"Ġ(****":9193,"Ġ1013":9194,"Ġner":9195,"Ġ1208":9196,"Ġ1207":9197,"Ġ1238":9198,"antoven":9199,"7841":9200,"ologic":9201,"Ġneutral":9202,"Ġshell":9203,"Ġchlorpheniramine":9204,"1970":9205,"Ġperiumbilic":9206,"Ġtheophylline":9207,"Ġ(******":9208,"636":9209,"bro":9210,"jan":9211,"wr":9212,"alf":9213,"Ġ1627":9214,"Ġ1645":9215,"Ġ1826":9216,"phrosis":9217,"Ġ1358":9218,"Ġ1406":9219,"Ġ1419":9220,"Ġ220":9221,"Ġ1959":9222,"7801":9223,"Ġepogen":9224,"Ġmenstr":9225,"70715":9226,"Ġhbr":9227,"Ġhydronephphrosis":9228,"Ġnerve":9229,"sol":9230,"zocor":9231,"ork":9232,"sev":9233,"Ġ1206":9234,"Ġdisposable":9235,"Ġ1427":9236,"Ġ1511":9237,"Ġ1737":9238,"Ġrup":9239,"ramycin":9240,"53081":9241,"choline":9242,"Ġmoving":9243,"Ġvaccin":9244,"79605":9245,"atripla":9246,"wrst":9247,"Ġsorb":9248,"Ġnacl":9249,"Ġ1997":9250,"Ġspont":9251,"first":9252,"Ġhives":9253,"Ġ1248":9254,"Ġ1459":9255,"Ġ1504":9256,"Ġ1548":9257,"amns":9258,"Ġ1703":9259,"Ġ1799":9260,"Ġ1929":9261,"iline":9262,"Ġorg":9263,"Ġprotamin":9264,"hydrin":9265,"Ġandrogel":9266,"Ġtransamns":9267,"Ġcatheters":9268,"gnse":9269,"Ġdehydrgnse":9270,"olide":9271,"Ġhit":9272,"Ġ1813":9273,"Ġ1823":9274,"Ġ1258":9275,"Ġ1423":9276,"Ġ1437":9277,"Ġcomplaints":9278,"Ġ1704":9279,"Ġstom":9280,"Ġ1910":9281,"Ġ1904":9282,"Ġ1936":9283,"alcyte":9284,"394":9285,"381":9286,"glycerin":9287,"78905":9288,"Ġhalobetasol":9289,"Ġmiddle":9290,"Ġfluoride":9291,"Ġpelvis":9292,"revlimid":9293,"502":9294,"Ġastelin":9295,"istant":9296,"Ġ1614":9297,"Ġ1825":9298,"Ġ1845":9299,"Ġ1328":9300,"Ġ1523":9301,"external":9302,"Ġabnl":9303,"catapres":9304,"cholestyramine":9305,"Ġheroin":9306,"Ġparts":9307,"Ġlumbos":9308,"concent":9309,"Ġwheat":9310,"Ġchondroitin":9311,"aviscon":9312,"concentrated":9313,"gent":9314,"onitis":9315,"Ġ1602":9316,"Ġ1656":9317,"Ġ1803":9318,"Ġ1824":9319,"Ġ1712":9320,"upogen":9321,"191":9322,"5750":9323,"gluco":9324,"Ġneeds":9325,"Ġfour":9326,"Ġdepo":9327,"dextrin":9328,"Ġpsychi":9329,"Ġsickle":9330,"Ġlumbosacral":9331,"doc":9332,"prol":9333,"sglt":9334,"tte":9335,"uation":9336,"Ġostomy":9337,"isted":9338,"Ġ1226":9339,"phal":9340,"Ġ1414":9341,"Ġcotransport":9342,"Ġrheumat":9343,"Ġcolest":9344,"Ġmoderate":9345,"762":9346,"Ġocular":9347,"80701":9348,"Ġafter":9349,"Ġsorbitol":9350,"Ġcotransporter":9351,"detrol":9352,"slow":9353,"icay":9354,"Ġbox":9355,"Ġ1815":9356,"osa":9357,"Ġ1559":9358,"Ġ1599":9359,"Ġstates":9360,"Ġ1905":9361,"881":9362,"gard":9363,"7290":9364,"Ġactivity":9365,"proscar":9366,"Ġphosphorus":9367,"Ġpsychiatric":9368,"nepro":9369,"tril":9370,"Ġsure":9371,"ivicay":9372,"Ġ1814":9373,"Ġ1249":9374,"Ġ1429":9375,"Ġ1139":9376,"Ġ1766":9377,"ifine":9378,"Ġenbrel":9379,"361":9380,"tera":9381,"899":9382,"prezista":9383,"eptidyl":9384,"695":9385,"Ġmenthol":9386,"Ġprolactin":9387,"electrolyte":9388,"Ġ15496609":9389,"gged":9390,"Ġtobramycin":9391,"dipeptidyl":9392,"Ġvaricella":9393,"5780":9394,"camphor":9395,"Ġsz":9396,"ultic":9397,"Ġfam":9398,"artic":9399,"Ġ1015":9400,"Ġ1416":9401,"Ġ1509":9402,"Ġ1526":9403,"Ġ1706":9404,"Ġ1702":9405,"Ġ1928":9406,"Ġ1939":9407,"Ġ1947":9408,"Ġchem":9409,"coccal":9410,"88100":9411,"othyronine":9412,"661":9413,"Ġrifamycin":9414,"Ġsubacute":9415,"iodothyronine":9416,"triiodothyronine":9417,"Ġpositive":9418,"bio":9419,"ny":9420,"Ġtivicay":9421,"Ġmag":9422,"Ġ1237":9423,"Ġ1337":9424,"Ġ1428":9425,"Ġ1445":9426,"ylar":9427,"Ġ1723":9428,"Ġ1903":9429,"Ġ1958":9430,"imuran":9431,"ips":9432,"5761":9433,"andin":9434,"ergoline":9435,"epivir":9436,"9592":9437,"8028":9438,"8050":9439,"sorbate":9440,"Ġcurve":9441,"polysorbate":9442,"duragesic":9443,"Ġwomens":9444,"Ġcabergoline":9445,"Ġspontaneous":9446,"301":9447,"558":9448,"9389":9449,"rag":9450,"Ġitch":9451,"Ġdros":9452,"piren":9453,"Ġfilgrastim":9454,"Ġhold":9455,"Ġ1659":9456,"Ġ1636":9457,"Ġ1158":9458,"Ġ1756":9459,"Ġ1788":9460,"Ġ1906":9461,"Ġ1924":9462,"Ġclogged":9463,"ovidone":9464,"Ġassisted":9465,"Ġdrospiren":9466,"Ġdrospirenone":9467,"512":9468,"bact":9469,"culturelle":9470,"ditropan":9471,"Ġharm":9472,"Ġ1849":9473,"Ġ1019":9474,"Ġ1236":9475,"Ġgar":9476,"0441":9477,"Ġ1516":9478,"Ġ1537":9479,"Ġ1100":9480,"Ġ1758":9481,"Ġabdo":9482,"Ġspironolacton":9483,"677":9484,"Ġatrio":9485,"Ġflushes":9486,"duoderm":9487,"7030":9488,"20300":9489,"Ġliving":9490,"back":9491,"dial":9492,"reyataz":9493,"Ġpancy":9494,"Ġsf":9495,"itory":9496,"Ġ1319":9497,"Ġ1345":9498,"Ġ1536":9499,"Ġonychia":9500,"660":9501,"4892":9502,"Ġureth":9503,"Ġorthop":9504,"411":9505,"brist":9506,"cp":9507,"cart":9508,"ojet":9509,"Ġpil":9510,"Ġactive":9511,"Ġ1628":9512,"Ġ1646":9513,"Ġ1846":9514,"Ġ1855":9515,"Ġ1018":9516,"Ġnri":9517,"Ġ1518":9518,"Ġ1529":9519,"Ġ1556":9520,"ucan":9521,"Ġ1917":9522,"Ġ1937":9523,"6825":9524,"simethicone":9525,"affective":9526,"Ġovary":9527,"latulent":9528,"Ġinvolun":9529,"86711":9530,"antiflatulent":9531,"lubricant":9532,"nifedical":9533,"Ġrheumatoid":9534,"Ġpancytopenia":9535,"bristojet":9536,"eous":9537,"nuvaring":9538,"Ġrace":9539,"etta":9540,"Ġ1412":9541,"Ġ1558":9542,"ethnic":9543,"Ġtrulic":9544,"mour":9545,"87341":9546,"trans":9547,"Ġaqueous":9548,"Ġposthemorrhagic":9549,"canasa":9550,"Ġpetites":9551,"cartia":9552,"ethnicity":9553,"Ġtrulicity":9554,"708":9555,"8001":9556,"fexofenadine":9557,"uln":9558,"emest":9559,"Ġflorastor":9560,"Ġintr":9561,"Ġ1807":9562,"onex":9563,"risdol":9564,"Ġexemest":9565,"698":9566,"Ġduoneb":9567,"41071":9568,"Ġphysical":9569,"Ġcirculat":9570,"Ġtracheostomy":9571,"bactroban":9572,"Ġexemestane":9573,"chil":9574,"famotidine":9575,"mepron":9576,"other":9577,"water":9578,"Ġil":9579,"Ġporcine":9580,"Ġsarco":9581,"Ġsynov":9582,"idosis":9583,"Ġ1012":9584,"Ġ1357":9585,"Ġ1447":9586,"Ġ1579":9587,"Ġ1736":9588,"leuk":9589,"Ġmetab":9590,"883":9591,"pressure":9592,"Ġpneumonitis":9593,"Ġparasy":9594,"Ġdesipramine":9595,"56609":9596,"Ġasslt":9597,"Ġcalcitonins":9598,"Ġadjustment":9599,"zicom":9600,"transderm":9601,"Ġsarcoidosis":9602,"722":9603,"8002":9604,"nx":9605,"ores":9606,"ood":9607,"Ġpatell":9608,"lomotil":9609,"Ġoper":9610,"Ġhtn":9611,"Ġ1016":9612,"Ġ1314":9613,"Ġ1456":9614,"0989":9615,"amyc":9616,"upper":9617,"Ġ1956":9618,"ipol":9619,"45340":9620,"Ġjt":9621,"Ġcollis":9622,"692":9623,"Ġcolestipol":9624,"Ġindex":9625,"Ġ1312":9626,"Ġ1918":9627,"Ġalc":9628,"78194":9629,"azam":9630,"salmon":9631,"765":9632,"4271":9633,"Ġinterphal":9634,"8122":9635,"Ġgarlic":9636,"Ġbimal":9637,"Ġ1300":9638,"Ġ1316":9639,"Ġ1510":9640,"Ġreduct":9641,"29590":9642,"Ġtrn":9643,"Ġmethylcellulose":9644,"Ġclobazam":9645,"Ġpatella":9646,"Ġoperation":9647,")(":9648,"5081":9649,"956":9650,"cor":9651,"asu":9652,"Ġtb":9653,"Ġadm":9654,"Ġ1648":9655,"Ġ1212":9656,"Ġ1247":9657,"Ġ1506":9658,"Ġ1714":9659,"Ġ1986":9660,"utes":9661,"Ġrle":9662,"Ġflunis":9663,"quip":9664,"endocardial":9665,"cosopt":9666,"Ġsubendocardial":9667,"orette":9668,"Ġdescovy":9669,"Ġarthropathy":9670,"Ġflunisolide":9671,"830":9672,"td":9673,"xx":9674,"Ġvimpat":9675,"Ġ1878":9676,"Ġ1886":9677,"Ġstud":9678,"Ġmarinol":9679,"240":9680,"axin":9681,"clidinium":9682,"Ġminutes":9683,"666":9684,"olostomy":9685,"operative":9686,"Ġpilon":9687,"223":9688,"532":9689,"Ġ1608":9690,"Ġ1657":9691,"Ġ1858":9692,"Ġ1896":9693,"Ġ1056":9694,"Ġantithromb":9695,"Ġ1979":9696,"symptom":9697,"tricor":9698,"Ġrenagel":9699,"antipl":9700,"Ġcyclic":9701,"4364":9702,"Ġcavity":9703,"pentasa":9704,"Ġantithrombotic":9705,"pan":9706,"Ġcolostomy":9707,"Ġ1658":9708,"Ġ1228":9709,"Ġ1279":9710,"Ġ1347":9711,"Ġ1746":9712,"Ġ1925":9713,"Ġchel":9714,"Ġsulfide":9715,"atelets":9716,"1005":9717,"Ġcytoprotective":9718,"benicar":9719,"Ġuterus":9720,"01112":9721,"Ġneuritis":9722,"motorc":9723,"Ġlesions":9724,"Ġointment":9725,"Ġorthoped":9726,"antiplatelets":9727,"Ġantithrombotics":9728,"01198":9729,"3489":9730,"Ġbal":9731,"ulum":9732,"Ġmeds":9733,"Ġ1246":9734,"antix":9735,"Ġ1718":9736,"Ġ1738":9737,"Ġchantix":9738,"imet":9739,"571":9740,"motrin":9741,"773":9742,"Ġanaphylactic":9743,"Ġpentips":9744,"Ġorthopedic":9745,"951":9746,"fer":9747,"alizumab":9748,"Ġvec":9749,"ecia":9750,"rack":9751,"Ġ1049":9752,"Ġ1210":9753,"Ġ1726":9754,"Ġalleg":9755,"25061":9756,"imoptic":9757,"ocp":9758,"examic":9759,"Ġomalizumab":9760,"glucos":9761,"Ġtranexamic":9762,"Ġprasu":9763,"Ġincid":9764,"Ġtrimeth":9765,"Ġprocrit":9766,"Ġstarting":9767,"Ġwipes":9768,"Ġprasugrel":9769,"mapap":9770,"Ġ1039":9771,"Ġ1038":9772,"Ġ1223":9773,"Ġisoph":9774,"Ġ1148":9775,"opn":9776,"Ġ1909":9777,"otrop":9778,"phenergan":9779,"click":9780,"470":9781,"7907":9782,"Ġsenior":9783,"99592":9784,"Ġacetab":9785,"Ġcontusions":9786,"Ġcinnamon":9787,"ĠĠĠĠ":9788,"antifungal":9789,"Ġnervosa":9790,"Ġsteady":9791,"motorcycl":9792,"Ġalleged":9793,"308":9794,"bentyl":9795,"xolair":9796,"Ġ1806":9797,"Ġ1227":9798,"Ġ1308":9799,"Ġ1409":9800,"Ġ1417":9801,"Ġ1488":9802,"Ġ1146":9803,"uronium":9804,"Ġ1901":9805,"Ġfemoral":9806,"Ġmaleat":9807,"evity":9808,"Ġsust":9809,"4439":9810,"intelence":9811,"25011":9812,"42732":9813,"971":9814,"nexplanon":9815,"79604":9816,"Ġconjunctiva":9817,"combivent":9818,"Ġbimalleolar":9819,"Ġvecuronium":9820,"422":9821,"9089":9822,"brox":9823,"Ġbrin":9824,"Ġ1812":9825,"Ġ1214":9826,"Ġ1235":9827,"Ġ1317":9828,"Ġ1324":9829,"Ġ1507":9830,"chitis":9831,"281":9832,"utab":9833,"Ġsolutab":9834,"ldh":9835,"Ġtransaminase":9836,"fortamet":9837,"Ġcompounds":9838,"Ġcausing":9839,"Ġinterferons":9840,"prolia":9841,"Ġsureclick":9842,"leukin":9843,"zaril":9844,"Ġanterior":9845,"iac":9846,"Ġ1519":9847,"ricants":9848,"Ġsulfacet":9849,"Ġthym":9850,"Ġkapse":9851,"quin":9852,"progestin":9853,"676":9854,"Ġrox":9855,"Ġlubricants":9856,"antepar":9857,"Ġmening":9858,"Ġhbv":9859,"tdf":9860,"Ġsulfacetamide":9861,"Ġthymidine":9862,"Ġkapseal":9863,"523":9864,"Ġ1876":9865,"Ġ1418":9866,"Ġ1578":9867,"Ġ1155":9868,"Ġunder":9869,"coma":9870,"Ġforce":9871,"iodine":9872,"92410":9873,"3490":9874,"zidovudine":9875,"99673":9876,"genteal":9877,"Ġparasympathomimetic":9878,"Ġacetabulum":9879,"5781":9880,"oden":9881,"Ġbodi":9882,"alone":9883,"Ġmtr":9884,"ivolol":9885,"Ġ1679":9886,"aminidase":9887,"Ġ1479":9888,"03011":9889,"Ġcheck":9890,"ethanec":9891,"igy":9892,"iberate":9893,"Ġnebivolol":9894,"Ġabnormality":9895,"syringe":9896,"Ġsmoothies":9897,"deliberate":9898,"presyncope":9899,"Ġneuraminidase":9900,"Ġbodily":9901,"846":9902,"citr":9903,"zenpep":9904,"Ġbethanec":9905,"Ġ1302":9906,"Ġ1503":9907,"Ġ1547":9908,"25531":9909,"itrol":9910,"suicidal":9911,"Ġpostoperative":9912,"Ġpleur":9913,"33819":9914,"Ġdeliver":9915,"82868":9916,"Ġassoc":9917,"peg":9918,"Ġbethanechol":9919,"Ġhalf":9920,"ely":9921,"Ġ1525":9922,"Ġaranesp":9923,"Ġ1949":9924,"1550":9925,"Ġdislo":9926,"Ġprograf":9927,"neupogen":9928,"Ġquatern":9929,"Ġobt":9930,"verbal":9931,"Ġhypovol":9932,"8448":9933,"Ġqvar":9934,"Ġphoslo":9935,"Ġrequesting":9936,"Ġbrinzolamide":9937,"Ġdelivery":9938,"Ġquaternary":9939,"316":9940,"404":9941,"868":9942,"bri":9943,"la":9944,"Ġrestr":9945,"Ġ1309":9946,"ioth":9947,"Ġ1156":9948,"Ġ1157":9949,"Ġ1713":9950,"axalone":9951,"Ġbenzath":9952,"Ġofloxacin":9953,"Ġmetaxalone":9954,"tensive":9955,"Ġintartic":9956,"Ġlipop":9957,"Ġdistension":9958,"Ġoxygen":9959,"utegravir":9960,"Ġanusol":9961,"Ġstrepto":9962,"Ġriding":9963,"Ġbenzathine":9964,"bif":9965,"Ġpovidone":9966,"lori":9967,"0064":9968,"Ġdol":9969,"Ġdofetil":9970,"10649":9971,"Ġ1804":9972,"Ġ1219":9973,"Ġ1306":9974,"Ġcombigan":9975,"Ġring":9976,"olytely":9977,"Ġpolys":9978,"Ġprur":9979,"Ġ+.":9980,"7873":9981,"iaspan":9982,"Ġmtrcy":9983,"Ġrestraint":9984,"Ġdofetilide":9985,"616":9986,"723":9987,"post":9988,"Ġaud":9989,"ordial":9990,"Ġ1848":9991,"cob":9992,"Ġgo":9993,"99889":9994,"Ġpenis":9995,"noncardiac":9996,"Ġinterstitial":9997,"orcycle":9998,"prod":9999,"Ġprescrip":10000,"Ġprescript":10001,"Ġprecordial":10002,"Ġmotorcycle":10003,"depressive":10004,"324":10005,"gia":10006,"Ġsia":10007,"Ġ1655":10008,"Ġ1816":10009,"Ġ1847":10010,"Ġ1055":10011,"Ġ1209":10012,"Ġ1218":10013,"Ġ1708":10014,"Ġ1727":10015,"Ġlomotil":10016,"Ġxtra":10017,"Ġsprintec":10018,"rinone":10019,"androgel":10020,"997":10021,"Ġpuer":10022,"Ġmalar":10023,"20280":10024,"truetrack":10025,"vomiting":10026,"Ġlipopeptide":10027,"Ġauditory":10028,"xr":10029,"yphen":10030,"Ġah":10031,"Ġatax":10032,"astat":10033,"Ġtrihex":10034,"Ġ1735":10035,"Ġ1768":10036,"Ġ1996":10037,"arynx":10038,"illa":10039,"864":10040,"8600":10041,"9342":10042,"61412":10043,"82525":10044,"rodantin":10045,"trileptal":10046,"glucosidase":10047,"Ġprescription":10048,"yphenidyl":10049,"Ġtrihexyphenidyl":10050,"646":10051,"809":10052,"line":10053,"tur":10054,"Ġdut":10055,"stones":10056,"Ġ1802":10057,"Ġ1028":10058,"Ġ1048":10059,"Ġ1257":10060,"estring":10061,"Ġdiscomfort":10062,"butamine":10063,"Ġmodulator":10064,"Ġdeficiency":10065,"Ġendocet":10066,"Ġdobutamine":10067,"Ġprosthetic":10068,"Ġtrimal":10069,"99674":10070,"Ġfindings":10071,"Ġpilonidal":10072,"Ġdutasteride":10073,"7080":10074,"fever":10075,"sod":10076,"ivert":10077,"Ġnear":10078,"0231":10079,"Ġ1987":10080,"utamide":10081,"Ġsuccinyl":10082,"Ġnitroimidazole":10083,"ubic":10084,"691":10085,"662":10086,"774":10087,"Ġparox":10088,"33818":10089,"Ġpowered":10090,"Ġobtain":10091,"Ġstreptococcal":10092,"356":10093,"8783":10094,"cranberry":10095,"resistant":10096,"Ġtight":10097,"Ġfresh":10098,"Ġ1211":10099,"Ġgin":10100,"Ġ1325":10101,"Ġ1535":10102,"Ġ1759":10103,"Ġinsuln":10104,"ifene":10105,"7813":10106,"Ġinterleukin":10107,"sulf":10108,"Ġpenicillinase":10109,"Ġimmunomodulator":10110,"72885":10111,"boulardii":10112,"Ġfamciclovir":10113,"nyamyc":10114,"prodigy":10115,"757":10116,"bor":10117,"asmin":10118,"requip":10119,"Ġmultic":10120,"Ġacrom":10121,"Ġ1110":10122,"37991":10123,"896":10124,"loxifene":10125,"Ġraloxifene":10126,"Ġperi":10127,"Ġevista":10128,"Ġdolutegravir":10129,"Ġsuccinylcholine":10130,"800":10131,"9060":10132,"petrol":10133,"Ġbentyl":10134,"Ġcult":10135,"orth":10136,"Ġ1606":10137,"Ġ1508":10138,"Ġ1710":10139,"Ġantidepressants":10140,"5431":10141,"uvigil":10142,"robitussin":10143,"8024":10144,"Ġmaxillary":10145,"01111":10146,"Ġlupron":10147,"Ġschizoaffective":10148,"Ġstomach":10149,"5569":10150,"last":10151,"mannitol":10152,"inacea":10153,"Ġsaw":10154,"loric":10155,"Ġ1612":10156,"Ġ1603":10157,"Ġ1619":10158,"Ġ1615":10159,"Ġ1011":10160,"Ġ1323":10161,"Ġ1149":10162,"Ġ1715":10163,"Ġ1776":10164,"Ġsuprap":10165,"neuropathy":10166,"4701":10167,"intstones":10168,"ithromycin":10169,"acidoph":10170,"9201":10171,"9423":10172,"Ġtransderm":10173,"Ġcatheterization":10174,"Ġstern":10175,"Ġlesser":10176,"85200":10177,"glucotrol":10178,"Ġtrnsp":10179,"Ġsuprapubic":10180,"350":10181,"524":10182,"byst":10183,"gase":10184,"lialda":10185,"rg":10186,"we":10187,"ery":10188,"Ġ1079":10189,"Ġ1224":10190,"Ġ1709":10191,"Ġ1976":10192,"Ġtablet":10193,"tapen":10194,"uses":10195,"Ġertapen":10196,"30550":10197,"82021":10198,"maxillary":10199,"Ġbronchus":10200,"myfortic":10201,"Ġclarithromycin":10202,"Ġmulticlix":10203,"bystolic":10204,"gaseous":10205,"Ġertapenem":10206,"61012":10207,"pax":10208,"wor":10209,"Ġting":10210,"rotal":10211,"Ġ1618":10212,"Ġ1668":10213,"Ġlioth":10214,"copyr":10215,"acap":10216,"Ġ1259":10217,"Ġ1346":10218,"0501":10219,"Ġ1179":10220,"Ġviactiv":10221,"Ġ1777":10222,"Ġ1907":10223,"Ġ1935":10224,"2681":10225,"78499":10226,"Ġspace":10227,"rolate":10228,"Ġglycopyr":10229,"9205":10230,"Ġbudeprion":10231,"80709":10232,"metrogel":10233,"Ġliothyronine":10234,"Ġglycopyrrolate":10235,"3184":10236,"913":10237,"dif":10238,"vid":10239,"Ġscap":10240,"Ġbrace":10241,"Ġti":10242,"Ġtyrosine":10243,"arom":10244,"anex":10245,"Ġ1624":10246,"Ġ1839":10247,"Ġ1017":10248,"Ġunw":10249,"Ġ1908":10250,"Ġmetabol":10251,"Ġorchitis":10252,"Ġneuropathy":10253,"3510":10254,"Ġfluphenazine":10255,"790":10256,"oquin":10257,"68102":10258,"Ġpatanol":10259,"Ġscrotal":10260,"Ġdifficile":10261,"Ġfield":10262,"Ġrupture":10263,"Ġstudy":10264,"229":10265,"327":10266,"613":10267,"Ġumb":10268,"ason":10269,"onavir":10270,"Ġsac":10271,"enta":10272,"Ġ1897":10273,"Ġ1310":10274,"Ġ1403":10275,"Ġ1448":10276,"Ġlopin":10277,"29410":10278,"Ġ1189":10279,"Ġimidaz":10280,"Ġzomig":10281,"9951":10282,"ritonavir":10283,"30560":10284,"olinamines":10285,"79602":10286,"Ġsequel":10287,"Ġbehavi":10288,"marinol":10289,"Ġhypovolemia":10290,"Ġfreshers":10291,"Ġcultures":10292,"oquinolinamines":10293,"Ġlopinavir":10294,"Ġimidazoquinolinamines":10295,"801":10296,"tomycin":10297,"Ġmylanta":10298,"aryl":10299,"roal":10300,"Ġlast":10301,"Ġlle":10302,"Ġ1024":10303,"Ġ1023":10304,"Ġ1147":10305,"chew":10306,"Ġ1749":10307,"29680":10308,"Ġritu":10309,"vega":10310,"8026":10311,"Ġdaptomycin":10312,"premix":10313,"Ġmetabolic":10314,"Ġumbil":10315,"Ġbehaviroal":10316,"314":10317,"716":10318,"834":10319,"jantoven":10320,"reglan":10321,"Ġwood":10322,"Ġtpa":10323,"oric":10324,"anical":10325,"Ġ1868":10326,"Ġ1216":10327,"0340":10328,"38010":10329,"Ġextern":10330,"self":10331,"pramoxine":10332,"694":10333,"dexamethasone":10334,"Ġrefresh":10335,"Ġtrimalleolar":10336,"ortho":10337,"Ġtingling":10338,"619":10339,"643":10340,"Ġparent":10341,"Ġbark":10342,"Ġcmb":10343,"sequ":10344,"Ġ1637":10345,"aclu":10346,"Ġ1311":10347,"elchol":10348,"Ġ1533":10349,"Ġ1145":10350,"Ġ1919":10351,"Ġ1955":10352,"ilm":10353,"Ġproct":10354,"4619":10355,"ostix":10356,"5224":10357,"Ġazopt":10358,"Ġflatul":10359,"zovi":10360,"665":10361,"Ġcrushing":10362,"citrucel":10363,"Ġpruritus":10364,"working":10365,"Ġparenteral":10366,"aclude":10367,"zovirax":10368,"515":10369,"7189":10370,"jak":10371,"inta":10372,"Ġbril":10373,"Ġbeat":10374,"eruct":10375,"Ġinst":10376,"rix":10377,"Ġ1045":10378,"Ġ1217":10379,"0240":10380,"Ġ1588":10381,"Ġ1968":10382,"7856":10383,"5416":10384,"Ġphlebitis":10385,"Ġperiph":10386,"9233":10387,"avicular":10388,"Ġpericarditis":10389,"ollen":10390,"Ġataxia":10391,"Ġbrilinta":10392,"eructat":10393,"908":10394,"nephro":10395,"ozone":10396,"psych":10397,"Ġbad":10398,"stocking":10399,"Ġreclast":10400,"arum":10401,"Ġ1033":10402,"Ġgamma":10403,"Ġ1135":10404,"Ġ1753":10405,"2749":10406,"aps":10407,"afed":10408,"ower":10409,"Ġjanus":10410,"7866":10411,"phospha":10412,"levaquin":10413,"862":10414,"78720":10415,"6201":10416,"Ġgravid":10417,"Ġscab":10418,"Ġdecreased":10419,"56942":10420,"Ġconcentrated":10421,"Ġunstead":10422,"eloda":10423,"Ġinfectious":10424,"Ġgravidarum":10425,"310":10426,"528":10427,"835":10428,"fungal":10429,"zia":10430,"zop":10431,"edema":10432,"Ġbit":10433,"Ġsystane":10434,"Ġ1669":10435,"Ġoff":10436,"provigil":10437,"medrol":10438,"Ġclom":10439,"sennosides":10440,"Ġeszop":10441,"30520":10442,"9600":10443,"Ġscale":10444,"Ġmaxstr":10445,"kgo":10446,"iclone":10447,"Ġpnctr":10448,"Ġaxilla":10449,"loadenitis":10450,"Ġsialoadenitis":10451,"Ġunsteadiness":10452,"Ġeszopiclone":10453,"448":10454,"ba":10455,"bayer":10456,"Ġalo":10457,"Ġsoc":10458,"lovaza":10459,"Ġdipotassium":10460,"sess":10461,"Ġacam":10462,"Ġacarb":10463,"razep":10464,"Ġ1457":10465,"uras":10466,"Ġ1716":10467,"Ġalg":10468,"3682":10469,"Ġclorazep":10470,"izoral":10471,"8110":10472,"Ġsubsequ":10473,"9601":10474,"9654":10475,"1121":10476,"perdrink":10477,"5381":10478,"azopt":10479,"trimin":10480,"prosate":10481,"acapone":10482,"Ġwoodworking":10483,"Ġacamprosate":10484,"Ġacarbose":10485,"Ġclorazepate":10486,"Ġsubsequent":10487,"be":10488,"vas":10489,"Ġ1643":10490,"Ġluras":10491,"Ġ1888":10492,"Ġ1866":10493,"Ġ1078":10494,"Ġ1379":10495,"Ġ1787":10496,"Ġ1967":10497,"atinib":10498,"phenad":10499,"Ġoxazol":10500,"Ġspectravite":10501,"Ġepivir":10502,"mous":10503,"Ġheartburn":10504,"8409":10505,"Ġnoninflammatory":10506,"Ġrabeprazole":10507,"03211":10508,"Ġcirculatory":10509,"Ġlurasidone":10510,"Ġoxazolidinone":10511,"831":10512,"9064":10513,"Ġrac":10514,"olatum":10515,"rozerem":10516,"Ġlens":10517,"Ġ1857":10518,"Ġ1748":10519,"Ġ1743":10520,"imzia":10521,"hydrolatum":10522,"chlorthalidone":10523,"avapro":10524,"Ġ+)":10525,"9595":10526,"Ġendothe":10527,"8136":10528,"Ġhrt":10529,"359":10530,"407":10531,"733":10532,"iagen":10533,"keflex":10534,"0076":10535,"Ġditropan":10536,"etto":10537,"Ġ1136":10538,"Ġ1944":10539,"Ġ1953":10540,"890":10541,"oxylamine":10542,"amila":10543,"Ġpersonality":10544,"92320":10545,"Ġadhesive":10546,"Ġpleurodynia":10547,"drisdol":10548,"rm":10549,"recl":10550,"Ġbacterial":10551,"Ġcop":10552,"aderm":10553,"pidra":10554,"apamide":10555,"Ġhyperosmolality":10556,"Ġ1069":10557,"Ġperip":10558,"caltrol":10559,"Ġranexa":10560,"Ġlactaid":10561,"Ġvalu":10562,"Ġoccup":10563,"antihyper":10564,"Ġsequnt":10565,"ickening":10566,"Ġdelusional":10567,"Ġsolutions":10568,"Ġcandidiasis":10569,"Ġaaa":10570,"Ġpalmetto":10571,"Ġpuerper":10572,"205":10573,"9190":10574,"xy":10575,"Ġect":10576,"Ġslow":10577,"Ġbites":10578,"Ġtessalon":10579,"omusc":10580,"rium":10581,"Ġgre":10582,"Ġ1711":10583,"Ġ1757":10584,"Ġplant":10585,"Ġpenile":10586,"avert":10587,"95911":10588,"Ġnifedical":10589,"Ġindapamide":10590,"Ġneuromusc":10591,"Ġhazel":10592,"98890":10593,"Ġmeningitis":10594,"Ġtightness":10595,"reclast":10596,"Ġneuromuscular":10597,"nyst":10598,"aggre":10599,"Ġ1859":10600,"uria":10601,"rena":10602,"elling":10603,"iga":10604,"Ġsprink":10605,"Ġimuran":10606,"Ġswollen":10607,"Ġmega":10608,"6282":10609,"62838":10610,"Ġregions":10611,"Ġprocess":10612,"11621":10613,"zonegran":10614,"Ġprecision":10615,"Ġfourth":10616,"Ġaftercare":10617,"Ġumbilical":10618,"nystop":10619,"aggrenox":10620,"Ġsprinkles":10621,"578":10622,"811":10623,"hosp":10624,"nec":10625,"ochol":10626,"valcyte":10627,"zaditor":10628,"inocort":10629,"Ġbask":10630,"Ġmist":10631,"anaf":10632,"etball":10633,"Ġ1877":10634,"Ġ1034":10635,"Ġ1446":10636,"Ġ1778":10637,"ucort":10638,"activ":10639,"Ġhydroquin":10640,"hea":10641,"Ġinfusion":10642,"Ġperf":10643,"curonium":10644,"Ġrocuronium":10645,"Ġformation":10646,"95909":10647,"Ġappl":10648,"9503":10649,"Ġsinuses":10650,"20212":10651,"dextromethorphan":10652,"Ġdrainage":10653,"Ġoccupant":10654,"Ġbasketball":10655,"Ġhydroquinone":10656,"216":10657,"645":10658,"6884":10659,"914":10660,"des":10661,"dopa":10662,"oice":10663,"edochol":10664,"Ġbical":10665,"1988":10666,"Ġprobl":10667,"imm":10668,"Ġhyperosm":10669,"Ġstimulating":10670,"arden":10671,"670":10672,"6759":10673,"Ġelsw":10674,"Ġclassd":10675,"Ġviread":10676,"Ġroxicet":10677,"Ġalginate":10678,"activated":10679,"Ġbicalutamide":10680,"Ġelswhr":10681,"413":10682,"ux":10683,"inj":10684,"Ġfoc":10685,"Ġ1635":10686,"Ġassess":10687,"Ġstone":10688,"riso":10689,"Ġfluores":10690,"792":10691,"Ġbipol":10692,"cein":10693,"7721":10694,"1120":10695,"87320":10696,"Ġoverload":10697,"board":10698,"thermia":10699,"Ġfluorescein":10700,"335":10701,"406":10702,"hour":10703,"via":10704,"Ġpath":10705,"Ġcong":10706,"senex":10707,"acel":10708,"acetam":10709,"25060":10710,"Ġcarnitine":10711,"4987":10712,"phazoline":10713,"Ġpotency":10714,"flav":10715,"Ġ1577":10716,"Ġelastic":10717,"calci":10718,"duoneb":10719,"Ġpentasa":10720,"cleocin":10721,"corgard":10722,"6089":10723,"9140":10724,"epis":10725,"viv":10726,"Ġsomat":10727,"Ġfollow":10728,"Ġneph":10729,"Ġ1244":10730,"Ġ221":10731,"estin":10732,"Ġ1467":10733,"plegia":10734,"761":10735,"const":10736,"traum":10737,"Ġavodart":10738,"polyv":10739,"Ġ143949":10740,"Ġinterphaln":10741,"Ġproblem":10742,"511":10743,"fract":10744,"Ġinderal":10745,"Ġ1818":10746,"Ġnormal":10747,"Ġcalcane":10748,"toxins":10749,"68100":10750,"87344":10751,"Ġtools":10752,"testosterone":10753,"broken":10754,"weak":10755,"episodic":10756,"212":10757,"559":10758,"itness":10759,"esity":10760,"ana":10761,"Ġ1555":10762,"Ġ1767":10763,"abil":10764,"atussin":10765,"4329":10766,"3405":10767,"8844":10768,"Ġimiqu":10769,"891":10770,"Ġhypothermia":10771,"771":10772,"764":10773,"Ġribavir":10774,"bisac":10775,"rosth":10776,"99676":10777,"Ġvulv":10778,"Ġaloe":10779,"Ġperiprosth":10780,"Ġimiquimod":10781,"Ġribavirin":10782,"apl":10783,"bypass":10784,"iance":10785,"Ġafib":10786,"ollis":10787,"Ġss":10788,"Ġtortic":10789,"ordination":10790,"Ġ1667":10791,"Ġyaz":10792,"Ġonfi":10793,"Ġcoordination":10794,"copal":10795,"ellect":10796,"897":10797,"Ġintellect":10798,"865":10799,"30001":10800,"Ġanastom":10801,"Ġmechanical":10802,"Ġcarotid":10803,"Ġsynovial":10804,"estinon":10805,"fractured":10806,"itnessed":10807,"Ġtorticollis":10808,"Ġintellectual":10809,"323":10810,"epididymit":10811,"jenta":10812,"rs":10813,"ura":10814,"zar":10815,"thor":10816,"Ġbef":10817,"Ġ1554":10818,"leolus":10819,"Ġsali":10820,"Ġcartia":10821,"Ġkal":10822,"histamine":10823,"4414":10824,"Ġ1067":10825,"ave":10826,"87363":10827,"Ġmalleolus":10828,"863":10829,"9202":10830,"Ġposttraum":10831,"antihistamine":10832,"Ġtuberc":10833,"prx":10834,"due":10835,"4241":10836,"60490":10837,"Ġgrft":10838,"Ġectopic":10839,"Ġanastomos":10840,"302":10841,"513":10842,"648":10843,"7140":10844,"mac":10845,"nasacort":10846,"pet":10847,"Ġbat":10848,"Ġbord":10849,"Ġfer":10850,"plate":10851,"Ġ1301":10852,"ablex":10853,"Ġclozaril":10854,"phys":10855,"cardura":10856,"Ġpropafen":10857,"Ġdrum":10858,"effient":10859,"concerta":10860,"6110":10861,"asthenia":10862,"85300":10863,"Ġsmart":10864,"84200":10865,"Ġpolysaccharide":10866,"Ġvalues":10867,"Ġkaletra":10868,"Ġpropafenone":10869,"447":10870,"aq":10871,"bifid":10872,"djenta":10873,"hmg":10874,"latuda":10875,"ined":10876,"antivert":10877,"Ġunil":10878,"Ġdisabil":10879,"Ġsulfa":10880,"38870":10881,"42090":10882,"dig":10883,"Ġtradjenta":10884,"78630":10885,"sinemet":10886,"Ġabnormalities":10887,"Ġmyasthenia":10888,"Ġmob":10889,"Ġabsorp":10890,"Ġcrnt":10891,"92300":10892,"Ġneurotoxins":10893,"Ġmilrinone":10894,"Ġhomicidal":10895,"Ġsternum":10896,"Ġmetabolism":10897,"anaflex":10898,"Ġsomatostatic":10899,"Ġdisabilities":10900,"0121":10901,"537":10902,"603":10903,"bc":10904,"gaviscon":10905,"lact":10906,"thria":10907,"Ġ1885":10908,"Ġ1035":10909,"Ġ1401":10910,"Ġchair":10911,"Ġcardura":10912,"Ġ1119":10913,"Ġjose":10914,"benzoyl":10915,"sarthria":10916,"nonveno":10917,"verteb":10918,"Ġinterverteb":10919,"80211":10920,"Ġrapamune":10921,"Ġjoseph":10922,"nonvenomous":10923,"Ġintervertebral":10924,"bs":10925,"fetamine":10926,"asp":10927,"Ġtussin":10928,"Ġ1687":10929,"amini":10930,"Ġ1178":10931,"amfetamine":10932,"ears":10933,"triva":10934,"Ġiodine":10935,"ypes":10936,"eva":10937,"5700":10938,"Ġintelence":10939,"9957":10940,"genic":10941,"iphex":10942,"Ġglucerna":10943,"Ġbetimol":10944,"Ġgravis":10945,"dexamfetamine":10946,"Ġligaments":10947,"29810":10948,"Ġoriginal":10949,"Ġthreatened":10950,"416":10951,"446":10952,"713":10953,"8082":10954,"81000":10955,"fill":10956,"ka":10957,"odafinil":10958,"Ġculturelle":10959,"Ġtag":10960,"Ġ1144":10961,"iflu":10962,"Ġunifine":10963,"Ġroll":10964,"Ġnew":10965,"melo":10966,"Ġlisdexamfetamine":10967,"Ġarmodafinil":10968,"Ġultramini":10969,"Ġindirect":10970,"92401":10971,"Ġoveractive":10972,"Ġmoisturizer":10973,"82300":10974,"child":10975,"Ġchelate":10976,"Ġpuerperium":10977,"Ġssri":10978,"225":10979,"505":10980,"bud":10981,"iated":10982,"oam":10983,"asorb":10984,"orta":10985,"Ġlun":10986,"coreg":10987,"zolid":10988,"Ġrin":10989,"Ġgenit":10990,"3333":10991,"anoate":10992,"7910":10993,"inderal":10994,"gency":10995,"Ġdry":10996,"Ġurgency":10997,"Ġaviane":10998,"29640":10999,"dextroamph":11000,"cortef":11001,"Ġscapula":11002,")/":11003,"328":11004,"445":11005,"769":11006,"8189":11007,"aking":11008,"thigh":11009,"Ġniaspan":11010,"Ġ1233":11011,"Ġ1754":11012,"otox":11013,"Ġheat":11014,"Ġtetra":11015,"Ġ1399":11016,"99812":11017,"Ġnaphazoline":11018,"Ġtachycar":11019,"92420":11020,"30981":11021,"Ġlinezolid":11022,"Ġatrioventricular":11023,"Ġrestraints":11024,"budeprion":11025,"378":11026,"8260":11027,"east":11028,"lrg":11029,"nonin":11030,"zomig":11031,"Ġaorta":11032,"olum":11033,"Ġtension":11034,"Ġniddm":11035,"Ġ1253":11036,"2851":11037,"2971":11038,"Ġexamin":11039,"885":11040,"Ġdysarthria":11041,"Ġgland":11042,"super":11043,"cyx":11044,"Ġdecanoate":11045,"Ġinsufficiency":11046,"Ġenlargement":11047,"antihypertensive":11048,"Ġhyperosmolar":11049,"melog":11050,"Ġrinse":11051,"noninflammatory":11052,"412":11053,"40390":11054,"804":11055,"849":11056,"aic":11057,"eolum":11058,"spi":11059,"sbs":11060,"zn":11061,"Ġfr":11062,"Ġhord":11063,"Ġ1611":11064,"ume":11065,"Ġ1444":11066,"Ġyeast":11067,"18128":11068,"Ġsulind":11069,"5011":11070,"ithroid":11071,"urox":11072,"unc":11073,"Ġspon":11074,"888":11075,"7931":11076,"895":11077,"rolet":11078,"Ġdoxerc":11079,"96501":11080,"80212":11081,"4365":11082,"5184":11083,"72888":11084,"alignant":11085,"7031":11086,"38610":11087,"Ġgangr":11088,"orrhea":11089,"Ġcramp":11090,"Ġborder":11091,"Ġhordeolum":11092,"Ġsulindac":11093,"Ġdoxercalciferol":11094,"3129":11095,"nac":11096,"Ġvoric":11097,"Ġvarden":11098,"Ġ1678":11099,"Ġgib":11100,"dipyridamole":11101,"Ġhumid":11102,"Ġ1469":11103,"baraclude":11104,"Ġvaginitis":11105,"Ġantiperspi":11106,"Ġconduct":11107,"Ġmicrogestin":11108,"nicorette":11109,"Ġpremalignant":11110,"flavon":11111,"Ġlunesta":11112,"Ġvoriconazole":11113,"Ġvardenafil":11114,"Ġantiperspirants":11115,"uoden":11116,"olizumab":11117,"edronate":11118,"Ġret":11119,"Ġtherm":11120,"Ġ1610":11121,"Ġ1501":11122,"stick":11123,"Ġ1755":11124,"ocream":11125,"4739":11126,"Ġrisedronate":11127,"775":11128,"Ġdoes":11129,"Ġingest":11130,"Ġportal":11131,"true":11132,"flexeril":11133,"roduoden":11134,"postpart":11135,"bifido":11136,"Ġexamination":11137,"211":11138,"vyvanse":11139,"xd":11140,"atory":11141,"alep":11142,"row":11143,"Ġ1442":11144,"iocl":11145,"Ġ1744":11146,"Ġ1933":11147,"glide":11148,"5501":11149,"Ġsyncopal":11150,"Ġzov":11151,"Ġzalep":11152,"aze":11153,"zyme":11154,"Ġpedic":11155,"Ġventral":11156,"68110":11157,"Ġacromiocl":11158,"polyvin":11159,"Ġzaleplon":11160,"207":11161,"337":11162,"759":11163,"8289":11164,"nausea":11165,"Ġaq":11166,"ora":11167,"Ġmoxif":11168,"Ġfur":11169,"Ġ1811":11170,"ilect":11171,"Ġsui":11172,"Ġblist":11173,"Ġ1129":11174,"8810":11175,"Ġpenfill":11176,"Ġexten":11177,"Ġvagifem":11178,"7647":11179,"maxalt":11180,"Ġazelaic":11181,"Ġsupports":11182,"81500":11183,"ontitis":11184,"Ġperiodontitis":11185,"otropic":11186,"Ġtier":11187,"Ġmoxifloxacin":11188,"326":11189,"fac":11190,"wl":11191,"Ġfec":11192,"istiq":11193,"Ġ1653":11194,"Ġ1801":11195,"Ġ1883":11196,"eline":11197,"Ġbenzocaine":11198,"Ġpristiq":11199,"Ġ1587":11200,"71906":11201,"25532":11202,"Ġrequip":11203,"Ġmachines":11204,"Ġtransdermal":11205,"constulose":11206,"4781":11207,"651":11208,"856":11209,"kosyn":11210,"pork":11211,"Ġwbc":11212,"0003":11213,"erlac":11214,"alavert":11215,"adil":11216,"1140":11217,"0201":11218,"0219":11219,"Ġ1965":11220,"Ġmetrix":11221,"4802":11222,"5720":11223,"Ġneedlestick":11224,"ovag":11225,"restoril":11226,"963":11227,"81200":11228,"62830":11229,"53649":11230,"passenger":11231,"combivir":11232,"eye":11233,"rupt":11234,"gfr":11235,"Ġolecranon":11236,"206":11237,"318":11238,"437":11239,"504":11240,"736":11241,"gin":11242,"lump":11243,"less":11244,"ource":11245,"Ġbil":11246,"Ġdipyridamole":11247,"Ġoyster":11248,"peridine":11249,"Ġinr":11250,"Ġ1654":11251,"Ġlv":11252,"Ġ1810":11253,"adox":11254,"Ġ1478":11255,"Ġ1454":11256,"amox":11257,"Ġ223":11258,"Ġeucerin":11259,"Ġsalicylic":11260,"actos":11261,"Ġmetrogel":11262,"Ġpirox":11263,"ertility":11264,"Ġemphys":11265,"tikosyn":11266,"20211":11267,"Ġaqua":11268,"72210":11269,"Ġcalcaneus":11270,"Ġpiroxicam":11271,"226":11272,"3189":11273,"ding":11274,"vy":11275,"vsl":11276,"yloid":11277,"Ġia":11278,"anucort":11279,"1052":11280,"rigation":11281,"Ġgal":11282,"Ġ1443":11283,"07054":11284,"elm":11285,"Ġ1133":11286,"Ġ1934":11287,"2970":11288,"Ġnonrupt":11289,"5863":11290,"3804":11291,"Ġinfct":11292,"Ġfibrosis":11293,"Ġpropecia":11294,"6989":11295,"Ġirrigation":11296,"4090":11297,"3071":11298,"melatin":11299,"meladox":11300,"Ġenlarged":11301,"phenadrine":11302,"Ġ14394983":11303,"Ġvulvovag":11304,"Ġtachycard":11305,"Ġvulvovaginitis":11306,"8150":11307,"lucan":11308,"rl":11309,"tene":11310,"ys":11311,"asag":11312,"inery":11313,"ontal":11314,"Ġsymp":11315,"ection":11316,"Ġ1010":11317,"Ġ1047":11318,"elle":11319,"Ġ1553":11320,"Ġ1733":11321,"1330":11322,"Ġrasag":11323,"Ġthomb":11324,"Ġhypercalc":11325,"Ġorphenadrine":11326,"5768":11327,"Ġcholedochol":11328,"Ġ1369":11329,"Ġbicarbonat":11330,"rostomy":11331,"Ġpedal":11332,"Ġventric":11333,"80502":11334,"Ġcontinu":11335,"Ġmastodynia":11336,"Ġmachinery":11337,"Ġperiodontal":11338,"Ġpostconcussional":11339,"53550":11340,"diflucan":11341,"Ġemphysema":11342,"Ġrasagiline":11343,"Ġhypercalcemia":11344,"215":11345,"638":11346,"ha":11347,"tessalon":11348,"types":11349,"revers":11350,"onom":11351,"Ġsex":11352,"Ġfast":11353,"Ġ1410":11354,"Ġ1455":11355,"Ġ1153":11356,"Ġ224":11357,"Ġepididymit":11358,"Ġnonselective":11359,"892":11360,"893":11361,"Ġmidfoot":11362,"gastroduoden":11363,"777":11364,"Ġdicloxac":11365,"Ġmeperidine":11366,"Ġirrevers":11367,"Ġmao":11368,"kinase":11369,"Ġcitrucel":11370,"45342":11371,"micro":11372,"ketoacid":11373,"dextroamphet":11374,"Ġepididymitis":11375,"Ġdicloxacillin":11376,"Ġirreversible":11377,"amlactin":11378,"dok":11379,"pancre":11380,"yth":11381,"zestril":11382,"loba":11383,"Ġ1854":11384,"antid":11385,"antamine":11386,"Ġuloric":11387,"2920":11388,"Ġskate":11389,"Ġbiloba":11390,"Ġjar":11391,"induced":11392,"Ġpruritic":11393,"Ġendomet":11394,"8408":11395,"Ġvitre":11396,"Ġparanoia":11397,"hydrocortisone":11398,"Ġgalantamine":11399,"2189":11400,"336":11401,"403":11402,"405":11403,"547":11404,"dg":11405,"do":11406,"iperidone":11407,"lamivudine":11408,"wh":11409,"eros":11410,"Ġtm":11411,"any":11412,"Ġintens":11413,"hial":11414,"Ġ1043":11415,"Ġ1243":11416,"Ġ1433":11417,"eljan":11418,"Ġ1992":11419,"otec":11420,"7843":11421,"glycer":11422,"Ġpolym":11423,"Ġpaliperidone":11424,"Ġpepto":11425,"80702":11426,"5082":11427,"57450":11428,"Ġtwo":11429,"Ġcandidal":11430,"Ġginkgo":11431,"necon":11432,"Ġcholedocholithiasis":11433,"onomic":11434,"Ġskateboard":11435,"Ġvitreous":11436,"Ġintensol":11437,"eljanz":11438,"4254":11439,"517":11440,"839":11441,"930":11442,"bit":11443,"atrol":11444,"Ġpram":11445,"Ġpak":11446,"Ġfertility":11447,"Ġhic":11448,"Ġ1644":11449,"Ġ1453":11450,"Ġcomplera":11451,"Ġdiss":11452,"Ġcaries":11453,"3439":11454,"Ġxeljanz":11455,"664":11456,"Ġroot":11457,"Ġbyetta":11458,"5190":11459,"9694":11460,"Ġ16233333":11461,"47819":11462,"psychotropic":11463,"Ġcontinuing":11464,"9110":11465,"oyster":11466,"xeloda":11467,"atral":11468,"oro":11469,"Ġ1201":11470,"Ġ1911":11471,"Ġnoncompl":11472,"78552":11473,"ensia":11474,"rachial":11475,"pred":11476,"874":11477,"levitra":11478,"pepto":11479,"Ġmictur":11480,"Ġ___,":11481,"Ġcreamy":11482,"dyazide":11483,"weakness":11484,"Ġtmj":11485,"Ġmicturition":11486,"317":11487,"601":11488,"657":11489,"858":11490,"9200":11491,"9500":11492,"gesic":11493,"salate":11494,"redn":11495,"Ġsere":11496,"Ġspl":11497,"Ġsix":11498,"Ġful":11499,"Ġfond":11500,"Ġvs":11501,"enema":11502,"Ġliqu":11503,"Ġ18112":11504,"orsyth":11505,"Ġgun":11506,"Ġ1334":11507,"cher":11508,"Ġsalsalate":11509,"nexa":11510,"5225":11511,"protop":11512,"Ġ1089":11513,"Ġ1097":11514,"Ġvasc":11515,"sues":11516,"Ġsmoke":11517,"Ġmultikinase":11518,"770":11519,"aparinux":11520,"25521":11521,"Ġcurrent":11522,"Ġautonomic":11523,"psyllium":11524,"Ġassociated":11525,"Ġexternum":11526,"Ġserevent":11527,"Ġfondaparinux":11528,"orsythia":11529,"protopic":11530,"516":11531,"9351":11532,"lam":11533,"nith":11534,"Ġwrs":11535,"Ġpur":11536,"0031":11537,"Ġcert":11538,"Ġantep":11539,"Ġtriume":11540,"ndl":11541,"8920":11542,"8981":11543,"Ġflav":11544,"877":11545,"72142":11546,"debrox":11547,"phoslo":11548,"99832":11549,"29012":11550,"sulfur":11551,"Ġnoncompliance":11552,"nithine":11553,"Ġantepart":11554,"Ġtriumeq":11555,"527":11556,"533":11557,"cep":11558,"hnd":11559,"pal":11560,"venlafaxine":11561,"Ġelet":11562,"atabs":11563,"Ġbrachial":11564,"emax":11565,"Ġmdi":11566,"Ġfight":11567,"arim":11568,"Ġ1355":11569,"chronic":11570,"otulin":11571,"Ġnoncl":11572,"ondylar":11573,"Ġocella":11574,"Ġgouty":11575,"56969":11576,"Ġdesvenlafaxine":11577,"Ġnervous":11578,"Ġsequela":11579,"Ġtags":11580,"Ġpramoxine":11581,"arimidex":11582,"otulinum":11583,"Ġnonclsn":11584,"mixed":11585,"ximab":11586,"onpas":11587,"armed":11588,"ecor":11589,"Ġ1278":11590,"Ġ1143":11591,"Ġunarmed":11592,"Ġlovaza":11593,"Ġegfr":11594,"torin":11595,"5711":11596,"Ġspecific":11597,"Ġpenet":11598,"Ġepzicom":11599,"Ġbicondylar":11600,"drug":11601,"Ġbrawl":11602,"geri":11603,"79641":11604,"benec":11605,"prandin":11606,"Ġmenstrual":11607,"Ġrituximab":11608,"Ġnephrostomy":11609,"Ġeletriptan":11610,"3102":11611,"425":11612,"700":11613,"829":11614,"9000":11615,"9282":11616,"zal":11617,"Ġmyr":11618,"arnitine":11619,"Ġadmn":11620,"istry":11621,"1020":11622,"usopt":11623,"plx":11624,"Ġgolytely":11625,"Ġstump":11626,"abotulinum":11627,"1991":11628,"ipress":11629,"45341":11630,"5412":11631,"protein":11632,"Ġzone":11633,"990":11634,"7248":11635,"772":11636,"8505":11637,"sule":11638,"Ġglucotrol":11639,"Ġdesox":11640,"sorbitol":11641,"Ġboost":11642,"Ġbactroban":11643,"6692":11644,"Ġlevocarnitine":11645,"Ġchemistry":11646,"Ġingestion":11647,"Ġblister":11648,"ecoria":11649,"abotulinumtox":11650,"30391":11651,"658":11652,"634":11653,"690":11654,"718":11655,"ourinary":11656,"sign":11657,"znox":11658,"Ġ1843":11659,"urm":11660,"trum":11661,"1410":11662,"phenol":11663,"liqu":11664,"Ġcombined":11665,"Ġkrill":11666,"ibuprofen":11667,"Ġ1299":11668,"avella":11669,"9204":11670,"Ġprosthesis":11671,"Ġpegol":11672,"Ġoptive":11673,"boost":11674,"oya":11675,"Ġflowsign":11676,"Ġbasic":11677,"Ġsustiva":11678,"Ġgenitourinary":11679,"Ġcertolizumab":11680,"Ġflowsignal":11681,"827":11682,"952":11683,"mod":11684,"sil":11685,"ts":11686,"1043":11687,"adroxil":11688,"acerol":11689,"1290":11690,"Ġnavicular":11691,"Ġ1255":11692,"Ġ1734":11693,"Ġ222":11694,"Ġstyloid":11695,"2512":11696,"spectrum":11697,"Ġblocked":11698,"irregular":11699,"cocin":11700,"Ġcefadroxil":11701,"880":11702,"Ġdegen":11703,"64003":11704,"72141":11705,"29620":11706,"61411":11707,"Ġmalfunc":11708,"Ġ10577647":11709,"Ġincidental":11710,"Ġzonegran":11711,"acerola":11712,"711":11713,"ges":11714,"tiga":11715,"Ġbe":11716,"0011":11717,"erry":11718,"Ġcev":11719,"Ġfive":11720,"Ġfilm":11721,"omatic":11722,"epinephrine":11723,"Ġ1853":11724,"Ġantiplate":11725,"Ġ1335":11726,"antithrom":11727,"amaryl":11728,"otro":11729,"1920":11730,"Ġambulating":11731,"4582":11732,"5959":11733,"Ġ1389":11734,"Ġdexilant":11735,"Ġascensia":11736,"Ġpropylene":11737,"avi":11738,"Ġhearing":11739,"Ġguar":11740,"Ġ1797":11741,"763":11742,"Ġtachyp":11743,"Ġincision":11744,"64093":11745,"81305":11746,"swelling":11747,"99679":11748,"Ġpills":11749,"proctozone":11750,"Ġzytiga":11751,"petrolatum":11752,"macrodantin":11753,"antithromb":11754,"cimzia":11755,"hecoria":11756,"nasal":11757,"voya":11758,"Ġric":11759,"Ġatom":11760,"Ġretro":11761,"Ġhor":11762,"isom":11763,"Ġacton":11764,"Ġmedial":11765,"Ġ1852":11766,"Ġ1053":11767,"Ġ1333":11768,"Ġ1422":11769,"imeline":11770,"Ġselect":11771,"apriso":11772,"Ġgenvoya":11773,"994":11774,"avodart":11775,"aviane":11776,"coside":11777,"61210":11778,"methotrexate":11779,"Ġlozenges":11780,"Ġmenstruation":11781,"Ġpurp":11782,"Ġcevimeline":11783,"Ġatomoxetine":11784,"Ġactonel":11785,"7001":11786,"819":11787,"conazole":11788,"esev":11789,"ler":11790,"ni":11791,"nak":11792,"nuvigil":11793,"Ġbolus":11794,"Ġdifl":11795,"perc":11796,"etal":11797,"Ġ1601":11798,"Ġ1634":11799,"Ġ1009":11800,"Ġ1354":11801,"uritis":11802,"25462":11803,"Ġprocardia":11804,"Ġorbit":11805,"Ġsun":11806,"exelon":11807,"Ġshower":11808,"unn":11809,"Ġtru":11810,"7981":11811,"Ġcolesev":11812,"78639":11813,"ovonex":11814,"Ġpersist":11815,"83098":11816,"Ġnorco":11817,"ique":11818,"Ġapical":11819,"Ġcysts":11820,"61213":11821,"02211":11822,"Ġcepastat":11823,"81601":11824,"microlet":11825,"03012":11826,"Ġsoccer":11827,"glycern":11828,"Ġflavor":11829,"Ġtachypnea":11830,"Ġcolesevelam":11831,"315":11832,"417":11833,"506":11834,"8080":11835,"cr":11836,"gace":11837,"jevity":11838,"si":11839,"reme":11840,"Ġamlactin":11841,"Ġfine":11842,"ani":11843,"Ġ1344":11844,"lysine":11845,"Ġonabotulinumtox":11846,"Ġchamber":11847,"28262":11848,"2316":11849,"bular":11850,"1003":11851,"anoic":11852,"7951":11853,"sca":11854,"Ġ+,":11855,"Ġevaluation":11856,"9594":11857,"openem":11858,"niture":11859,"8012":11860,"Ġdocosa":11861,"lactaid":11862,"Ġpleuritic":11863,"hexanoic":11864,"Ġtinn":11865,"Ġfibercon":11866,"Ġmeropenem":11867,"Ġosteoarthritis":11868,"imetasone":11869,"Ġunwitnessed":11870,"Ġfurniture":11871,"Ġdesoximetasone":11872,"Ġonabotulinumtoxina":11873,"Ġdocosahexanoic":11874,"bac":11875,"crisis":11876,"elop":11877,"rital":11878,"Ġfit":11879,"03311":11880,"spectravite":11881,"2760":11882,"Ġepid":11883,"7854":11884,"igall":11885,"ouse":11886,"complete":11887,"Ġantifib":11888,"Ġfoam":11889,"ometholone":11890,"Ġfluorometholone":11891,"Ġaminoglycoside":11892,"Ġabdomen":11893,"61818":11894,"Ġrice":11895,"Ġtinnitus":11896,"ritali":11897,"dss":11898,"Ġdim":11899,"Ġcf":11900,"Ġ1964":11901,"axone":11902,"2100":11903,"3819":11904,"78607":11905,"Ġclassic":11906,"ucks":11907,"Ġstribil":11908,"8479":11909,"cinnamon":11910,"Ġrxn":11911,"Ġcleanser":11912,"Ġclomipramine":11913,"Ġstribild":11914,"347":11915,"667":11916,"eg":11917,"asperdrink":11918,"olitis":11919,"Ġ1378":11920,"Ġarmour":11921,"Ġ1742":11922,"Ġ225":11923,"Ġ1983":11924,"utin":11925,"Ġmeters":11926,"romium":11927,"izing":11928,"Ġhemator":11929,"Ġflintstones":11930,"6821":11931,"Ġbisac":11932,"lipse":11933,"calcitrate":11934,"Ġultrasound":11935,"27652":11936,"50811":11937,"Ġneuralgia":11938,"Ġsafetyglide":11939,"60212":11940,"Ġplantar":11941,"microgestin":11942,"507":11943,"botox":11944,"Ġast":11945,"Ġwor":11946,"oniva":11947,"Ġdoc":11948,"Ġrev":11949,"ansule":11950,"rogen":11951,"aci":11952,"Ġ10459":11953,"Ġpred":11954,"heologic":11955,"hydrozoline":11956,"Ġspansule":11957,"Ġinjection":11958,"Ġzenpep":11959,"6930":11960,"97529":11961,"Ġcontroller":11962,"Ġbehavrl":11963,"Ġstarter":11964,"Ġfeels":11965,"Ġhematorheologic":11966,"606":11967,"855":11968,"844":11969,"camila":11970,"obenz":11971,"pads":11972,"vt":11973,"icable":11974,"armour":11975,"agard":11976,"isone":11977,"rian":11978,"Ġ1054":11979,"Ġ1254":11980,"Ġ2212":11981,"Ġstation":11982,"Ġiod":11983,"erolimus":11984,"Ġseroma":11985,"acting":11986,"4950":11987,"Ġlevitra":11988,"55090":11989,"Ġ1267":11990,"Ġcollar":11991,"Ġeclipse":11992,"Ġarteries":11993,"Ġalkylamines":11994,"25522":11995,"power":11996,"50812":11997,"Ġeverolimus":11998,"Ġattem":11999,"Ġcramping":12000,"janumet":12001,"severe":12002,"Ġtbi":12003,"Ġtrimethobenz":12004,"children":12005,"Ġtrimethobenzamide":12006,"5070":12007,"803":12008,"cod":12009,"neck":12010,"00845":12011,"Ġftt":12012,"ephal":12013,"Ġ1633":12014,"Ġ1234":12015,"0502":12016,"0280":12017,"trisone":12018,"28419":12019,"Ġthree":12020,"exalate":12021,"37272":12022,"88101":12023,"Ġ1269":12024,"dilt":12025,"Ġimatinib":12026,"0190":12027,"Ġflare":12028,"Ġ1567":12029,"ayexalate":12030,"Ġhemorrhoids":12031,"Ġeyeball":12032,"Ġseven":12033,"iorinal":12034,"Ġvertebral":12035,"melena":12036,"Ġlesion":12037,"81812":12038,"Ġfeeling":12039,"Ġbasaglar":12040,"percreme":12041,"Ġpersistent":12042,"4239":12043,"878":12044,"dot":12045,"mestinon":12046,"Ġwash":12047,"Ġtimoptic":12048,"not":12049,"piates":12050,"Ġpulseless":12051,"Ġviv":12052,"isthal":12053,"Ġ1353":12054,"Ġ1411":12055,"Ġuric":12056,"Ġ1522":12057,"ifoam":12058,"Ġchew":12059,"Ġinsulinx":12060,"3212":12061,"32019":12062,"Ġketostix":12063,"Ġ1697":12064,"cond":12065,"relpax":12066,"carbamate":12067,"972":12068,"retinoin":12069,"51882":12070,"92311":12071,"Ġocclusion":12072,"Ġfire":12073,"Ġtwisthal":12074,"Ġptca":12075,"Ġthiocarbamate":12076,"Ġbalance":12077,"asonique":12078,"Ġhumidifiers":12079,"Ġsixth":12080,"benecid":12081,"Ġtwisthaler":12082,"6200":12083,"8392":12084,"by":12085,"cas":12086,"welchol":12087,"attera":12088,"0075":12089,"Ġcand":12090,"Ġtx":12091,"ariva":12092,"Ġ1642":12093,"Ġnephro":12094,"amp":12095,"Ġ1701":12096,"25541":12097,"78492":12098,"Ġpharynx":12099,"Ġxray":12100,"Ġdyazide":12101,"Ġ10714":12102,"Ġ1569":12103,"lipase":12104,"6981":12105,"Ġstrattera":12106,"7622":12107,"6010":12108,"Ġbioflavon":12109,"9240":12110,"26893":12111,"Ġentacapone":12112,"Ġpedestrian":12113,"Ġdislodg":12114,"immune":12115,"Ġincisional":12116,"Ġattempt":12117,"548":12118,"607":12119,"817":12120,"bismuth":12121,"gh":12122,"neph":12123,"tam":12124,"0005":12125,"stolic":12126,"emtriva":12127,"rily":12128,"plus":12129,"elb":12130,"Ġ1954":12131,"Ġchlori":12132,"4553":12133,"synov":12134,"4646":12135,"diance":12136,"Ġnecon":12137,"Ġperidex":12138,"Ġprandin":12139,"Ġacetone":12140,"8770":12141,"Ġ+],":12142,"Ġbystolic":12143,"Ġpalpat":12144,"7244":12145,"better":12146,"Ġduoderm":12147,"973":12148,"974":12149,"Ġtea":12150,"Ġmaxalt":12151,"Ġterconazole":12152,"80703":12153,"powered":12154,"10621":12155,"Ġpentoxif":12156,"itoneum":12157,"testim":12158,"Ġ16662316":12159,"Ġjardiance":12160,"Ġpolymerase":12161,"Ġcandesartan":12162,"Ġpentoxifylline":12163,"659":12164,"61011":12165,"8488":12166,"citrate":12167,"otrol":12168,"treat":12169,"Ġwitch":12170,"Ġ230":12171,"0088":12172,"peridex":12173,"Ġinvega":12174,"Ġcoding":12175,"enatide":12176,"aday":12177,"acta":12178,"plex":12179,"Ġgol":12180,"Ġ1543":12181,"leev":12182,"Ġcombination":12183,"ipran":12184,"procardia":12185,"Ġexenatide":12186,"Ġthyrotox":12187,"Ġ1199":12188,"Ġtrandol":12189,"Ġzanaflex":12190,"ithromax":12191,"72992":12192,"Ġmania":12193,"Ġteg":12194,"Ġteripar":12195,"6691":12196,"citric":12197,"Ġpacks":12198,"Ġurethral":12199,"leevec":12200,"Ġtrandolapril":12201,"Ġteriparatide":12202,"8391":12203,"dim":12204,"naft":12205,"nalox":12206,"smo":12207,"timoptic":12208,"atosis":12209,"icd":12210,"Ġaicd":12211,"Ġsoma":12212,"lotrimin":12213,"Ġbals":12214,"Ġcus":12215,"alazide":12216,"ingual":12217,"isil":12218,"hion":12219,"Ġ1044":12220,"Ġ19509":12221,"Ġile":12222,"Ġlanolin":12223,"2220":12224,"lun":12225,"Ġsupine":12226,"evista":12227,"Ġprotopic":12228,"quil":12229,"8860":12230,"Ġ1099":12231,"Ġjtube":12232,"Ġhemostatic":12233,"Ġprostaglandins":12234,"Ġseleg":12235,"vanz":12236,"40011":12237,"Ġ180017":12238,"Ġperitoneum":12239,"itrolingual":12240,"Ġsacrum":12241,"Ġendothelin":12242,"Ġtuberculin":12243,"Ġtegaderm":12244,"naftate":12245,"Ġbalsalazide":12246,"Ġcushion":12247,"Ġselegiline":12248,"9114":12249,"hot":12250,"Ġdoxylamine":12251,"Ġ1834":12252,"Ġ1882":12253,"Ġ1434":12254,"0981":12255,"Ġ228":12256,"29570":12257,"Ġeating":12258,"tap":12259,"quick":12260,"894":12261,"Ġ14508":12262,"generlac":12263,"92231":12264,"Ġincreased":12265,"vana":12266,"Ġech":12267,"oxymetazoline":12268,"Ġboard":12269,"sustiva":12270,"81602":12271,"Ġcholelith":12272,"Ġtenosynov":12273,"Ġleukocyte":12274,"Ġsteam":12275,"dysp":12276,"lunesta":12277,"*,":12278,"218":12279,"227":12280,"632":12281,"cath":12282,"sam":12283,"infl":12284,"icide":12285,"olved":12286,"thro":12287,"erian":12288,"aler":12289,"idrosis":12290,"epredn":12291,"Ġlt":12292,"plnt":12293,"Ġnaf":12294,"Ġ1242":12295,"0232":12296,"Ġ1943":12297,"abonate":12298,"Ġprobenecid":12299,"4531":12300,"3572":12301,"Ġnitroquick":12302,"Ġ1499":12303,"Ġetabonate":12304,"960":12305,"79439":12306,"Ġcalculi":12307,"8131":12308,"Ġpharma":12309,"ulicide":12310,"Ġlotepredn":12311,"Ġurethritis":12312,"Ġtrimethoprim":12313,"Ġscabicide":12314,"Ġtetrahydrozoline":12315,"Ġpediculicide":12316,"Ġendometri":12317,"Ġdegeneration":12318,"Ġloteprednol":12319,"656":12320,"7089":12321,"950":12322,"hidrosis":12323,"nep":12324,"skin":12325,"osur":12326,"Ġamnes":12327,"Ġigg":12328,"2112":12329,"ocon":12330,"Ġhyperhidrosis":12331,"Ġcefurox":12332,"Ġextr":12333,"orbital":12334,"Ġradial":12335,"Ġ15229":12336,"Ġextn":12337,"8220":12338,"964":12339,"8510":12340,"Ġlying":12341,"irax":12342,"forteo":12343,"zeasorb":12344,"60511":12345,"thorazine":12346,"Ġzovirax":12347,"Ġthombos":12348,"Ġuricosur":12349,"Ġamnesia":12350,"Ġcefuroxime":12351,"Ġuricosurics":12352,"8796":12353,"mal":12354,"mylanta":12355,"prec":12356,"tom":12357,"yes":12358,"zent":12359,"zyr":12360,"Ġtro":12361,"ulis":12362,"empl":12363,"arni":12364,"Ġ1833":12365,"phic":12366,"Ġ13475":12367,"02415":12368,"Ġ1134":12369,"hyoscy":12370,"1923":12371,"Ġ1109":12372,"Ġ1169":12373,"rinolytic":12374,"Ġtranq":12375,"meds":12376,"yclic":12377,"Ġmelano":12378,"conv":12379,"975":12380,"Ġmesy":12381,"9429":12382,"Ġtransverse":12383,"Ġfosinopril":12384,"3453":12385,"02416":12386,"Ġerythema":12387,"56722":12388,"Ġgenteal":12389,"tts":12390,"Ġadhesion":12391,"analgesics":12392,"cobix":12393,"Ġracepinephrine":12394,"Ġsmartview":12395,"Ġantifibrinolytic":12396,"Ġdislodged":12397,"rilysin":12398,"Ġpalpatations":12399,"throat":12400,"neprilysin":12401,"precision":12402,"ulisine":12403,"emplar":12404,"342":12405,"543":12406,"699":12407,"668":12408,"735":12409,"normal":12410,"pd":12411,"so":12412,"Ġept":12413,"atio":12414,"Ġdur":12415,"erness":12416,"stung":12417,"Ġdibenz":12418,"anfac":12419,"epzicom":12420,"adron":12421,"admelog":12422,"Ġ1985":12423,"abri":12424,"2752":12425,"Ġeu":12426,"etaphil":12427,"light":12428,"Ġambulatory":12429,"ocean":12430,"iprep":12431,"Ġplasmin":12432,"4801":12433,"Ġclidinium":12434,"Ġheating":12435,"79099":12436,"Ġinferior":12437,"mediated":12438,"Ġglulisine":12439,"Ġcorp":12440,"Ġsulfonamides":12441,"87442":12442,"Ġguanfac":12443,"Ġsubtrochanteric":12444,"965":12445,"Ġthrombolytic":12446,"78841":12447,"Ġactivators":12448,"8130":12449,"Ġburning":12450,"Ġmcc":12451,"Ġmicrosp":12452,"85201":12453,"abdominal":12454,"72633":12455,"Ġclarinex":12456,"Ġarthropods":12457,"solu":12458,"Ġitching":12459,"Ġperiorbital":12460,"nacipran":12461,"Ġpurpura":12462,"Ġ14508231":12463,"Ġplasminogen":12464,"Ġguanfacine":12465,"705":12466,"7234":12467,"836":12468,"large":12469,"puncture":12470,"ziagen":12471,"zcobix":12472,"Ġarim":12473,"Ġsom":12474,"thate":12475,"Ġdem":12476,"Ġdka":12477,"anthate":12478,"Ġ1652":12479,"riq":12480,"Ġtaken":12481,"Ġ1342":12482,"Ġprezcobix":12483,"Ġ226":12484,"Ġenanthate":12485,"27400":12486,"ifib":12487,"78062":12488,"Ġiband":12489,"88102":12490,"Ġrocaltrol":12491,"8309":12492,"7303":12493,"ophlebitis":12494,"Ġvented":12495,"Ġactivase":12496,"adalat":12497,"51812":12498,"pelv":12499,"Ġmilnacipran":12500,"Ġcmplx":12501,"81612":12502,"Ġaxetil":12503,"80100":12504,"moderate":12505,"Ġendometriosis":12506,"Ġeptifib":12507,"Ġarimidex":12508,"Ġibandronate":12509,"5000":12510,"688":12511,"725":12512,"nizoral":12513,"rt":12514,"tucks":12515,"Ġperm":12516,"strep":12517,"rocaps":12518,"Ġ1032":12519,"phrocaps":12520,"Ġprehosp":12521,"Ġ1534":12522,"Ġtrig":12523,"oter":12524,"iletine":12525,"alcemia":12526,"1471":12527,"Ġcalcet":12528,"ocycl":12529,"ocalcemia":12530,"ethrin":12531,"afrin":12532,"heres":12533,"urocit":12534,"igamox":12535,"Ġ1289":12536,"8900":12537,"Ġhypocalcemia":12538,"sening":12539,"Ġrot":12540,"ectorol":12541,"betriq":12542,"8342":12543,"Ġconsta":12544,"Ġinduced":12545,"Ġpelv":12546,"Ġextremities":12547,"8244":12548,"Ġtuberos":12549,"Ġsudafed":12550,"Ġmexiletine":12551,"dizzy":12552,"Ġmcg":12553,"3090":12554,"stimulation":12555,"Ġinternally":12556,"previfem":12557,"72002":12558,"Ġcarotene":12559,"Ġunilateral":12560,"Ġmyrbetriq":12561,"ampral":12562,"Ġmelanoma":12563,"Ġmicrospheres":12564,"Ġpermethrin":12565,"2232":12566,"679":12567,"712":12568,"finacea":12569,"savella":12570,"ten":12571,"vistaril":12572,"ynt":12573,"zin":12574,"Ġsat":12575,"alk":12576,"Ġmg":12577,"periph":12578,"radex":12579,"Ġcomm":12580,"1100":12581,"Ġ1542":12582,"urts":12583,"2011":12584,"Ġblurred":12585,"selle":12586,"Ġinfections":12587,"ucleosis":12588,"Ġmethazolam":12589,"Ġherpesviral":12590,"Ġmononucleosis":12591,"7621":12592,"85221":12593,"72092":12594,"Ġdopaminergic":12595,"Ġpylori":12596,"82412":12597,"Ġlymphoid":12598,"trexall":12599,"52502":12600,"Ġcatapres":12601,"actonel":12602,"Ġ19133405":12603,"64303":12604,"Ġmethazolamide":12605,"6268":12606,"702":12607,"cd":12608,"nacl":12609,"uted":12610,"ven":12611,"asia":12612,"Ġsor":12613,"Ġbro":12614,"Ġbrom":12615,"Ġturm":12616,"Ġresolved":12617,"ometa":12618,"enulose":12619,"Ġ1835":12620,"Ġnasacort":12621,"03032":12622,"chond":12623,"Ġ1963":12624,"Ġ1973":12625,"Ġchoice":12626,"Ġcombivir":12627,"Ġbenzodiazepine":12628,"Ġrate":12629,"renol":12630,"5718":12631,"Ġexelon":12632,"Ġtraff":12633,"Ġjevity":12634,"tinib":12635,"Ġoils":12636,"Ġvalerian":12637,"97519":12638,"kaletra":12639,"Ġmove":12640,"rhinocort":12641,"away":12642,"Ġvenom":12643,"Ġsensitive":12644,"52571":12645,"Ġdroperidol":12646,"Ġtargeted":12647,"Ġdarifenacin":12648,"51289":12649,"ĠĠĠĠĠĠĠĠ":12650,"digox":12651,"Ġmobility":12652,"Ġfecal":12653,"Ġworsening":12654,"Ġturmeric":12655,"306":12656,"647":12657,"ake":12658,"aplegia":12659,"br":12660,"fs":12661,"uracil":12662,"icture":12663,"Ġten":12664,"nous":12665,"aste":12666,"minuted":12667,"Ġinv":12668,"1082":12669,"Ġlialda":12670,"Ġ1042":12671,"Ġcomminuted":12672,"Ġtape":12673,"Ġ1222":12674,"Ġ1544":12675,"2967":12676,"sym":12677,"3763":12678,"osterior":12679,"Ġmonurol":12680,"Ġ11648":12681,"Ġinfatabs":12682,"medium":12683,"Ġze":12684,"Ġstricture":12685,"Ġparaplegia":12686,"45850":12687,"Ġlyme":12688,"Ġ196100":12689,"8011":12690,"Ġ195286":12691,"Ġtissues":12692,"79601":12693,"Ġmoisturizing":12694,"5362":12695,"Ġprimrose":12696,"30470":12697,"91840":12698,"96909":12699,"Ġaffective":12700,"Ġgrand":12701,"ferrex":12702,"Ġunderpads":12703,"postpartum":12704,"9063":12705,"caf":12706,"ceva":12707,"ii":12708,"pn":12709,"uit":12710,"Ġcycle":12711,"ala":12712,"iapis":12713,"Ġ1832":12714,"Ġnck":12715,"Ġ1343":12716,"upent":12717,"Ġ1975":12718,"1581":12719,"glut":12720,"ocolitis":12721,"78061":12722,"Ġhypernat":12723,"4502":12724,"Ġsusp":12725,"5442":12726,"Ġtrusopt":12727,"1006":12728,"poni":12729,"benzocaine":12730,"Ġpriapis":12731,"Ġparaly":12732,"Ġ17204":12733,"83104":12734,"Ġdiffuse":12735,"Ġbdy":12736,"Ġdtp":12737,"9243":12738,"Ġtenderness":12739,"61212":12740,"topenic":12741,"Ġrobaxin":12742,"biotin":12743,"Ġincidents":12744,"Ġacromioclavic":12745,"Ġdiflucan":12746,"tamiflu":12747,"Ġpriapism":12748,"217":12749,"653":12750,"easy":12751,"fem":12752,"ls":12753,"viaz":12754,"Ġposterior":12755,"Ġsantyl":12756,"Ġdens":12757,"alus":12758,"Ġinteg":12759,"etoh":12760,"elara":12761,"0211":12762,"Ġ1154":12763,"ucodyl":12764,"25461":12765,"Ġacidoph":12766,"Ġnonpowered":12767,"Ġsuspected":12768,"unithroid":12769,"hydrox":12770,"igare":12771,"Ġpolymyxin":12772,"flush":12773,"calan":12774,"Ġglycolax":12775,"ammagard":12776,"Ġthrombophlebitis":12777,"vancocin":12778,"Ġpancreatic":12779,"7011":12780,"79651":12781,"Ġtendinitis":12782,"Ġenterocolitis":12783,"Ġbaseball":12784,"Ġcoccyx":12785,"17210":12786,"60512":12787,"Ġstarch":12788,"Ġadmission":12789,"Ġdislocat":12790,"Ġcopaxone":12791,"ephalus":12792,"Ġhypernatremia":12793,"343":12794,"4789":12795,"556":12796,"5272":12797,"bun":12798,"kcl":12799,"suc":12800,"Ġbp":12801,"Ġty":12802,"isc":12803,"1051":12804,"Ġanoro":12805,"aclot":12806,"Ġnight":12807,"ucynt":12808,"Ġams":12809,"1952":12810,"2960":12811,"Ġcostimulation":12812,"ocate":12813,"clar":12814,"5728":12815,"Ġfalls":12816,"itral":12817,"Ġtestim":12818,"Ġlevobun":12819,"Ġspond":12820,"Ġ11965":12821,"Ġhydrocephalus":12822,"Ġhemoper":12823,"carnitine":12824,"Ġ1497":12825,"672":12826,"Ġpenic":12827,"8689":12828,"Ġformoterol":12829,"82101":12830,"81201":12831,"depend":12832,"Ġlinaclot":12833,"8471":12834,"84510":12835,"Ġsupport":12836,"Ġniacinamide":12837,"Ġuteri":12838,"52572":12839,"salonpas":12840,"Ġpasngr":12841,"Ġachieve":12842,"Ġtolnaftate":12843,"Ġamputat":12844,"Ġzyg":12845,"imetidine":12846,"Ġproctosol":12847,"Ġ18112598":12848,"inflm":12849,"Ġ19610016":12850,"ucynta":12851,"Ġlevobunolol":12852,"Ġlinaclotide":12853,"2231":12854,"5441":12855,"750":12856,"8791":12857,"929":12858,"apidra":12859,"prist":12860,"vap":12861,"xe":12862,"Ġpna":12863,"resto":12864,"Ġbar":12865,"0080":12866,"Ġcigare":12867,"Ġadap":12868,"Ġhurts":12869,"anumet":12870,"Ġfollic":12871,"enna":12872,"Ġagg":12873,"0281":12874,"Ġstelara":12875,"25002":12876,"estran":12877,"2012":12878,"Ġthickening":12879,"4988":12880,"Ġskl":12881,"8930":12882,"Ġjanumet":12883,"Ġzaditor":12884,"Ġobesity":12885,"oquinol":12886,"rash":12887,"8320":12888,"Ġincr":12889,"1972":12890,"45981":12891,"Ġnexplanon":12892,"9504":12893,"82432":12894,"Ġstools":12895,"pyridoxine":12896,"ttes":12897,"dextrometh":12898,"Ġsustenna":12899,"Ġgreater":12900,"Ġfocalin":12901,"viactiv":12902,"tomel":12903,"Ġeptifibatide":12904,"Ġinvok":12905,"Ġzygomatic":12906,"Ġcigarettes":12907,"652":12908,"dtap":12909,"fall":12910,"nas":12911,"pap":12912,"sion":12913,"soline":12914,"Ġho":12915,"Ġ16124":12916,"Ġnepro":12917,"7829":12918,"5855":12919,"extra":12920,"4631":12921,"Ġmonone":12922,"Ġemp":12923,"ascorbic":12924,"Ġmyfortic":12925,"Ġpalps":12926,"71942":12927,"decadron":12928,"Ġnorgestrel":12929,"9478":12930,"30301":12931,"8456":12932,"81399":12933,"shot":12934,"52592":12935,"Ġcarboxymethylcell":12936,"Ġmastitis":12937,"Ġentresto":12938,"lotemax":12939,"44309":12940,"Ġgunshot":12941,"Ġseventh":12942,"byetta":12943,"treatment":12944,"Ġgolimumab":12945,"pristiq":12946,"745":12947,"806":12948,"9383":12949,"brom":12950,"baker":12951,"cir":12952,"Ġwork":12953,"Ġapidra":12954,"thickening":12955,"Ġdiaph":12956,"Ġcimetidine":12957,"Ġ-.":12958,"Ġhered":12959,"Ġgaviscon":12960,"0489":12961,"iff":12962,"Ġ1942":12963,"1539":12964,"7830":12965,"Ġ1117":12966,"Ġhemothorax":12967,"insic":12968,"Ġcomplicating":12969,"Ġeffient":12970,"4283":12971,"Ġmuch":12972,"menorrhea":12973,"40901":12974,"79642":12975,"without":12976,"Ġburst":12977,"40012":12978,"92310":12979,"Ġdysmenorrhea":12980,"Ġpowder":12981,"Ġchemo":12982,"Ġfruit":12983,"Ġ11965254":12984,"dextrometho":12985,"circa":12986,"%-":12987,"534":12988,"654":12989,"6092":12990,"866":12991,"oiet":12992,"rrh":12993,"invanz":12994,"onaz":12995,"erof":12996,"stric":12997,"Ġcry":12998,"Ġmek":12999,"Ġintake":13000,"lower":13001,"Ġ1622":13002,"Ġ1844":13003,"Ġ1022":13004,"1152":13005,"Ġgon":13006,"opoiet":13007,"Ġamb":13008,"Ġcombins":13009,"actigall":13010,"Ġnonrheumatic":13011,"megace":13012,"augm":13013,"Ġtrolamine":13014,"8982":13015,"Ġhemrrh":13016,"ather":13017,"cupril":13018,"valve":13019,"Ġfibromatosis":13020,"Ġbreo":13021,"1123":13022,"Ġenterostomy":13023,"Ġdays":13024,"Ġtibial":13025,"60221":13026,"Ġ10264646":13027,"61610":13028,"Ġiodoquinol":13029,"oconstric":13030,"Ġincruse":13031,"Ġinvokana":13032,"augmentin":13033,"Ġhemrrhoid":13034,"8782":13035,"9194":13036,"aa":13037,"biol":13038,"fin":13039,"gay":13040,"til":13041,"aspercreme":13042,"Ġbarth":13043,"Ġvel":13044,"ionex":13045,"Ġ14029":13046,"0282":13047,"Ġurox":13048,"Ġ1152":13049,"Ġ1962":13050,"Ġdisl":13051,"22089":13052,"tavera":13053,"Ġru":13054,"Ġsupr":13055,"7849":13056,"Ġdermato":13057,"7906":13058,"intel":13059,"Ġleaking":13060,"Ġzostavax":13061,"simvastatin":13062,"nontherm":13063,"Ġrose":13064,"Ġhips":13065,"Ġfinacea":13066,"Ġnyst":13067,"Ġorganisms":13068,"962":13069,"Ġsorethroat":13070,"lidocream":13071,"Ġmyeloid":13072,"Ġlockflush":13073,"Ġpolycy":13074,"vasoconstric":13075,"82898":13076,"Ġantepartum":13077,"Ġretroper":13078,"Ġthyrotoxic":13079,"Ġ19528617":13080,"Ġ16124481":13081,"Ġuroxatral":13082,"nonthermal":13083,"689":13084,"8250":13085,"auc":13086,"iatus":13087,"nar":13088,"psis":13089,"wrist":13090,"Ġsacral":13091,"edex":13092,"entan":13093,"Ġoptic":13094,"emla":13095,"Ġmitral":13096,"Ġrestor":13097,"arvy":13098,"Ġvy":13099,"Ġnimod":13100,"Ġnizoral":13101,"Ġ12468":13102,"Ġargin":13103,"Ġcomplx":13104,"1588":13105,"Ġxy":13106,"tegra":13107,"1002":13108,"Ġ1177":13109,"Ġ12337":13110,"Ġbikt":13111,"Ġhypom":13112,"Ġangiopathy":13113,"rolene":13114,"Ġphenol":13115,"mov":13116,"Ġlacerat":13117,"6982":13118,"Ġdebrox":13119,"Ġhypotens":13120,"rotum":13121,"9273":13122,"2591":13123,"8072":13124,"Ġmcp":13125,"6149":13126,"35800":13127,"cortifoam":13128,"afenib":13129,"Ġ16893819":13130,"81811":13131,"Ġccr":13132,"Ġgreen":13133,"Ġcorpus":13134,"Ġbartholin":13135,"iatuss":13136,"Ġnimodipine":13137,"Ġbiktarvy":13138,"012":13139,"5126":13140,"8781":13141,"crom":13142,"cillin":13143,"cumin":13144,"cetaphil":13145,"Ġpass":13146,"Ġaid":13147,"Ġsvt":13148,"Ġ240":13149,"piration":13150,"perio":13151,"aging":13152,"mitate":13153,"Ġgain":13154,"03031":13155,"amamide":13156,"Ġ1752":13157,"Ġ1982":13158,"Ġenablex":13159,"Ġcombos":13160,"Ġcalcitrate":13161,"7808":13162,"diabet":13163,"aller":13164,"7944":13165,"Ġprostatitis":13166,"Ġdexedrine":13167,"7868":13168,"Ġinfected":13169,"Ġmodifier":13170,"Ġgastrocrom":13171,"ardium":13172,"mozyme":13173,"Ġ159738":13174,"Ġpalmitate":13175,"8540":13176,"Ġthrombopoiet":13177,"advocate":13178,"lidin":13179,"Ġscrotum":13180,"Ġremover":13181,"92400":13182,"Ġcystostomy":13183,"Ġtransmit":13184,"20219":13185,"8141":13186,"46911":13187,"5199":13188,"alcoh":13189,"Ġpremature":13190,"Ġtremors":13191,"83209":13192,"Ġmagox":13193,"Ġatriovent":13194,"Ġintrinsic":13195,"cobamamide":13196,"Ġapplicable":13197,"Ġnonruptured":13198,"smoothe":13199,"Ġnafcillin":13200,"Ġ15229574":13201,"Ġ13475033":13202,"Ġsorafenib":13203,"Ġrestoril":13204,"moviprep":13205,"Ġthrombopoietin":13206,"344":13207,"544":13208,"5001":13209,"925":13210,"bic":13211,"eze":13212,"fsh":13213,"mol":13214,"sup":13215,"saf":13216,"xerof":13217,"invega":13218,"icy":13219,"Ġdx":13220,"astom":13221,"Ġaciphex":13222,"osul":13223,"Ġ1332":13224,"Ġ1532":13225,"Ġ1922":13226,"Ġ1978":13227,"Ġenthes":13228,"25013":13229,"3011":13230,"iris":13231,"oxac":13232,"Ġglucos":13233,"4889":13234,"5792":13235,"aud":13236,"Ġmusculo":13237,"Ġimaging":13238,"Ġhealing":13239,"9975":13240,"Ġultrafine":13241,"Ġeyes":13242,"17983":13243,"4270":13244,"Ġ17447":13245,"Ġmanag":13246,"45989":13247,"4144":13248,"Ġbiotene":13249,"Ġintrahep":13250,"61215":13251,"acetaminop":13252,"skeletal":13253,"Ġthrombocytopenic":13254,"Ġglutamine":13255,"Ġ12298456":13256,"Ġfocal":13257,"Ġfitting":13258,"Ġhemoperitoneum":13259,"onazorb":13260,"Ġdermatophy":13261,"lidinium":13262,"Ġmusculoskeletal":13263,"624":13264,"637":13265,"6991":13266,"mi":13267,"nul":13268,"tar":13269,"tonic":13270,"icalc":13271,"odex":13272,"0001":13273,"Ġdulera":13274,"Ġcyp":13275,"Ġrele":13276,"Ġoce":13277,"Ġfiss":13278,"enish":13279,"enablex":13280,"Ġantinflammatory":13281,"Ġnitrolingual":13282,"Ġgan":13283,"0512":13284,"Ġtribrom":13285,"Ġ229":13286,"Ġalprost":13287,"1519":13288,"guloid":13289,"1420":13290,"phene":13291,"4310":13292,"ibu":13293,"Ġ10578":13294,"Ġ1197":13295,"Ġreplenish":13296,"Ġcontus":13297,"yclist":13298,"asmanex":13299,"sud":13300,"coll":13301,"Ġ16358":13302,"Ġparicalc":13303,"aphris":13304,"7214":13305,"Ġpyogen":13306,"61217":13307,"Ġprolapse":13308,"Ġfrequent":13309,"30400":13310,"fibercon":13311,"Ġcramps":13312,"Ġ19106010":13313,"64663":13314,"Ġtrnsphal":13315,"Ġscabies":13316,"petro":13317,"rowing":13318,"Ġdimethicone":13319,"Ġileus":13320,"Ġarginine":13321,"Ġmanagement":13322,"Ġreleas":13323,"Ġocean":13324,"Ġfissure":13325,"Ġalprostadil":13326,"Ġreplenisher":13327,"Ġparicalcitol":13328,"2119":13329,"bid":13330,"fro":13331,"golytely":13332,"matic":13333,"Ġum":13334,"Ġaft":13335,"olax":13336,"than":13337,"thera":13338,"Ġboniva":13339,"eminal":13340,"Ġfell":13341,"Ġ1052":13342,"Ġ1232":13343,"lyase":13344,"Ġyasmin":13345,"chym":13346,"Ġ227":13347,"Ġ1932":13348,"hypro":13349,"ilmed":13350,"Ġbleph":13351,"butol":13352,"Ġheav":13353,"3350":13354,"Ġ1287":13355,"akin":13356,"8991":13357,"flintstones":13358,"ubicin":13359,"Ġrozerem":13360,"Ġ16809":13361,"Ġbicyclist":13362,"Ġ177162":13363,"8532":13364,"7012":13365,"dext":13366,"79652":13367,"Ġingrowing":13368,"92321":13369,"82831":13370,"Ġhallucin":13371,"Ġcanasa":13372,"63502":13373,"Ġcleans":13374,"down":13375,"Ġhorse":13376,"Ġbioflavonoid":13377,"zentry":13378,"Ġtrigeminal":13379,"hydroxylase":13380,"aucoma":13381,"Ġ15973805":13382,"thanum":13383,"Ġ17716210":13384,"617":13385,"flor":13386,"hs":13387,"ise":13388,"jeo":13389,"pstr":13390,"pace":13391,"roderm":13392,"rtn":13393,"uxan":13394,"odc":13395,"strat":13396,"Ġcort":13397,"Ġmi":13398,"anz":13399,"Ġvite":13400,"Ġanarth":13401,"rocaltrol":13402,"Ġ1842":13403,"aciphex":13404,"12100":13405,"0816":13406,"eft":13407,"Ġarformoterol":13408,"1809":13409,"Ġlanthanum":13410,"Ġornithine":13411,"neutral":13412,"agnesemia":13413,"Ġ1167":13414,"Ġ1277":13415,"Ġ12760212":13416,"Ġleak":13417,"Ġtray":13418,"Ġ1377":13419,"medicin":13420,"Ġvasotec":13421,"Ġziagen":13422,"Ġzometa":13423,"Ġpolyneuropathy":13424,"7860":13425,"9916":13426,"moving":13427,"Ġmonoject":13428,"rituxan":13429,"Ġstrnous":13430,"Ġdeath":13431,"rexrtn":13432,"Ġparxy":13433,"Ġseb":13434,"Ġ17903":13435,"92232":13436,"Ġovrexrtn":13437,"Ġdoe":13438,"Ġdecarboxylase":13439,"82832":13440,"26899":13441,"Ġmacrodantin":13442,"Ġmci":13443,"2192":13444,"Ġneurogenic":13445,"78321":13446,"38611":13447,"Ġrhinocort":13448,"Ġferrex":13449,"cheratussin":13450,"Ġ10459551":13451,"convert":13452,"intellix":13453,"strattera":13454,"Ġanarthria":13455,"Ġparxysmal":13456,"911":13457,"hom":13458,"hand":13459,"oz":13460,"Ġorsythia":13461,"0012":13462,"Ġcit":13463,"Ġtelm":13464,"Ġmepron":13465,"ordil":13466,"isartan":13467,"enic":13468,"Ġlib":13469,"Ġlarynx":13470,"Ġicaps":13471,"coq":13472,"osource":13473,"1210":13474,"1259":13475,"Ġnip":13476,"Ġging":13477,"0920":13478,"ambutol":13479,"Ġsting":13480,"1889":13481,"Ġchromium":13482,"2645":13483,"Ġsalmon":13484,"Ġcartil":13485,"Ġry":13486,"Ġrelpax":13487,"5601":13488,"Ġfluvastatin":13489,"ramune":13490,"artif":13491,"Ġcystic":13492,"Ġdyst":13493,"Ġ1397":13494,"Ġurination":13495,"Ġcorros":13496,"Ġ?,":13497,"azas":13498,"Ġetco":13499,"Ġlacer":13500,"ovid":13501,"Ġdigit":13502,"peptidase":13503,"Ġethambutol":13504,"83101":13505,"Ġdehydropeptidase":13506,"Ġecchym":13507,"obesity":13508,"athies":13509,"78830":13510,"92421":13511,"8246":13512,"82841":13513,"99642":13514,"83201":13515,"Ġmotor":13516,"72751":13517,"61512":13518,"20410":13519,"Ġiliac":13520,"Ġpathological":13521,"vivelle":13522,"zarre":13523,"Ġ19921471":13524,"Ġfull":13525,"nexavar":13526,"Ġextrm":13527,"Ġsuspension":13528,"Ġvytorin":13529,"Ġhypomagnesemia":13530,"Ġreleasing":13531,"Ġtelmisartan":13532,"Ġcartilage":13533,"879":13534,"bite":13535,"fidine":13536,"galy":13537,"kast":13538,"left":13539,"mv":13540,"povid":13541,"tiet":13542,"ytel":13543,"zer":13544,"Ġwelchol":13545,"Ġpaste":13546,"thb":13547,"edarone":13548,"Ġtine":13549,"Ġtou":13550,"ulfidine":13551,"minipress":13552,"Ġvalcyte":13553,"Ġvoice":13554,"encare":13555,"Ġachil":13556,"Ġ16675":13557,"Ġ1822":13558,"acr":13559,"acen":13560,"Ġnev":13561,"Ġnuvigil":13562,"1190":13563,"antage":13564,"Ġuan":13565,"ilube":13566,"1909":13567,"1976":13568,"Ġlotrimin":13569,"2209":13570,"lukast":13571,"ocarditis":13572,"irlukast":13573,"afirlukast":13574,"4752":13575,"Ġshunt":13576,"ostasis":13577,"anophen":13578,"8842":13579,"Ġbizarre":13580,"Ġzafirlukast":13581,"Ġnicorette":13582,"Ġester":13583,"9702":13584,"Ġ186558":13585,"6520":13586,"Ġ18203":13587,"Ġdronedarone":13588,"Ġadvantage":13589,"Ġandrogenic":13590,"aches":13591,"8242":13592,"8056":13593,"Ġviii":13594,"82851":13595,"4240":13596,"35768":13597,"propan":13598,"ketostix":13599,"iqa":13600,"Ġvaricose":13601,"xxd":13602,"83402":13603,"Ġhiccough":13604,"Ġmononeuritis":13605,"vasoconstrictor":13606,"nulytel":13607,"Ġ16358341":13608,"tietze":13609,"Ġtinea":13610,"Ġtoujeo":13611,"Ġachilles":13612,"nulytely":13613,"4260":13614,"678":13615,"azodone":13616,"dan":13617,"og":13618,"yram":13619,"Ġpim":13620,"Ġprom":13621,"onyl":13622,"lotinib":13623,"nop":13624,"Ġhv":13625,"Ġhexa":13626,"anastom":13627,"Ġinotro":13628,"1042":13629,"Ġadministration":13630,"ecrin":13631,"eclidinium":13632,"Ġtapent":13633,"1143":13634,"Ġgsw":13635,"0300":13636,"opel":13637,"otene":13638,"Ġchin":13639,"1552":13640,"2906":13641,"2988":13642,"etairis":13643,"Ġserum":13644,"4700":13645,"Ġshake":13646,"5733":13647,"3314":13648,"Ġnicoderm":13649,"azilect":13650,"8700":13651,"cholec":13652,"Ġtriazole":13653,"Ġtorsion":13654,"Ġ*,":13655,"Ġerlotinib":13656,"Ġunclear":13657,"7774":13658,"ynic":13659,"9602":13660,"Ġethacr":13661,"Ġpyridium":13662,"6285":13663,"5004":13664,"Ġgross":13665,"Ġtransm":13666,"70714":13667,"nicotrol":13668,"Ġdisopyram":13669,"desitin":13670,"Ġretained":13671,"malig":13672,"Ġ11648387":13673,"diabetes":13674,"Ġdermatophytosis":13675,"Ġumeclidinium":13676,"Ġhexavitamin":13677,"Ġinotropes":13678,"Ġtapentadol":13679,"Ġethacrynic":13680,"Ġdisopyramide":13681,"32591":13682,"655":13683,"7101":13684,"7062":13685,"7235":13686,"7581":13687,"8000":13688,"9032":13689,"9031":13690,"doxylamine":13691,"eum":13692,"jen":13693,"lial":13694,"tem":13695,"00131":13696,"ster":13697,"Ġdimen":13698,"Ġreno":13699,"Ġmorb":13700,"Ġhouse":13701,"Ġintegra":13702,"ecrol":13703,"plast":13704,"antig":13705,"amen":13706,"Ġ1732":13707,"Ġdisrd":13708,"ocal":13709,"risentan":13710,"Ġphase":13711,"Ġchlorine":13712,"Ġ10427":13713,"8843":13714,"essa":13715,"medroxyprogest":13716,"Ġhypostasis":13717,"hydrinate":13718,"Ġmethyldopa":13719,"Ġlegs":13720,"6850":13721,"Ġ15935768":13722,"simponi":13723,"Ġcyclophosph":13724,"Ġulipr":13725,"50919":13726,"Ġestrog":13727,"7632":13728,"95919":13729,"4186":13730,"Ġfeosol":13731,"63492":13732,"aryngeal":13733,"Ġmiscellan":13734,"5898":13735,"8149":13736,"Ġdelta":13737,"transf":13738,"luts":13739,"03213":13740,"Ġprempro":13741,"Ġcrohns":13742,"Ġnovofine":13743,"49849":13744,"Ġpericardium":13745,"Ġ18001923":13746,"miconazole":13747,"continuous":13748,"Ġlabor":13749,"firearm":13750,"Ġrider":13751,"chills":13752,"Ġendothelial":13753,"Ġrollator":13754,"Ġborderline":13755,"Ġfastclix":13756,"Ġrevlimid":13757,"nephron":13758,"vapor":13759,"Ġambrisentan":13760,"Ġxyzal":13761,"sudafed":13762,"Ġpimecrol":13763,"Ġdimenhydrinate":13764,"Ġmorbid":13765,"antigas":13766,"Ġcyclophosphamide":13767,"Ġulipristal":13768,"Ġpimecrolimus":13769,"4289":13770,"4020":13771,"822":13772,"8088":13773,"cia":13774,"cubicin":13775,"diaz":13776,"gleevec":13777,"zor":13778,"loestrin":13779,"entacapone":13780,"ulfi":13781,"idra":13782,"Ġanx":13783,"Ġmedrol":13784,"Ġlec":13785,"aminophen":13786,"1238":13787,"12600":13788,"1131":13789,"1132":13790,"phcon":13791,"itek":13792,"25040":13793,"1785":13794,"Ġdisulfi":13795,"Ġrunn":13796,"Ġker":13797,"3501":13798,"5779":13799,"5432":13800,"quet":13801,"Ġinfx":13802,"almose":13803,"Ġ1387":13804,"into":13805,"8992":13806,"ianal":13807,"Ġperianal":13808,"Ġmode":13809,"ards":13810,"Ġ15649":13811,"Ġpenciclovir":13812,"Ġestring":13813,"tob":13814,"25012":13815,"ringent":13816,"ments":13817,"Ġseasonique":13818,"aceous":13819,"82142":13820,"Ġfeed":13821,"syncope":13822,"dexcom":13823,"Ġsubstances":13824,"9413":13825,"18651":13826,"82838":13827,"Ġluteal":13828,"02511":13829,"3072":13830,"Ġrhinitis":13831,"ptine":13832,"Ġmucus":13833,"comfortable":13834,"prempro":13835,"Ġosteoarth":13836,"Ġretinal":13837,"Ġsexl":13838,"Ġempty":13839,"Ġnystop":13840,"Ġ12337553":13841,"xeroform":13842,"Ġintrahepatic":13843,"Ġsebaceous":13844,"Ġtransmiss":13845,"aminophenol":13846,"Ġdisulfiram":13847,"almoseptine":13848,"3441":13849,"7002":13850,"9352":13851,"bleed":13852,"ducodyl":13853,"kayexalate":13854,"lastic":13855,"nase":13856,"witch":13857,"Ġptosis":13858,"icinal":13859,"Ġalot":13860,"olessa":13861,"alaway":13862,"Ġoph":13863,"aning":13864,"Ġ1632":13865,"Ġ1892":13866,"Ġ1352":13867,"Ġ15589":13868,"Ġ1132":13869,"Ġtrip":13870,"Ġchf":13871,"3112":13872,"Ġcarcin":13873,"78451":13874,"rencia":13875,"ithin":13876,"5830":13877,"3991":13878,"46812":13879,"htub":13880,"4110":13881,"glycolax":13882,"7905":13883,"ospasm":13884,"Ġhepat":13885,"medicinal":13886,"Ġfibr":13887,"seng":13888,"Ġembl":13889,"Ġtree":13890,"7743":13891,"Ġbreeze":13892,"infect":13893,"Ġ17517983":13894,"8504":13895,"accident":13896,"denavir":13897,"Ġcerebro":13898,"Ġpsor":13899,"Ġdornase":13900,"gerid":13901,"80501":13902,"Ġintracaps":13903,"Ġerythromycins":13904,"vadene":13905,"benign":13906,"hesive":13907,"briefs":13908,"02411":13909,"82594":13910,"02344":13911,"60222":13912,"themia":13913,"83202":13914,"ketones":13915,"Ġbathtub":13916,"aspinal":13917,"actazide":13918,"Ġrotator":13919,"Ġ12468016":13920,"cholecalciferol":13921,"Ġlecithin":13922,"Ġrunning":13923,"Ġemblsm":13924,"Ġintracapsular":13925,"8200":13926,"ae":13927,"hp":13928,"letairis":13929,"Ġwell":13930,"odar":13931,"peri":13932,"Ġnorel":13933,"Ġfing":13934,"Ġfrost":13935,"Ġfelb":13936,"ans":13937,"spar":13938,"aminated":13939,"osan":13940,"Ġnef":13941,"0603":13942,"Ġstiff":13943,"Ġnonverbal":13944,"Ġrol":13945,"7822":13946,"ouble":13947,"Ġ1127":13948,"Ġ10699":13949,"Ġangioedema":13950,"Ġcontain":13951,"Ġcontaminated":13952,"benzdiaz":13953,"Ġtransfusion":13954,"Ġ1477":13955,"Ġazilect":13956,"Ġ16449849":13957,"Ġ&,":13958,"4279":13959,"85598":13960,"sulfate":13961,"27669":13962,"Ġcarbamates":13963,"Ġgeri":13964,"Ġ19538":13965,"Ġlexiva":13966,"seltzer":13967,"desenex":13968,"Ġlethargic":13969,"2085":13970,"propecia":13971,"Ġintraspinal":13972,"Ġpathologic":13973,"Ġduragesic":13974,"tarceva":13975,"Ġ17903094":13976,"povidon":13977,"propanolol":13978,"Ġnorelgest":13979,"Ġfrostbite":13980,"Ġnefazodone":13981,"630":13982,"857":13983,"fole":13984,"gum":13985,"nk":13986,"nash":13987,"nucynta":13988,"sand":13989,"ylo":13990,"Ġbirth":13991,"0082":13992,"0073":13993,"Ġcampral":13994,"pilex":13995,"atur":13996,"anib":13997,"idocycl":13998,"1087":13999,"epatitis":14000,"Ġ16557":14001,"Ġlatex":14002,"Ġtazar":14003,"Ġurose":14004,"Ġprediabetes":14005,"Ġaspiration":14006,"Ġ17729":14007,"Ġstd":14008,"Ġsteat":14009,"Ġalafen":14010,"Ġtherape":14011,"Ġcarpal":14012,"Ġnonalcoh":14013,"ortical":14014,"4776":14015,"mepilex":14016,"32029":14017,"balance":14018,"8821":14019,"Ġ13545":14020,"Ġweather":14021,"Ġpolysulfate":14022,"Ġnitrogen":14023,"8757":14024,"Ġelite":14025,"ohepatitis":14026,"otrient":14027,"eptics":14028,"Ġperipherally":14029,"Ġ17800":14030,"Ġiridocycl":14031,"9308":14032,"Ġirritation":14033,"56989":14034,"Ġtransparent":14035,"80507":14036,"6122":14037,"3258":14038,"under":14039,"6091":14040,"Ġpentosan":14041,"03317":14042,"Ġclearance":14043,"Ġtricyclic":14044,"Ġ16040005":14045,"Ġechinacea":14046,"cathflo":14047,"Ġenthesopathy":14048,"Ġcleansers":14049,"Ġ18655830":14050,"Ġfeeding":14051,"foley":14052,"Ġtazarotene":14053,"Ġurosepsis":14054,"Ġsteatohepatitis":14055,"Ġtherapeutic":14056,"Ġnonalcoholic":14057,"Ġiridocyclitis":14058,"633":14059,"8352":14060,"945":14061,"bing":14062,"cul":14063,"dure":14064,"gammagard":14065,"iud":14066,"mang":14067,"Ġ\\":14068,"asms":14069,"atme":14070,"Ġsa":14071,
[...]
